{
  "version": "1.0",
  "truncation": {
    "direction": "Right",
    "max_length": 256,
    "strategy": "LongestFirst",
    "stride": 0
  },
  "padding": {
    "strategy": "BatchLongest",
    "direction": "Right",
    "pad_to_multiple_of": null,
    "pad_id": 1,
    "pad_type_id": 0,
    "pad_token": "<pad>"
  },
  "added_tokens": [
    {
      "id": 0,
      "content": "<unk>",
      "single_word": false,
      "lstrip": false,
      "rstrip": false,
      "normalized": false,
      "special": true
    },
    {
      "id": 1,
      "content": "<pad>",
      "single_word": false,
      "lstrip": false,
      "rstrip": false,
      "normalized": false,
      "special": true
    },
    {
      "id": 2,
      "content": "<bos>",
      "single_word": false,
      "lstrip": false,
      "rstrip": false,
      "normalized": false,
      "special": true
    },
    {
      "id": 3,
      "content": "<eos>",
      "single_word": false,
      "lstrip": false,
      "rstrip": false,
      "normalized": false,
      "special": true
    }
  ],
  "normalizer": null,
  "pre_tokenizer": null,
  "post_processor": null,
  "decoder": {
    "type": "WordPiece",
    "prefix": "##",
    "cleanup": true
  },
  "model": {
    "type": "WordPiece",
    "unk_token": "<unk>",
    "continuing_subword_prefix": "##",
    "max_input_chars_per_word": 100,
    "vocab": {
      "<unk>": 0,
      "<pad>": 1,
      "<bos>": 2,
      "<eos>": 3,
      " ": 4,
      "!": 5,
      "\"": 6,
      "$": 7,
      "%": 8,
      "'": 9,
      "(": 10,
      ")": 11,
      "+": 12,
      "-": 13,
      ".": 14,
      "/": 15,
      "0": 16,
      "1": 17,
      "2": 18,
      "3": 19,
      "4": 20,
      "5": 21,
      "6": 22,
      "7": 23,
      "8": 24,
      "9": 25,
      ":": 26,
      "<": 27,
      "=": 28,
      ">": 29,
      "?": 30,
      "A": 31,
      "B": 32,
      "C": 33,
      "D": 34,
      "E": 35,
      "F": 36,
      "G": 37,
      "H": 38,
      "I": 39,
      "J": 40,
      "K": 41,
      "L": 42,
      "M": 43,
      "N": 44,
      "O": 45,
      "P": 46,
      "Q": 47,
      "R": 48,
      "S": 49,
      "T": 50,
      "U": 51,
      "V": 52,
      "W": 53,
      "X": 54,
      "Y": 55,
      "Z": 56,
      "[": 57,
      "\\": 58,
      "]": 59,
      "^": 60,
      "_": 61,
      "`": 62,
      "a": 63,
      "b": 64,
      "c": 65,
      "d": 66,
      "e": 67,
      "f": 68,
      "g": 69,
      "h": 70,
      "i": 71,
      "j": 72,
      "k": 73,
      "l": 74,
      "m": 75,
      "n": 76,
      "o": 77,
      "p": 78,
      "q": 79,
      "r": 80,
      "s": 81,
      "t": 82,
      "u": 83,
      "v": 84,
      "w": 85,
      "x": 86,
      "y": 87,
      "z": 88,
      "{": 89,
      "}": 90,
      "~": 91,
      "": 92,
      "¢": 93,
      "£": 94,
      "¥": 95,
      "¦": 96,
      "§": 97,
      "¨": 98,
      "©": 99,
      "ª": 100,
      "«": 101,
      "¬": 102,
      "®": 103,
      "¯": 104,
      "°": 105,
      "±": 106,
      "²": 107,
      "³": 108,
      "´": 109,
      "µ": 110,
      "¶": 111,
      "·": 112,
      "¸": 113,
      "¹": 114,
      "º": 115,
      "»": 116,
      "½": 117,
      "¾": 118,
      "¿": 119,
      "À": 120,
      "Á": 121,
      "Â": 122,
      "Ä": 123,
      "Å": 124,
      "Æ": 125,
      "Ç": 126,
      "È": 127,
      "É": 128,
      "Ê": 129,
      "Ë": 130,
      "Ì": 131,
      "Í": 132,
      "Î": 133,
      "Ï": 134,
      "Ð": 135,
      "Ò": 136,
      "Ó": 137,
      "Ô": 138,
      "Õ": 139,
      "Ö": 140,
      "×": 141,
      "Ø": 142,
      "Ù": 143,
      "Ú": 144,
      "Û": 145,
      "Ü": 146,
      "Ý": 147,
      "Þ": 148,
      "ß": 149,
      "à": 150,
      "á": 151,
      "â": 152,
      "ã": 153,
      "ä": 154,
      "å": 155,
      "æ": 156,
      "ç": 157,
      "è": 158,
      "é": 159,
      "ê": 160,
      "ë": 161,
      "ì": 162,
      "í": 163,
      "î": 164,
      "ï": 165,
      "ð": 166,
      "ñ": 167,
      "ò": 168,
      "ó": 169,
      "ô": 170,
      "õ": 171,
      "ö": 172,
      "ø": 173,
      "ù": 174,
      "ú": 175,
      "û": 176,
      "ü": 177,
      "ý": 178,
      "þ": 179,
      "ÿ": 180,
      "ā": 181,
      "Ă": 182,
      "ă": 183,
      "ć": 184,
      "Č": 185,
      "č": 186,
      "ė": 187,
      "ę": 188,
      "ě": 189,
      "ğ": 190,
      "ı": 191,
      "ł": 192,
      "ń": 193,
      "ň": 194,
      "ŏ": 195,
      "Ř": 196,
      "ř": 197,
      "Ś": 198,
      "Ş": 199,
      "ş": 200,
      "Š": 201,
      "š": 202,
      "Ţ": 203,
      "ţ": 204,
      "ŭ": 205,
      "ů": 206,
      "ž": 207,
      "θ": 208,
      "ถ": 209,
      "ท": 210,
      "น": 211,
      "บ": 212,
      "ม": 213,
      "ย": 214,
      "ว": 215,
      "ส": 216,
      "า": 217,
      "ิ": 218,
      "ี": 219,
      "่": 220,
      "้": 221,
      "–": 222,
      "—": 223,
      "‘": 224,
      "’": 225,
      "‚": 226,
      "“": 227,
      "”": 228,
      "„": 229,
      "•": 230,
      "…": 231,
      "‰": 232,
      "‹": 233,
      "›": 234,
      "⁄": 235,
      "⁻": 236,
      "₣": 237,
      "₧": 238,
      "₫": 239,
      "€": 240,
      "™": 241,
      "→": 242,
      "↓": 243,
      "≠": 244,
      "≤": 245,
      "≥": 246,
      "⌈": 247,
      "⌉": 248,
      "⌊": 249,
      "⌋": 250,
      "�": 251,
      "##r": 252,
      "##o": 253,
      "##g": 254,
      "##a": 255,
      "##m": 256,
      "## ": 257,
      "##c": 258,
      "##p": 259,
      "##y": 260,
      "##i": 261,
      "##h": 262,
      "##t": 263,
      "##1": 264,
      "##9": 265,
      "##-": 266,
      "##2": 267,
      "##0": 268,
      "##A": 269,
      "##n": 270,
      "##d": 271,
      "##e": 272,
      "##s": 273,
      "##.": 274,
      "##Z": 275,
      "##z": 276,
      "##w": 277,
      "##b": 278,
      "##8": 279,
      "##4": 280,
      "##3": 281,
      "##M": 282,
      "##B": 283,
      "##T": 284,
      "##l": 285,
      "##R": 286,
      "##u": 287,
      "##j": 288,
      "##f": 289,
      "##D": 290,
      "##k": 291,
      "##U": 292,
      "##F": 293,
      "##S": 294,
      "##(": 295,
      "##E": 296,
      "##)": 297,
      "##q": 298,
      "##v": 299,
      "##:": 300,
      "##%": 301,
      "##'": 302,
      "##x": 303,
      "##C": 304,
      "##I": 305,
      "##\"": 306,
      "##[": 307,
      "##]": 308,
      "##L": 309,
      "##J": 310,
      "##/": 311,
      "##P": 312,
      "##N": 313,
      "##?": 314,
      "##Q": 315,
      "##G": 316,
      "##K": 317,
      "##V": 318,
      "##$": 319,
      "##Y": 320,
      "##W": 321,
      "##O": 322,
      "##\\": 323,
      "##_": 324,
      "##H": 325,
      "##5": 326,
      "##X": 327,
      "##{": 328,
      "##}": 329,
      "##~": 330,
      "##+": 331,
      "##6": 332,
      "##7": 333,
      "##=": 334,
      "##!": 335,
      "##>": 336,
      "##→": 337,
      "##<": 338,
      "##ŭ": 339,
      "##ŏ": 340,
      "##`": 341,
      "##ó": 342,
      "##³": 343,
      "##^": 344,
      "##™": 345,
      "##É": 346,
      "##ı": 347,
      "##ö": 348,
      "##é": 349,
      "##°": 350,
      "##ü": 351,
      "##å": 352,
      "##ø": 353,
      "##×": 354,
      "##⌈": 355,
      "##⌉": 356,
      "##²": 357,
      "##í": 358,
      "##µ": 359,
      "##…": 360,
      "##©": 361,
      "##–": 362,
      "##ä": 363,
      "##®": 364,
      "##è": 365,
      "##£": 366,
      "##€": 367,
      "##č": 368,
      "##á": 369,
      "##¥": 370,
      "##ř": 371,
      "##â": 372,
      "##’": 373,
      "##ė": 374,
      "##ë": 375,
      "##Á": 376,
      "##š": 377,
      "##ě": 378,
      "##ã": 379,
      "##º": 380,
      "##ş": 381,
      "##ń": 382,
      "##ò": 383,
      "##ā": 384,
      "##ę": 385,
      "##ţ": 386,
      "##ă": 387,
      "##ğ": 388,
      "##Õ": 389,
      "##≥": 390,
      "##Ř": 391,
      "##½": 392,
      "##ñ": 393,
      "##±": 394,
      "##ú": 395,
      "##ł": 396,
      "##ž": 397,
      "##⌊": 398,
      "##⌋": 399,
      "##¹": 400,
      "##Ö": 401,
      "##æ": 402,
      "##ů": 403,
      "##Č": 404,
      "##ć": 405,
      "##≠": 406,
      "##Ø": 407,
      "##‘": 408,
      "##�": 409,
      "##ï": 410,
      "##“": 411,
      "##”": 412,
      "##ย": 413,
      "##ี": 414,
      "##่": 415,
      "##ส": 416,
      "##ิ": 417,
      "##บ": 418,
      "##า": 419,
      "##ม": 420,
      "##ท": 421,
      "##ถ": 422,
      "##้": 423,
      "##ว": 424,
      "##น": 425,
      "##¶": 426,
      "##Ü": 427,
      "##θ": 428,
      "##à": 429,
      "##ý": 430,
      "##≤": 431,
      "##↓": 432,
      "##⁻": 433,
      "##ç": 434,
      "##Å": 435,
      "##": 436,
      "##ň": 437,
      "##e ": 438,
      "## t": 439,
      "##s ": 440,
      "##in": 441,
      "##t ": 442,
      "## th": 443,
      "##on": 444,
      "##er": 445,
      "## the ": 446,
      "##or": 447,
      "##an": 448,
      "##d ": 449,
      "##en": 450,
      "##ou": 451,
      "##at": 452,
      "##o ": 453,
      "##ar": 454,
      "##re": 455,
      "##al": 456,
      "##. ": 457,
      "##le": 458,
      "##y ": 459,
      "##ing": 460,
      "##ion": 461,
      "##th": 462,
      "##is ": 463,
      "##il": 464,
      "## c": 465,
      "##st": 466,
      "##se": 467,
      "##ic": 468,
      "##you": 469,
      "## to ": 470,
      "##a ": 471,
      "##of": 472,
      "##er ": 473,
      "##or ": 474,
      "##ct": 475,
      "##om": 476,
      "##ed ": 477,
      "##it": 478,
      "##ow": 479,
      "##l ": 480,
      "##ing ": 481,
      "##es": 482,
      "##di": 483,
      "##ch": 484,
      "##ion ": 485,
      "##ol": 486,
      "##and ": 487,
      "##am": 488,
      "##pl": 489,
      "##de": 490,
      "##op": 491,
      "##se ": 492,
      "##ur": 493,
      "##es ": 494,
      "##fi": 495,
      "##ent": 496,
      "##ag": 497,
      "##an ": 498,
      "##ab": 499,
      "##em": 500,
      "## w": 501,
      "##ex": 502,
      "##ed": 503,
      "##ac": 504,
      "##e th": 505,
      "##im": 506,
      "##no": 507,
      "##is": 508,
      "##be ": 509,
      "##ec": 510,
      "##in ": 511,
      "##el": 512,
      "##he ": 513,
      "##of ": 514,
      "##pr": 515,
      "##for": 516,
      "##ut": 517,
      "##av": 518,
      "##ad": 519,
      "##et": 520,
      "##en ": 521,
      "##ap": 522,
      "##as": 523,
      "##at ": 524,
      "##um": 525,
      "##le ": 526,
      "##us": 527,
      "##ith": 528,
      "##ig": 529,
      "##oc": 530,
      "##you ": 531,
      "##for ": 532,
      "##not ": 533,
      "##: ": 534,
      "##ill ": 535,
      "##ly ": 536,
      "##ew": 537,
      "##k ": 538,
      "##ent ": 539,
      "##ul": 540,
      "##un": 541,
      "##con": 542,
      "##og": 543,
      "##. T": 544,
      "##al ": 545,
      "##of the ": 546,
      "##as ": 547,
      "##sh": 548,
      "##wh": 549,
      "##are ": 550,
      "##ile ": 551,
      "##/ ": 552,
      "##if": 553,
      "##e the ": 554,
      "##mo": 555,
      "##ation ": 556,
      "##in the ": 557,
      "##res": 558,
      "##ma": 559,
      "##on ": 560,
      "##%1": 561,
      "##r ": 562,
      "##ay": 563,
      "##ver": 564,
      "##int": 565,
      "## to": 566,
      "##id": 567,
      "## this ": 568,
      "##lect": 569,
      "##it ": 570,
      "##oo": 571,
      "##and": 572,
      "##fr": 573,
      "##qu": 574,
      "##with": 575,
      "The ": 576,
      "##iv": 577,
      "##up": 578,
      "##tr": 579,
      "##ation": 580,
      "##ow ": 581,
      "##ate ": 582,
      "##ame ": 583,
      "##sp": 584,
      "##li": 585,
      "##to ": 586,
      "##his ": 587,
      "##igh": 588,
      "##will ": 589,
      "##from": 590,
      "##all": 591,
      "##oun": 592,
      "## can ": 593,
      "##ang": 594,
      "##n ": 595,
      "##) ": 596,
      "##vi": 597,
      "##your ": 598,
      "##com": 599,
      "##age ": 600,
      "##..": 601,
      "##ave ": 602,
      "##por": 603,
      "##file ": 604,
      "##act": 605,
      "##ew ": 606,
      "##ind": 607,
      "##file": 608,
      "##bo": 609,
      "## that ": 610,
      "##form": 611,
      "##able ": 612,
      "##ri": 613,
      "##ess": 614,
      "##by ": 615,
      "##ter": 616,
      "##select": 617,
      "##h ": 618,
      "##ne": 619,
      "##use ": 620,
      "##. I": 621,
      "##os": 622,
      "##use": 623,
      "##de ": 624,
      "##cur": 625,
      "##art": 626,
      "##ch ": 627,
      "##lic": 628,
      "##oul": 629,
      "##s.": 630,
      "##dis": 631,
      "##iz": 632,
      "## con": 633,
      "##ser": 634,
      "##f ": 635,
      "##ere ": 636,
      "##ould ": 637,
      "##yp": 638,
      "##but": 639,
      "##fig": 640,
      "##s the ": 641,
      "##ing the ": 642,
      "## to the ": 643,
      "##e.": 644,
      "##have ": 645,
      "##ase ": 646,
      "##play": 647,
      "##ot": 648,
      "##fol": 649,
      "##wor": 650,
      "##ar ": 651,
      "##ta": 652,
      "## ch": 653,
      "##you w": 654,
      "##lin": 655,
      "##on the ": 656,
      "##sc": 657,
      "##. The ": 658,
      "##00": 659,
      "##all ": 660,
      "##opt": 661,
      "##one ": 662,
      "##lo": 663,
      "##t to ": 664,
      "##ke": 665,
      "##fa": 666,
      "##ext ": 667,
      "##gr": 668,
      "##with ": 669,
      "##ce ": 670,
      "##der": 671,
      "##sy": 672,
      "##ack": 673,
      "##tt": 674,
      "##dat": 675,
      "##be": 676,
      "##pro": 677,
      "##val": 678,
      "##figur": 679,
      "##su": 680,
      "##ut ": 681,
      "##ff": 682,
      "##curr": 683,
      "##ect": 684,
      "##alog": 685,
      "##end": 686,
      "##let": 687,
      "##ail": 688,
      "##if ": 689,
      "##ally ": 690,
      "##ct ": 691,
      "##ay ": 692,
      "##p ": 693,
      "##pt": 694,
      "## tr": 695,
      "##ions ": 696,
      "##ight ": 697,
      "##oth": 698,
      "##ist ": 699,
      "##- ": 700,
      "##ile": 701,
      "##stem": 702,
      "##s. ": 703,
      "##x ": 704,
      "##pres": 705,
      "##umb": 706,
      "##ke ": 707,
      "##%1 ": 708,
      "##port": 709,
      "##ist": 710,
      "##butt": 711,
      "##ev": 712,
      "##dialog": 713,
      "This ": 714,
      "##from ": 715,
      "##mov": 716,
      "## wh": 717,
      "## com": 718,
      "##rect": 719,
      "##men": 720,
      "##name ": 721,
      "##spec": 722,
      "##et ": 723,
      "##'s ": 724,
      "##You": 725,
      "##e. ": 726,
      "##pre": 727,
      "##loc": 728,
      "##you can ": 729,
      "##ich ": 730,
      "##ocum": 731,
      "##par": 732,
      "##inst": 733,
      "##ive ": 734,
      "##so ": 735,
      "##faul": 736,
      "##ant to ": 737,
      "##enc": 738,
      "##the ": 739,
      "##plic": 740,
      "##ad ": 741,
      "##fin": 742,
      "##s to ": 743,
      "##man": 744,
      "##per": 745,
      "##col": 746,
      "##system": 747,
      "##lect ": 748,
      "##ers ": 749,
      "##eck": 750,
      "##ard ": 751,
      "##st ": 752,
      "##able": 753,
      "##acc": 754,
      "##menu": 755,
      "##app": 756,
      "##do": 757,
      "##. This ": 758,
      "##can ": 759,
      "##der ": 760,
      "##our": 761,
      "##ic ": 762,
      "##des": 763,
      "##for the ": 764,
      "##list ": 765,
      "##from the ": 766,
      "##ter ": 767,
      "##ug": 768,
      "##new ": 769,
      "##dr": 770,
      "##%2": 771,
      "##ings ": 772,
      "##ogr": 773,
      "##will be ": 774,
      "##cre": 775,
      "##mess": 776,
      "##ov": 777,
      "##valu": 778,
      "##ore ": 779,
      "##ple ": 780,
      "##add": 781,
      "##pos": 782,
      "##ows ": 783,
      "##ib": 784,
      "##numb": 785,
      "##str": 786,
      "##ob": 787,
      "##port ": 788,
      "##docum": 789,
      "## will ": 790,
      "## can": 791,
      "##comm": 792,
      "##wind": 793,
      "##selected ": 794,
      "##has ": 795,
      "##read": 796,
      "##own ": 797,
      "## and ": 798,
      "##defaul": 799,
      "##ome ": 800,
      "##chang": 801,
      "##mail": 802,
      "##ime ": 803,
      "##y the ": 804,
      "##kde ": 805,
      "You": 806,
      "##br": 807,
      "##own": 808,
      "##do ": 809,
      "##op ": 810,
      "##ure ": 811,
      "##lease ": 812,
      "##applic": 813,
      "##sett": 814,
      "##\" ": 815,
      "##ass": 816,
      "##d to ": 817,
      "##other ": 818,
      "##oper": 819,
      "##at the ": 820,
      "##lick": 821,
      "##files ": 822,
      "##me": 823,
      "##...": 824,
      "##rit": 825,
      "##ect ": 826,
      "##ed to ": 827,
      "##only ": 828,
      "##po": 829,
      "##inform": 830,
      "##to": 831,
      "##ed.": 832,
      "##oose ": 833,
      "##out ": 834,
      "##ust ": 835,
      "##200": 836,
      "##Con": 837,
      "##ir": 838,
      "##art ": 839,
      "##current ": 840,
      "##ction ": 841,
      "##direct": 842,
      "##sup": 843,
      "##ies ": 844,
      "##you want to ": 845,
      "##nam": 846,
      "##used ": 847,
      "##. You": 848,
      "##ated ": 849,
      "##ext": 850,
      "##fil": 851,
      "##list": 852,
      "##ents ": 853,
      "##ard": 854,
      "##any ": 855,
      "##diff": 856,
      "##we": 857,
      "##item": 858,
      "##. If ": 859,
      "##out": 860,
      "##est": 861,
      "## typ": 862,
      "##ice ": 863,
      "##int ": 864,
      "##should ": 865,
      "##inter": 866,
      "##low": 867,
      "##cl": 868,
      "##1 ": 869,
      "##ogram": 870,
      "##ound ": 871,
      "##how ": 872,
      "##which ": 873,
      "##el ": 874,
      "##In": 875,
      "##DE": 876,
      "## with": 877,
      "##ans": 878,
      "##mar": 879,
      "##display": 880,
      "##ook": 881,
      "##key": 882,
      "##button": 883,
      "##ea": 884,
      "## the": 885,
      "##ign": 886,
      "##lick ": 887,
      "##dev": 888,
      "##ace ": 889,
      "##0 ": 890,
      "##ages ": 891,
      "##line ": 892,
      "##sion ": 893,
      "##s and ": 894,
      "##serv": 895,
      "Se": 896,
      "##L ": 897,
      "##Al": 898,
      "##also ": 899,
      "##may ": 900,
      "## them": 901,
      "##ide ": 902,
      "##Pr": 903,
      "##option ": 904,
      "##right ": 905,
      "##bar": 906,
      "##fir": 907,
      "##he": 908,
      "##run": 909,
      "##ase": 910,
      "##start": 911,
      "##ett": 912,
      "##fun": 913,
      "##du": 914,
      "##ity ": 915,
      "##ure": 916,
      "##min": 917,
      "##es the ": 918,
      "##cont": 919,
      "##m ": 920,
      "##when ": 921,
      "##ult": 922,
      "##select ": 923,
      "##its ": 924,
      "##set ": 925,
      "##up ": 926,
      "##tain": 927,
      "##number ": 928,
      "##g ": 929,
      "##default ": 930,
      "##ifi": 931,
      "Ch": 932,
      "##ip": 933,
      "##cor": 934,
      "##P ": 935,
      "##s are ": 936,
      "##urn": 937,
      "##ory ": 938,
      "##view": 939,
      "##comp": 940,
      "In": 941,
      "##ject": 942,
      "##avail": 943,
      "##d.": 944,
      "##you have ": 945,
      "##with the ": 946,
      "##aut": 947,
      "##mat": 948,
      "##your": 949,
      "##program": 950,
      "##ight": 951,
      "##but ": 952,
      "##back": 953,
      "##S ": 954,
      "##differ": 955,
      "##and the ": 956,
      "##ort": 957,
      "##here ": 958,
      "##not be ": 959,
      "##requ": 960,
      "##ction": 961,
      "##is not ": 962,
      "##y.": 963,
      "##id ": 964,
      "##kt": 965,
      "##en the ": 966,
      "##led ": 967,
      "##set": 968,
      "##play ": 969,
      "##can be ": 970,
      "##St": 971,
      "##Se": 972,
      "##ese ": 973,
      "En": 974,
      "##more ": 975,
      "##lef": 976,
      "##not": 977,
      "##grou": 978,
      "##ell": 979,
      "##ast ": 980,
      "##lem": 981,
      "##ject ": 982,
      "##end ": 983,
      "##us ": 984,
      "##log": 985,
      "##folder": 986,
      "##omat": 987,
      "##is the ": 988,
      "##ust": 989,
      "##some ": 990,
      "##ep": 991,
      "##cri": 992,
      "##a s": 993,
      "##ize ": 994,
      "##ific": 995,
      "##does ": 996,
      "##ently ": 997,
      "##pat": 998,
      "##able to ": 999,
      "##ener": 1000,
      "## (": 1001,
      "##her": 1002,
      "##e that ": 1003,
      "##exam": 1004,
      "##. A": 1005,
      "##document": 1006,
      "##kde": 1007,
      "##fiel": 1008,
      "##no ": 1009,
      "## col": 1010,
      "##om ": 1011,
      "##ition": 1012,
      "##sion": 1013,
      "##es.": 1014,
      "##KDE": 1015,
      "##dit ": 1016,
      "##information ": 1017,
      "##sub": 1018,
      "##option": 1019,
      "##new": 1020,
      "##edit": 1021,
      "##folder ": 1022,
      "##get ": 1023,
      "##writ": 1024,
      "##figure ": 1025,
      "##fe": 1026,
      "##quer": 1027,
      "##sear": 1028,
      "##put ": 1029,
      "##image ": 1030,
      "##2 ": 1031,
      "##ot ": 1032,
      "## text ": 1033,
      "##mou": 1034,
      "##fer": 1035,
      "##part": 1036,
      "##aw": 1037,
      "##ain": 1038,
      "##lev": 1039,
      "##you to ": 1040,
      "## comm": 1041,
      "##au": 1042,
      "##ich": 1043,
      "##e: ": 1044,
      "##check": 1045,
      "##start ": 1046,
      "##application": 1047,
      "##trl ": 1048,
      "If ": 1049,
      "##ill": 1050,
      "##work": 1051,
      "##).": 1052,
      "##En": 1053,
      "##Ch": 1054,
      "##sav": 1055,
      "##view ": 1056,
      "##is a ": 1057,
      "##ary ": 1058,
      "##ari": 1059,
      "##print": 1060,
      "##af": 1061,
      "##kon": 1062,
      "##anc": 1063,
      "##th ": 1064,
      "##box ": 1065,
      "##data ": 1066,
      "##ph": 1067,
      "##I ": 1068,
      "##how": 1069,
      "##use the ": 1070,
      "##ically ": 1071,
      "##D ": 1072,
      "##oug": 1073,
      "##user": 1074,
      "##hel": 1075,
      "##follow": 1076,
      "##click": 1077,
      "##scre": 1078,
      "##figuration ": 1079,
      "##lat": 1080,
      "##s a ": 1081,
      "##aph": 1082,
      "##ear": 1083,
      "##value ": 1084,
      "##bar ": 1085,
      "##way": 1086,
      "##ible ": 1087,
      "##b ": 1088,
      "##using ": 1089,
      "##over": 1090,
      "##eg": 1091,
      "##err": 1092,
      "##y to ": 1093,
      "##ire": 1094,
      "##est ": 1095,
      "##Vi": 1096,
      "##ed by ": 1097,
      "##--": 1098,
      "##clu": 1099,
      "## time ": 1100,
      "## then ": 1101,
      "##ound": 1102,
      "##hen ": 1103,
      "##defin": 1104,
      "##. It ": 1105,
      "## chang": 1106,
      "##addres": 1107,
      "##box": 1108,
      "##ful": 1109,
      "##like ": 1110,
      "##ol ": 1111,
      "##um ": 1112,
      "##same ": 1113,
      "##org": 1114,
      "##remov": 1115,
      "##wo ": 1116,
      "##enter": 1117,
      "##first ": 1118,
      "##available ": 1119,
      "A ": 1120,
      "##get": 1121,
      "##ret": 1122,
      "##dialog ": 1123,
      "##ont": 1124,
      "##user ": 1125,
      "##automat": 1126,
      "##menu ": 1127,
      "##down": 1128,
      "##open": 1129,
      "##cal": 1130,
      "##ant": 1131,
      "##3 ": 1132,
      "##od": 1133,
      "##ree ": 1134,
      "##bet": 1135,
      "##window": 1136,
      "##enter ": 1137,
      "##in a ": 1138,
      "##you are ": 1139,
      "##does not ": 1140,
      "##eth": 1141,
      "##left ": 1142,
      "##key ": 1143,
      "##sim": 1144,
      "##kn": 1145,
      "##ack ": 1146,
      "##s that ": 1147,
      "##entr": 1148,
      "##button ": 1149,
      "##aract": 1150,
      "##ast": 1151,
      "##\\\\": 1152,
      "##ount ": 1153,
      "##. P": 1154,
      "##server ": 1155,
      "## tab": 1156,
      "##giv": 1157,
      "##. W": 1158,
      "##a new ": 1159,
      "##ron": 1160,
      "##pp": 1161,
      "##age": 1162,
      "##are": 1163,
      "Un": 1164,
      "##you can": 1165,
      "##ell ": 1166,
      "##put": 1167,
      "##les ": 1168,
      "##scri": 1169,
      "##message ": 1170,
      "##different ": 1171,
      "##ical ": 1172,
      "##specifi": 1173,
      "##proc": 1174,
      "##specif": 1175,
      "##support": 1176,
      "##open ": 1177,
      "##a c": 1178,
      "##ount": 1179,
      "##net": 1180,
      "##it is ": 1181,
      "##must ": 1182,
      "##ert": 1183,
      "##orm": 1184,
      "##ool": 1185,
      "##very ": 1186,
      "##each ": 1187,
      "##mouse ": 1188,
      "##exist": 1189,
      "##delet": 1190,
      "##ce": 1191,
      "##pt ": 1192,
      "##system ": 1193,
      "##ly": 1194,
      "##ial ": 1195,
      "##ource ": 1196,
      "##s of ": 1197,
      "##show": 1198,
      "##ready ": 1199,
      "##page ": 1200,
      "##ition ": 1201,
      "##mode": 1202,
      "##mark": 1203,
      "##vis": 1204,
      "##ettings ": 1205,
      "##was ": 1206,
      "##server": 1207,
      "##\\t": 1208,
      "##command ": 1209,
      "##into ": 1210,
      "##display ": 1211,
      "##ous ": 1212,
      "##return": 1213,
      "##pen": 1214,
      "## tool": 1215,
      "##Ex": 1216,
      "##ould not ": 1217,
      "##alar": 1218,
      "##urr": 1219,
      "##been ": 1220,
      "##ost": 1221,
      "##ook ": 1222,
      "##stat": 1223,
      "##allows ": 1224,
      "##text ": 1225,
      "##ub": 1226,
      "##Pl": 1227,
      "##> ": 1228,
      "##s (": 1229,
      "##File ": 1230,
      "##ick": 1231,
      "##reg": 1232,
      "##: / ": 1233,
      "##most ": 1234,
      "##les": 1235,
      "##word ": 1236,
      "##make ": 1237,
      "##so": 1238,
      "##high": 1239,
      "##load": 1240,
      "Show ": 1241,
      "##rr": 1242,
      "##using the ": 1243,
      "##tern": 1244,
      "##. You can ": 1245,
      "## tim": 1246,
      "##ish": 1247,
      "##%1 '": 1248,
      "##already ": 1249,
      "##poss": 1250,
      "##plug": 1251,
      "##tri": 1252,
      "##ence ": 1253,
      "##settings ": 1254,
      "##Sh": 1255,
      "##ess ": 1256,
      "## with ": 1257,
      "##window ": 1258,
      "##example ": 1259,
      "##date ": 1260,
      "##fore ": 1261,
      "##ual ": 1262,
      "##ses": 1263,
      "##icon": 1264,
      "##inclu": 1265,
      "##ment ": 1266,
      "##pass": 1267,
      "##ove ": 1268,
      "##ode ": 1269,
      "##ates ": 1270,
      "##ant ": 1271,
      "##betwe": 1272,
      "##color ": 1273,
      "Use ": 1274,
      "##deskt": 1275,
      "## there ": 1276,
      "##work ": 1277,
      "##game ": 1278,
      "##lt ": 1279,
      "##ing to ": 1280,
      "##'%1 '": 1281,
      "##vari": 1282,
      "##pan": 1283,
      "##Ad": 1284,
      "##e this ": 1285,
      "##ask": 1286,
      "##4 ": 1287,
      "##feat": 1288,
      "##UR": 1289,
      "##off": 1290,
      "##add ": 1291,
      "##ryp": 1292,
      "##Col": 1293,
      "##empl": 1294,
      "##prov": 1295,
      "You ": 1296,
      "##ong": 1297,
      "##. F": 1298,
      "##group": 1299,
      "##ord": 1300,
      "##ite ": 1301,
      "##Re": 1302,
      "##hav": 1303,
      "##act ": 1304,
      "##plac": 1305,
      "##sing ": 1306,
      "##... ": 1307,
      "Con": 1308,
      "##es to ": 1309,
      "##of a ": 1310,
      "##format": 1311,
      "##conne": 1312,
      "##sol": 1313,
      "##ecut": 1314,
      "##board ": 1315,
      "##bec": 1316,
      "##contain": 1317,
      "## type ": 1318,
      "##ance ": 1319,
      "##eck ": 1320,
      "##pon": 1321,
      "##point": 1322,
      "##arg": 1323,
      "##ely ": 1324,
      "##used to ": 1325,
      "##currently ": 1326,
      "##sl": 1327,
      "##bel": 1328,
      "##stor": 1329,
      "##artic": 1330,
      "Could not ": 1331,
      "##cc": 1332,
      "##typ": 1333,
      "##ue ": 1334,
      "## they ": 1335,
      "##ak": 1336,
      " k": 1337,
      "##by the ": 1338,
      "##\"%1": 1339,
      "##ain ": 1340,
      "##. D": 1341,
      "## which ": 1342,
      "##ortc": 1343,
      "##ular ": 1344,
      "##stand": 1345,
      "##ir ": 1346,
      "Ctrl ": 1347,
      "##: %1": 1348,
      "##click ": 1349,
      "##ed in the ": 1350,
      "##ning ": 1351,
      "##you will ": 1352,
      "##opy": 1353,
      "##wid": 1354,
      "##ont ": 1355,
      "##reate ": 1356,
      "To ": 1357,
      "##. S": 1358,
      "##into": 1359,
      "##application ": 1360,
      "## wind": 1361,
      "##. To ": 1362,
      "##match": 1363,
      "##n'": 1364,
      "##er.": 1365,
      "##ulti": 1366,
      "Select": 1367,
      "##ing a ": 1368,
      "##gener": 1369,
      "##secon": 1370,
      "##can": 1371,
      "##book": 1372,
      "##s for ": 1373,
      "##sign": 1374,
      "##should be ": 1375,
      "##Tool": 1376,
      "##contr": 1377,
      "##read ": 1378,
      "##as the ": 1379,
      "##vide": 1380,
      "##opert": 1381,
      "##number of ": 1382,
      "##just ": 1383,
      "##ed the ": 1384,
      "##do not ": 1385,
      "##modi": 1386,
      "##datab": 1387,
      "##empt": 1388,
      "##bug": 1389,
      "##ter the ": 1390,
      "##ach": 1391,
      "##. N": 1392,
      "##ail ": 1393,
      "##pi": 1394,
      "##enable": 1395,
      "##manag": 1396,
      "##ers": 1397,
      "##konquer": 1398,
      "##elem": 1399,
      "##automatically ": 1400,
      "##mode ": 1401,
      "##search ": 1402,
      "Ad": 1403,
      "##function ": 1404,
      "##n't ": 1405,
      "##document ": 1406,
      "##ertific": 1407,
      "##gin": 1408,
      "##The ": 1409,
      "##5 ": 1410,
      "##create ": 1411,
      "## these ": 1412,
      "##find ": 1413,
      "##list of ": 1414,
      "##ed in ": 1415,
      "##mis": 1416,
      "##ost ": 1417,
      "##prob": 1418,
      "##ing.": 1419,
      "##see ": 1420,
      "##version ": 1421,
      "##pack": 1422,
      "##arch": 1423,
      "##Un": 1424,
      "You can ": 1425,
      "##eas": 1426,
      "##ation.": 1427,
      "##s in the ": 1428,
      "##descri": 1429,
      "##roug": 1430,
      "##ment": 1431,
      "##choose ": 1432,
      "##ide": 1433,
      "##fu": 1434,
      "##execut": 1435,
      "##ause ": 1436,
      "Al": 1437,
      "##active ": 1438,
      "If": 1439,
      "##if the ": 1440,
      "##sed ": 1441,
      "##ML ": 1442,
      "##Com": 1443,
      "##fl": 1444,
      "##ating ": 1445,
      "##oft": 1446,
      "##angu": 1447,
      "##options ": 1448,
      "##size ": 1449,
      "##ict": 1450,
      "##such ": 1451,
      "##Im": 1452,
      "##valid ": 1453,
      "##ply ": 1454,
      "##opy ": 1455,
      "##ages": 1456,
      "##. Please ": 1457,
      "##ru": 1458,
      "##rus": 1459,
      "##appear": 1460,
      "##faile": 1461,
      "##allows you to ": 1462,
      "##ake ": 1463,
      "##Lin": 1464,
      "##following ": 1465,
      "##p: / ": 1466,
      "##s in ": 1467,
      "##which": 1468,
      "##object": 1469,
      "##to the ": 1470,
      "##need to ": 1471,
      "##AR": 1472,
      "##File": 1473,
      "## choose ": 1474,
      "##many ": 1475,
      "##field ": 1476,
      "##other": 1477,
      "##sch": 1478,
      "##ually ": 1479,
      "##before ": 1480,
      "##director": 1481,
      "##ful ": 1482,
      "##sk": 1483,
      "##all the ": 1484,
      "St": 1485,
      "##rypt": 1486,
      "## this option ": 1487,
      "##map": 1488,
      "##color": 1489,
      "##la": 1490,
      "## trans": 1491,
      "##e-": 1492,
      "##while ": 1493,
      "##tool": 1494,
      "##load ": 1495,
      "##word": 1496,
      "##if you ": 1497,
      "##abl": 1498,
      "##wit": 1499,
      "##instal": 1500,
      "##tribut": 1501,
      "##bl": 1502,
      "##access": 1503,
      "Pr": 1504,
      "##a t": 1505,
      "##KDE ": 1506,
      "## will be ": 1507,
      "##dig": 1508,
      "##. O": 1509,
      "##dit": 1510,
      "##deta": 1511,
      "##mail ": 1512,
      "Select ": 1513,
      "##. If": 1514,
      "##s: ": 1515,
      "##next ": 1516,
      "##gam": 1517,
      "##shown ": 1518,
      "##rusad": 1519,
      "##. org": 1520,
      "##brow": 1521,
      "##go": 1522,
      "##import": 1523,
      "##. Th": 1524,
      "##as a ": 1525,
      "##action ": 1526,
      "%1 ": 1527,
      "##ctions ": 1528,
      "##dep": 1529,
      "##directory ": 1530,
      "##Sy": 1531,
      "##rec": 1532,
      "##multi": 1533,
      "##ann": 1534,
      "##entry ": 1535,
      "##dist": 1536,
      "##ator": 1537,
      "##ear ": 1538,
      "##screen": 1539,
      "##cli": 1540,
      "##icon ": 1541,
      "##X ": 1542,
      "## two ": 1543,
      "##require": 1544,
      "##another ": 1545,
      "##auth": 1546,
      "##into the ": 1547,
      "## to be ": 1548,
      "##bin": 1549,
      "##ations ": 1550,
      "## can be ": 1551,
      "##last ": 1552,
      "##ode": 1553,
      "##ww": 1554,
      "##p: / /": 1555,
      "##eith": 1556,
      "##configuration ": 1557,
      "##c ": 1558,
      "##hand": 1559,
      "##amet": 1560,
      "## check": 1561,
      "##equ": 1562,
      "##%2 ": 1563,
      "##error ": 1564,
      "##move ": 1565,
      "##down ": 1566,
      "##B ": 1567,
      "##found ": 1568,
      "##order": 1569,
      "##want to ": 1570,
      "##HT": 1571,
      "##level ": 1572,
      "##Wind": 1573,
      "##ident": 1574,
      "##present": 1575,
      "##save ": 1576,
      "##annot ": 1577,
      "##ator ": 1578,
      "##messages ": 1579,
      "## cont": 1580,
      "##address ": 1581,
      "Dis": 1582,
      "##old ": 1583,
      "##ser ": 1584,
      "##format ": 1585,
      "##ogg": 1586,
      "##part ": 1587,
      "##item ": 1588,
      "##this ": 1589,
      "##mak": 1590,
      "##ground ": 1591,
      "##Edit ": 1592,
      "##C ": 1593,
      "##specified ": 1594,
      "##ding ": 1595,
      "##sty": 1596,
      "##allow": 1597,
      "##langu": 1598,
      "##Gr": 1599,
      "##about ": 1600,
      "##mon": 1601,
      "##lab": 1602,
      "##De": 1603,
      "##mot": 1604,
      "##where ": 1605,
      "##Configure ": 1606,
      "##Tr": 1607,
      "##ttp: / /": 1608,
      "##shortc": 1609,
      "Unable to ": 1610,
      "##ag ": 1611,
      "##emb": 1612,
      "##action": 1613,
      "##write ": 1614,
      "##under": 1615,
      "##select the ": 1616,
      "##0.": 1617,
      "##program ": 1618,
      "Please ": 1619,
      "##curs": 1620,
      "##ies": 1621,
      "##any": 1622,
      "##umn": 1623,
      "##with a ": 1624,
      "##ever ": 1625,
      "##medi": 1626,
      "##' ": 1627,
      "##ise ": 1628,
      "## this": 1629,
      "##row": 1630,
      "##ial": 1631,
      "##support ": 1632,
      "##clicking ": 1633,
      "De": 1634,
      "##time ": 1635,
      "##modu": 1636,
      "##bu": 1637,
      "##. If you ": 1638,
      "Cannot ": 1639,
      "##refer": 1640,
      "##file.": 1641,
      "##default": 1642,
      "##device ": 1643,
      "##Qu": 1644,
      "##separ": 1645,
      "##setting": 1646,
      "##i ": 1647,
      "##side ": 1648,
      "##ded": 1649,
      "##entri": 1650,
      "##ange ": 1651,
      "##function": 1652,
      "##print ": 1653,
      "##Settings ": 1654,
      "##spac": 1655,
      "##. C": 1656,
      "##idd": 1657,
      "##ep ": 1658,
      "##New ": 1659,
      "##? ": 1660,
      "##. M": 1661,
      "##sions ": 1662,
      "##dio ": 1663,
      "##base": 1664,
      "##sel": 1665,
      "##group ": 1666,
      "##sit": 1667,
      "##gre": 1668,
      "##eff": 1669,
      "##or the ": 1670,
      "##given ": 1671,
      "##standard ": 1672,
      "##konqueror ": 1673,
      "##pe": 1674,
      "##E ": 1675,
      "Err": 1676,
      "##erv": 1677,
      "##prof": 1678,
      "##data": 1679,
      "##possible ": 1680,
      "##xim": 1681,
      "## their ": 1682,
      "##activ": 1683,
      "##will": 1684,
      "##lose ": 1685,
      "##urrent ": 1686,
      "##vert": 1687,
      "##local ": 1688,
      "##previ": 1689,
      "##s)": 1690,
      "##Dat": 1691,
      "##elop": 1692,
      "##field": 1693,
      "##s:": 1694,
      "##lim": 1695,
      "##tain ": 1696,
      "##propert": 1697,
      "##ending ": 1698,
      "##has been ": 1699,
      "##ead ": 1700,
      "##respon": 1701,
      "##er to ": 1702,
      "## contain": 1703,
      "##link": 1704,
      "##lock": 1705,
      "##draw": 1706,
      "##att": 1707,
      "##igin": 1708,
      "##wheth": 1709,
      "##filter": 1710,
      "##. H": 1711,
      "##A ": 1712,
      "##Use ": 1713,
      "##search": 1714,
      "##ose ": 1715,
      "##run ": 1716,
      "##now ": 1717,
      "##screen ": 1718,
      "##for a ": 1719,
      "##level": 1720,
      "##ok": 1721,
      "##ef": 1722,
      "##UP": 1723,
      "##expres": 1724,
      "##values ": 1725,
      "Ex": 1726,
      "## text": 1727,
      "##charact": 1728,
      "##norm": 1729,
      "##dec": 1730,
      "##age.": 1731,
      "##lete ": 1732,
      "When ": 1733,
      "##on a ": 1734,
      "##som": 1735,
      "##show ": 1736,
      "##main": 1737,
      "##graph": 1738,
      "##font ": 1739,
      "##project ": 1740,
      "##change ": 1741,
      "##after ": 1742,
      "##ity": 1743,
      "##pec": 1744,
      "## throug": 1745,
      "##ways ": 1746,
      "##alarm": 1747,
      "##by": 1748,
      "##IM": 1749,
      "##may be ": 1750,
      "##below": 1751,
      "##Man": 1752,
      "##%3": 1753,
      "##it.": 1754,
      "##00 ": 1755,
      "No ": 1756,
      "##command": 1757,
      "##between ": 1758,
      "##pen ": 1759,
      "##ware ": 1760,
      "##inser": 1761,
      "##. In": 1762,
      "##ateg": 1763,
      "##light": 1764,
      "##interf": 1765,
      "##section ": 1766,
      "##devic": 1767,
      "## them ": 1768,
      "##install": 1769,
      "##Di": 1770,
      "##mor": 1771,
      "##Edit": 1772,
      "Do ": 1773,
      "##. B": 1774,
      "##viron": 1775,
      "##sm": 1776,
      "##s/ ": 1777,
      "##oot ": 1778,
      "##source ": 1779,
      "##exp": 1780,
      "##paramet": 1781,
      "##View ": 1782,
      "Set": 1783,
      "##CD": 1784,
      "##IN": 1785,
      "##stru": 1786,
      "##= ": 1787,
      "##filter ": 1788,
      "##remot": 1789,
      "##ick ": 1790,
      "##bott": 1791,
      "##name": 1792,
      "##ple": 1793,
      "##8 ": 1794,
      "##on your ": 1795,
      "##of this ": 1796,
      "##database ": 1797,
      "##without ": 1798,
      "There ": 1799,
      "##- - ": 1800,
      "## that the ": 1801,
      "##point ": 1802,
      "##krusad": 1803,
      "##password ": 1804,
      "##opyright ": 1805,
      "##Inter": 1806,
      "##alend": 1807,
      "##might ": 1808,
      "##ade ": 1809,
      "##syn": 1810,
      "##over ": 1811,
      "##cul": 1812,
      "##This ": 1813,
      "##erg": 1814,
      "##oll": 1815,
      "##ros": 1816,
      "##. mail": 1817,
      "##am ": 1818,
      "##ift ": 1819,
      "##detail": 1820,
      "##ever": 1821,
      "##ally": 1822,
      "Wh": 1823,
      "##in this ": 1824,
      "##input ": 1825,
      "##oriz": 1826,
      "##plugin": 1827,
      "##please ": 1828,
      "##Des": 1829,
      "##. You ": 1830,
      "##either ": 1831,
      "##umn ": 1832,
      "##need": 1833,
      "## conne": 1834,
      "##head": 1835,
      "##sure ": 1836,
      "##T ": 1837,
      "##attribut": 1838,
      "##1.": 1839,
      "##Scri": 1840,
      "##out the ": 1841,
      "##error": 1842,
      "##ort ": 1843,
      "##s you ": 1844,
      "##) 200": 1845,
      "##encrypt": 1846,
      "##\\t\\t": 1847,
      "##multiple ": 1848,
      "##of c": 1849,
      "##figure": 1850,
      "Th": 1851,
      "##d the ": 1852,
      "##project": 1853,
      "Open": 1854,
      "##right": 1855,
      "##edit ": 1856,
      "##installed ": 1857,
      "##. For ": 1858,
      "##setting ": 1859,
      "##ue": 1860,
      "##F ": 1861,
      "##edu": 1862,
      "##s to the ": 1863,
      "##sever": 1864,
      "Check": 1865,
      "##http: / /": 1866,
      "##6 ": 1867,
      "##board": 1868,
      "##99": 1869,
      "##() ": 1870,
      "##. This is ": 1871,
      "Select the ": 1872,
      "##arr": 1873,
      "##ame": 1874,
      "##ash": 1875,
      "##form ": 1876,
      "##ould not be ": 1877,
      "##Ke": 1878,
      "##etc": 1879,
      "##check ": 1880,
      "##space ": 1881,
      "##help": 1882,
      "##because ": 1883,
      "##origin": 1884,
      "##ate the ": 1885,
      "##witch": 1886,
      "##rect ": 1887,
      "## click ": 1888,
      "##information": 1889,
      "##script": 1890,
      "##based ": 1891,
      "##ther ": 1892,
      "##ograph": 1893,
      "##host": 1894,
      "On": 1895,
      "Rem": 1896,
      "##s or ": 1897,
      "##for this ": 1898,
      "##change the ": 1899,
      "##Th": 1900,
      "## charact": 1901,
      "Choose ": 1902,
      "## command": 1903,
      "##ren": 1904,
      "##ate": 1905,
      "##. Se": 1906,
      "##%1.": 1907,
      "##ribut": 1908,
      "##siz": 1909,
      "##modif": 1910,
      "##buil": 1911,
      "## than ": 1912,
      "##ong ": 1913,
      "##ed and ": 1914,
      "##lection ": 1915,
      "##selected": 1916,
      "##set the ": 1917,
      "##desktop": 1918,
      "##connect": 1919,
      "##er the ": 1920,
      "##images ": 1921,
      "##look": 1922,
      "##email ": 1923,
      "##she": 1924,
      "##help ": 1925,
      "##place ": 1926,
      "##prot": 1927,
      "##ption": 1928,
      "##provid": 1929,
      "##aile": 1930,
      "##log ": 1931,
      "##-200": 1932,
      "##our ": 1933,
      "##main ": 1934,
      "##posit": 1935,
      "##button to ": 1936,
      "##desktop ": 1937,
      "##ccess": 1938,
      "##lear": 1939,
      "##known ": 1940,
      "##adi": 1941,
      "##CUP": 1942,
      "##IS": 1943,
      "##fix": 1944,
      "##again": 1945,
      "##nel ": 1946,
      "##Dev": 1947,
      "##let ": 1948,
      "##ingle ": 1949,
      "## with the ": 1950,
      "##Ctrl ": 1951,
      "##net ": 1952,
      "## contr": 1953,
      "##filen": 1954,
      "##remote ": 1955,
      "##spe": 1956,
      "##output ": 1957,
      "##look ": 1958,
      "##_B": 1959,
      "##on-": 1960,
      "##type ": 1961,
      "##pol": 1962,
      "##tit": 1963,
      "##An": 1964,
      "##es are ": 1965,
      "##View": 1966,
      "## command ": 1967,
      "##s) ": 1968,
      "##oub": 1969,
      "##es and ": 1970,
      "##\"%1\"": 1971,
      "##oad": 1972,
      "##ption ": 1973,
      "##appear ": 1974,
      "##displayed ": 1975,
      "##Play": 1976,
      "##s of the ": 1977,
      "##path": 1978,
      "##top ": 1979,
      "##appl": 1980,
      "##instead ": 1981,
      "##itional ": 1982,
      "##selection ": 1983,
      "##useful ": 1984,
      "##mi": 1985,
      "##sid": 1986,
      "##red ": 1987,
      "##second": 1988,
      "##ik": 1989,
      "##hol": 1990,
      "##object ": 1991,
      "##feature": 1992,
      "##_BAR": 1993,
      "##just": 1994,
      "##ertificate ": 1995,
      "##gt ": 1996,
      "##mb": 1997,
      "##per ": 1998,
      "##ask ": 1999,
      "##termin": 2000,
      "##script ": 2001,
      "##always ": 2002,
      "##as w": 2003,
      "## tab ": 2004,
      "##emplate ": 2005,
      "##font": 2006,
      "##meth": 2007,
      "##alarm ": 2008,
      "##of your ": 2009,
      "##clip": 2010,
      "##_BAR_": 2011,
      "##cap": 2012,
      "##s. The ": 2013,
      "##Show ": 2014,
      "##one of the ": 2015,
      "##re ": 2016,
      "##oci": 2017,
      "##drag": 2018,
      "##returns ": 2019,
      "##day": 2020,
      "##when": 2021,
      "##account ": 2022,
      "An ": 2023,
      "##inv": 2024,
      "##Manag": 2025,
      "##R ": 2026,
      "##ash ": 2027,
      "##tach": 2028,
      "##remove ": 2029,
      "##Loc": 2030,
      "##G ": 2031,
      "## when ": 2032,
      "##le.": 2033,
      "##process": 2034,
      "##Fil": 2035,
      "##tim": 2036,
      "##ed for ": 2037,
      "##urn ": 2038,
      "##lik": 2039,
      "##keyboard ": 2040,
      "##find": 2041,
      "##ind ": 2042,
      "##shows ": 2043,
      "##ustom": 2044,
      "Here ": 2045,
      "##ro": 2046,
      "##Str": 2047,
      "##what ": 2048,
      "##ourc": 2049,
      "##must be ": 2050,
      "Set ": 2051,
      "##rem": 2052,
      "##see the ": 2053,
      "##position ": 2054,
      "##ing c": 2055,
      "##prop": 2056,
      "##ult ": 2057,
      "## window": 2058,
      "##Fr": 2059,
      "##init": 2060,
      "##one": 2061,
      "##agr": 2062,
      "##empty ": 2063,
      "##9 ": 2064,
      "##way ": 2065,
      "##environ": 2066,
      "##ature ": 2067,
      "Togg": 2068,
      "##rat": 2069,
      "##quot ": 2070,
      "##request": 2071,
      "##dur": 2072,
      "##users ": 2073,
      "##mean": 2074,
      "##sur": 2075,
      "##fre": 2076,
      "##have to ": 2077,
      "##distribut": 2078,
      "##N ": 2079,
      "##control": 2080,
      "##order ": 2081,
      "##ing and ": 2082,
      "##pop": 2083,
      "##location ": 2084,
      "Show": 2085,
      "Settings ": 2086,
      "##job": 2087,
      "Create ": 2088,
      "##status ": 2089,
      "##article ": 2090,
      "##\"%1\" ": 2091,
      "##bottom ": 2092,
      "##ement ": 2093,
      "##result": 2094,
      "##list.": 2095,
      "##editor ": 2096,
      "##two ": 2097,
      "##we ": 2098,
      "##M ": 2099,
      "##is to ": 2100,
      "##ign ": 2101,
      "##running ": 2102,
      "##. k": 2103,
      "##files": 2104,
      "##provide": 2105,
      "##even ": 2106,
      "Im": 2107,
      "##disable": 2108,
      "##account": 2109,
      "##ed by the ": 2110,
      "##background ": 2111,
      "##URL ": 2112,
      "##12": 2113,
      "##configur": 2114,
      "##updat": 2115,
      "## track": 2116,
      "##eng": 2117,
      "##star": 2118,
      "##string ": 2119,
      "##such as ": 2120,
      "File ": 2121,
      "##til": 2122,
      "##led": 2123,
      "##ed with ": 2124,
      "##itt": 2125,
      "##div": 2126,
      "##opp": 2127,
      "##less ": 2128,
      "##ermin": 2129,
      "##e them": 2130,
      "##lection": 2131,
      "## comput": 2132,
      "## that": 2133,
      "Add ": 2134,
      "##. com": 2135,
      "##ing this ": 2136,
      "##pers": 2137,
      "##System": 2138,
      "##gu": 2139,
      "##wise ": 2140,
      "##back ": 2141,
      "##specify ": 2142,
      "##tab": 2143,
      "##O ": 2144,
      "## take ": 2145,
      "##ere": 2146,
      "##enem": 2147,
      "##dialog.": 2148,
      "##s on the ": 2149,
      "##permis": 2150,
      "##cursor ": 2151,
      "##amer": 2152,
      "##name of the ": 2153,
      "##Shift ": 2154,
      "## configuration ": 2155,
      "##ordin": 2156,
      "##10": 2157,
      "##larg": 2158,
      "##s with ": 2159,
      "##begin": 2160,
      "##existing ": 2161,
      "##AT": 2162,
      "##7 ": 2163,
      "##ory": 2164,
      "##report": 2165,
      "##ish ": 2166,
      "##allow ": 2167,
      "##fault ": 2168,
      "##encod": 2169,
      "##pix": 2170,
      "##Open": 2171,
      "##Pro": 2172,
      "Enter the ": 2173,
      "##a file ": 2174,
      "##indic": 2175,
      "##. In ": 2176,
      "##lines ": 2177,
      "##previous ": 2178,
      "##when the ": 2179,
      "##o-": 2180,
      "If you ": 2181,
      "##. Do ": 2182,
      "##Script ": 2183,
      "##ous": 2184,
      "##exten": 2185,
      "##delete ": 2186,
      "##entries ": 2187,
      "##rt": 2188,
      "##Mess": 2189,
      "##still ": 2190,
      "##er and ": 2191,
      "##. Not": 2192,
      "Error ": 2193,
      "##e to ": 2194,
      "##really ": 2195,
      "##download": 2196,
      "##possib": 2197,
      "##module ": 2198,
      "##send ": 2199,
      "##er is ": 2200,
      "##ed as ": 2201,
      "##maxim": 2202,
      "##enabled ": 2203,
      "##problem": 2204,
      "##in your ": 2205,
      "##shortcut": 2206,
      "##ual": 2207,
      "##phot": 2208,
      "##URL": 2209,
      "##being ": 2210,
      "##associ": 2211,
      "##web ": 2212,
      "##made ": 2213,
      "##struct": 2214,
      "##divid": 2215,
      "##. E": 2216,
      "##: %2": 2217,
      "##configure": 2218,
      "##CD ": 2219,
      "##Kon": 2220,
      "##ool ": 2221,
      "##er (": 2222,
      "## which": 2223,
      "##ip ": 2224,
      "##ele": 2225,
      "## wor": 2226,
      "##complet": 2227,
      "##. A ": 2228,
      "##regular ": 2229,
      "##case ": 2230,
      "##s...": 2231,
      "##ire ": 2232,
      "##second ": 2233,
      "##. If the ": 2234,
      "##rap": 2235,
      "##bum": 2236,
      "##audio ": 2237,
      "##highlight": 2238,
      "##done ": 2239,
      "##develop": 2240,
      "##All ": 2241,
      "##non-": 2242,
      "##ress ": 2243,
      "Re": 2244,
      "##vanc": 2245,
      "## tak": 2246,
      "##annel ": 2247,
      "##ily ": 2248,
      "##your c": 2249,
      "##od ": 2250,
      "##DV": 2251,
      "##} ": 2252,
      "##ed to the ": 2253,
      "##kde. org": 2254,
      "##element ": 2255,
      "##area ": 2256,
      "##replac": 2257,
      "## color": 2258,
      "##mu": 2259,
      "##ve ": 2260,
      "##La": 2261,
      "##. R": 2262,
      "##ility ": 2263,
      "##s to be ": 2264,
      "##column": 2265,
      "##specific ": 2266,
      "##session ": 2267,
      "## this option is ": 2268,
      "##K ": 2269,
      "##correct": 2270,
      "##ternal ": 2271,
      "##enter the ": 2272,
      "##plugin ": 2273,
      "##session": 2274,
      "##limit": 2275,
      "##interface ": 2276,
      "##squ": 2277,
      "##Fol": 2278,
      "## to a ": 2279,
      "##ent.": 2280,
      "##of k": 2281,
      "##oordin": 2282,
      "##pow": 2283,
      "##success": 2284,
      "##have the ": 2285,
      "##layou": 2286,
      "##book ": 2287,
      "##inde": 2288,
      "## click": 2289,
      "Faile": 2290,
      "##sing the ": 2291,
      "##aniz": 2292,
      "##attach": 2293,
      "##actions ": 2294,
      "##s. You": 2295,
      "##full ": 2296,
      "##ality ": 2297,
      "##for example ": 2298,
      "##until": 2299,
      "##libr": 2300,
      "##press ": 2301,
      "##depend": 2302,
      "##edi": 2303,
      "##ass ": 2304,
      "## configur": 2305,
      "## comp": 2306,
      "##argum": 2307,
      "##met": 2308,
      "##cell": 2309,
      "##ilit": 2310,
      "##valid": 2311,
      "##network ": 2312,
      "##Add": 2313,
      "##feature ": 2314,
      "##HTML ": 2315,
      "##several ": 2316,
      "##ses ": 2317,
      "##shot ": 2318,
      "##protoc": 2319,
      "##c) 200": 2320,
      "##every ": 2321,
      "##ly the ": 2322,
      "##ine ": 2323,
      "##failed": 2324,
      "##local": 2325,
      "##each": 2326,
      "##network": 2327,
      "##describ": 2328,
      "##ath": 2329,
      "##ings": 2330,
      "##determin": 2331,
      "##need ": 2332,
      "##uses ": 2333,
      "##contin": 2334,
      "## color ": 2335,
      "##. It is ": 2336,
      "##KM": 2337,
      "## tag": 2338,
      "##rel": 2339,
      "##about the ": 2340,
      "##first": 2341,
      "##defined ": 2342,
      "##fully ": 2343,
      "##] ": 2344,
      "##ustom ": 2345,
      "##2.": 2346,
      "##now": 2347,
      "## then": 2348,
      "Com": 2349,
      "##entation ": 2350,
      "## window ": 2351,
      "##mand": 2352,
      "##ences ": 2353,
      "##available": 2354,
      "##language ": 2355,
      "##insert": 2356,
      "## than": 2357,
      "## cre": 2358,
      "##partic": 2359,
      "##modifi": 2360,
      "##CO": 2361,
      "##ID": 2362,
      "##quest": 2363,
      "## where ": 2364,
      "##correct ": 2365,
      "##applications ": 2366,
      "##CUPS ": 2367,
      "##merg": 2368,
      "##Sett": 2369,
      "##orr": 2370,
      "##relat": 2371,
      "##player ": 2372,
      "##panel ": 2373,
      "##more th": 2374,
      "##used for ": 2375,
      "##! ": 2376,
      "##mark ": 2377,
      "##bar.": 2378,
      "##alendar ": 2379,
      "##root ": 2380,
      "##als ": 2381,
      "##are not ": 2382,
      "##result ": 2383,
      "##lob": 2384,
      "##- > ": 2385,
      "##Linu": 2386,
      "##ax": 2387,
      "##kd": 2388,
      "Enter ": 2389,
      "##widget": 2390,
      "##Deskt": 2391,
      "##Dis": 2392,
      "## those ": 2393,
      "##ated": 2394,
      "##ary": 2395,
      "##original ": 2396,
      "Open ": 2397,
      "##mem": 2398,
      "##ten ": 2399,
      "##bre": 2400,
      "##occur": 2401,
      "##peri": 2402,
      "##option to ": 2403,
      "Display": 2404,
      "##hidd": 2405,
      "##oftware ": 2406,
      "##krusader ": 2407,
      "##Serv": 2408,
      "##eme ": 2409,
      "##it will ": 2410,
      "In ": 2411,
      "##code ": 2412,
      "##Ap": 2413,
      "##oot": 2414,
      "##perform": 2415,
      "##printer ": 2416,
      "##includ": 2417,
      "Failed to ": 2418,
      "Click": 2419,
      "##Gener": 2420,
      "##least ": 2421,
      "##editor": 2422,
      "##ative ": 2423,
      "##section": 2424,
      "##both ": 2425,
      "##created ": 2426,
      "##items ": 2427,
      "##cannot be ": 2428,
      "##bug ": 2429,
      "##Au": 2430,
      "##) and ": 2431,
      "##disc": 2432,
      "##simply ": 2433,
      "##panel": 2434,
      "##www": 2435,
      "##lay": 2436,
      "##det": 2437,
      "##comput": 2438,
      "##annel": 2439,
      "##0x": 2440,
      "##e. The ": 2441,
      "##sen": 2442,
      "##checked ": 2443,
      "Sh": 2444,
      "##cr": 2445,
      "##light ": 2446,
      "##long": 2447,
      "##entic": 2448,
      "##version": 2449,
      "##appname ": 2450,
      "##path ": 2451,
      "##effect": 2452,
      "##aff": 2453,
      "##pict": 2454,
      "##ht": 2455,
      "## this is ": 2456,
      "##package ": 2457,
      "##e)": 2458,
      "##avig": 2459,
      "##if you want to ": 2460,
      "##special ": 2461,
      "##menu.": 2462,
      "##how to ": 2463,
      "##ning": 2464,
      "##Ph": 2465,
      "## tit": 2466,
      "##have a ": 2467,
      "##left": 2468,
      "##orizont": 2469,
      "##199": 2470,
      "##Typ": 2471,
      "##/ sh": 2472,
      "##trans": 2473,
      "##changes ": 2474,
      "##pa": 2475,
      "##Rem": 2476,
      "##bookmark": 2477,
      "##foc": 2478,
      "##rece": 2479,
      "##ther": 2480,
      "##olum": 2481,
      "##press the ": 2482,
      "##saved ": 2483,
      "##hist": 2484,
      "##AP ": 2485,
      "##sin": 2486,
      "##UN": 2487,
      "##Not": 2488,
      "##quot": 2489,
      "##Cont": 2490,
      "##3.": 2491,
      "##drop ": 2492,
      "##directory": 2493,
      "##map ": 2494,
      "##ape ": 2495,
      "##up the ": 2496,
      "##number": 2497,
      "##MB": 2498,
      "##On": 2499,
      "##self": 2500,
      "##as well ": 2501,
      "##above ": 2502,
      "##usually ": 2503,
      "##ood ": 2504,
      "##from a ": 2505,
      "##process ": 2506,
      "##shows the ": 2507,
      "##style ": 2508,
      "Aut": 2509,
      "##gl": 2510,
      "##names ": 2511,
      "##correspon": 2512,
      "##documentation ": 2513,
      "##send": 2514,
      "## through": 2515,
      "##every": 2516,
      "Vi": 2517,
      "##Save ": 2518,
      "##is an ": 2519,
      "##and then ": 2520,
      "Tr": 2521,
      "##cop": 2522,
      "##found": 2523,
      "##Wh": 2524,
      "##day ": 2525,
      "##Text ": 2526,
      "##We": 2527,
      "##amar": 2528,
      "##contents ": 2529,
      "##ach ": 2530,
      "##Mo": 2531,
      "##recor": 2532,
      "##or a ": 2533,
      "##import ": 2534,
      "##e. g": 2535,
      "##access ": 2536,
      "##Color ": 2537,
      "##regular expres": 2538,
      "## was ": 2539,
      "##servic": 2540,
      "##pages ": 2541,
      "##sert ": 2542,
      "##operation": 2543,
      "##. When ": 2544,
      "##switch": 2545,
      "##un ": 2546,
      "##used": 2547,
      "##control ": 2548,
      "##. On": 2549,
      "##eg ": 2550,
      "##) returns ": 2551,
      "##called ": 2552,
      "##Image ": 2553,
      "##vanced ": 2554,
      "##low ": 2555,
      "##documentation": 2556,
      "##news": 2557,
      "KDE": 2558,
      "##Back": 2559,
      "##selecting ": 2560,
      "##finish": 2561,
      "##more than ": 2562,
      "##ments ": 2563,
      "##were ": 2564,
      "##+ ": 2565,
      "## task": 2566,
      "##. Ch": 2567,
      "##extr": 2568,
      "##mbol": 2569,
      "## three ": 2570,
      "##ably ": 2571,
      "##answ": 2572,
      "##e:": 2573,
      "##spl": 2574,
      "##ents": 2575,
      "##ough ": 2576,
      "##opyright 200": 2577,
      "Spec": 2578,
      "##shar": 2579,
      "##you want ": 2580,
      "##irc": 2581,
      "##calend": 2582,
      "##visible ": 2583,
      "##tem": 2584,
      "##bas": 2585,
      "##ly.": 2586,
      "##represent": 2587,
      "##amount ": 2588,
      "##archiv": 2589,
      "##host ": 2590,
      "##AS": 2591,
      "##doub": 2592,
      "##Pre": 2593,
      "##ree": 2594,
      "##plan": 2595,
      "##lock ": 2596,
      "##after the ": 2597,
      "##entered ": 2598,
      "## there are ": 2599,
      "##Toolbar": 2600,
      "##profile ": 2601,
      "##happ": 2602,
      "##u ": 2603,
      "##you'": 2604,
      "##er of ": 2605,
      "##. There ": 2606,
      "## tool ": 2607,
      "##rot": 2608,
      "##ify ": 2609,
      "##range ": 2610,
      "##ian ": 2611,
      "##ion.": 2612,
      "##prefer": 2613,
      "##Print": 2614,
      "##bum ": 2615,
      "##Log": 2616,
      "##Net": 2617,
      "##es that ": 2618,
      "##open the ": 2619,
      "##ation of ": 2620,
      "##various ": 2621,
      "##database": 2622,
      "##Grou": 2623,
      "##propri": 2624,
      "##egr": 2625,
      "##thing ": 2626,
      "##when you ": 2627,
      "##havi": 2628,
      "##label": 2629,
      "##properties ": 2630,
      "##adjust": 2631,
      "##already exist": 2632,
      "New ": 2633,
      "##could not be ": 2634,
      "##ics ": 2635,
      "##omet": 2636,
      "##you should ": 2637,
      "##simil": 2638,
      "## they are ": 2639,
      "##order to ": 2640,
      "##much ": 2641,
      "##MB ": 2642,
      "##For": 2643,
      "##e that the ": 2644,
      "##letter": 2645,
      "##messag": 2646,
      "## cannot ": 2647,
      "##/ share": 2648,
      "##Te": 2649,
      "##urt": 2650,
      "##e the": 2651,
      "##know": 2652,
      "##whether ": 2653,
      "##driv": 2654,
      "##ppp": 2655,
      "##. These ": 2656,
      "##possible to ": 2657,
      "##copy ": 2658,
      "##would ": 2659,
      "##reas": 2660,
      "##ole ": 2661,
      "##abov": 2662,
      "##a single ": 2663,
      "##Internet ": 2664,
      "Click ": 2665,
      "##ok ": 2666,
      "##Tab": 2667,
      "##DI": 2668,
      "##Sp": 2669,
      "##Wor": 2670,
      "##inf": 2671,
      "##atch": 2672,
      "##secur": 2673,
      "##node ": 2674,
      "##ular": 2675,
      "##part of the ": 2676,
      "##categ": 2677,
      "##PG": 2678,
      "## create ": 2679,
      "##in k": 2680,
      "##video ": 2681,
      "##description ": 2682,
      "##Post": 2683,
      "##email": 2684,
      "##prom": 2685,
      "##ected ": 2686,
      "##iled ": 2687,
      "##position": 2688,
      "##do n't ": 2689,
      "##context ": 2690,
      "Toggle ": 2691,
      "##100": 2692,
      "##Jav": 2693,
      "##duc": 2694,
      "##normal ": 2695,
      "##person": 2696,
      "##fal": 2697,
      "##at least ": 2698,
      "##by clicking ": 2699,
      "##slid": 2700,
      "##-w": 2701,
      "##you may ": 2702,
      "##scal": 2703,
      "##AN": 2704,
      "##zz": 2705,
      "##Book": 2706,
      "##XML ": 2707,
      "##appropri": 2708,
      "##shown": 2709,
      "##Contr": 2710,
      "##here.": 2711,
      "##schedu": 2712,
      "##re you ": 2713,
      "For ": 2714,
      "##ML": 2715,
      "##via ": 2716,
      "##lose": 2717,
      "##Plug": 2718,
      "##laun": 2719,
      "##TP ": 2720,
      "##fac": 2721,
      "##For ": 2722,
      "##. (": 2723,
      "##calcul": 2724,
      "##System ": 2725,
      "##oad ": 2726,
      "##pub": 2727,
      "##Ma": 2728,
      "##Time ": 2729,
      "##User": 2730,
      "##ately ": 2731,
      "##arch ": 2732,
      "##arget ": 2733,
      "##. Al": 2734,
      "##means": 2735,
      "##example": 2736,
      "##man ": 2737,
      "##IP": 2738,
      "##on this ": 2739,
      "##: %1 ": 2740,
      "##ource": 2741,
      "##include ": 2742,
      "##has": 2743,
      "##base ": 2744,
      "##priv": 2745,
      "##configure ": 2746,
      "##you want": 2747,
      "##. You can": 2748,
      "## through ": 2749,
      "##wa": 2750,
      "##Mode": 2751,
      "##folders ": 2752,
      "## there is ": 2753,
      "##Add ": 2754,
      "##Settings": 2755,
      "##ml": 2756,
      "##V ": 2757,
      "##ical": 2758,
      "## theme ": 2759,
      "##ish to ": 2760,
      "##solut": 2761,
      "##Key": 2762,
      "##. Do you want to ": 2763,
      "##zer": 2764,
      "##free ": 2765,
      "##OM": 2766,
      "##ing of ": 2767,
      "## that is ": 2768,
      "##button.": 2769,
      "##shortcut ": 2770,
      "##Dialog": 2771,
      "##sheet": 2772,
      "##Desktop ": 2773,
      "Dr": 2774,
      "##pap": 2775,
      "##enable ": 2776,
      "##ing for ": 2777,
      "##ency ": 2778,
      "##Stat": 2779,
      "## change the ": 2780,
      "##download ": 2781,
      "##contains ": 2782,
      "##pixel": 2783,
      "##Lef": 2784,
      "##only": 2785,
      "## to t": 2786,
      "##additional ": 2787,
      "##articles ": 2788,
      "##recip": 2789,
      "##mount": 2790,
      "##text": 2791,
      "##amb": 2792,
      "##printer": 2793,
      "##ap ": 2794,
      "##name.": 2795,
      "##here the ": 2796,
      "##click on the ": 2797,
      "##filename ": 2798,
      "##Aut": 2799,
      "##engin": 2800,
      "##whit": 2801,
      "##disk ": 2802,
      "##line": 2803,
      "##column ": 2804,
      "##keys ": 2805,
      "##functions ": 2806,
      "##window.": 2807,
      "##next": 2808,
      "##volum": 2809,
      "##PD": 2810,
      "##Game ": 2811,
      "##under ": 2812,
      "##named ": 2813,
      "##match ": 2814,
      "##go ": 2815,
      "##ner ": 2816,
      "##OS": 2817,
      "##ansp": 2818,
      "##ecess": 2819,
      "##aph ": 2820,
      "##vers": 2821,
      "##bod": 2822,
      "##you would ": 2823,
      "##prec": 2824,
      "##preview ": 2825,
      "##----": 2826,
      "##simple ": 2827,
      "##currently selected ": 2828,
      "##give ": 2829,
      "##ures": 2830,
      "##igg": 2831,
      "##try ": 2832,
      "##disk": 2833,
      "##symbol": 2834,
      "## try to ": 2835,
      "##numbers ": 2836,
      "##ired ": 2837,
      "##variable": 2838,
      "##configured ": 2839,
      "##war": 2840,
      "##incre": 2841,
      "##dif": 2842,
      "##operation ": 2843,
      "##web": 2844,
      "##provide ": 2845,
      "##authentic": 2846,
      "##environment ": 2847,
      "##card ": 2848,
      "##side": 2849,
      "##Or": 2850,
      "## templ": 2851,
      "##sequ": 2852,
      "## will": 2853,
      "##Alt ": 2854,
      "##necess": 2855,
      "##TE": 2856,
      "##jo": 2857,
      "##U ": 2858,
      "##IP ": 2859,
      "##or to ": 2860,
      "##imag": 2861,
      "##event ": 2862,
      "This is the ": 2863,
      "##install ": 2864,
      "##card": 2865,
      "##ward": 2866,
      "##Res": 2867,
      "##Do ": 2868,
      "##Docum": 2869,
      "##GU": 2870,
      "##er c": 2871,
      "##ere the ": 2872,
      "##ates": 2873,
      "##starting ": 2874,
      "##show the ": 2875,
      "##probably ": 2876,
      "## contains ": 2877,
      "##maximum ": 2878,
      "##www. ": 2879,
      "##glob": 2880,
      "##past": 2881,
      "##Men": 2882,
      "##area": 2883,
      "##ocab": 2884,
      "##if you have ": 2885,
      "##over the ": 2886,
      "##like to ": 2887,
      "##required ": 2888,
      "##() function ": 2889,
      "##Filter": 2890,
      "##mall ": 2891,
      "##Dr": 2892,
      "##List ": 2893,
      "## we": 2894,
      "##partition ": 2895,
      "##returns the ": 2896,
      "##sole ": 2897,
      "##toolbar": 2898,
      "##appropriate ": 2899,
      "##s this ": 2900,
      "##istr": 2901,
      "##windows ": 2902,
      "##polic": 2903,
      "KDE ": 2904,
      "(c) 200": 2905,
      "##alcul": 2906,
      "##chos": 2907,
      "##chron": 2908,
      "##ound.": 2909,
      "##have been ": 2910,
      "##organiz": 2911,
      "##aem": 2912,
      "##co ": 2913,
      "##ie ": 2914,
      "##it the ": 2915,
      "##it to ": 2916,
      "##ended ": 2917,
      "##perc": 2918,
      "##has a ": 2919,
      "##service ": 2920,
      "## change ": 2921,
      "Set the ": 2922,
      "%1": 2923,
      "##home ": 2924,
      "##s can be ": 2925,
      "##individ": 2926,
      "##urs": 2927,
      "##specific": 2928,
      "##select a ": 2929,
      "Enable ": 2930,
      "##specify the ": 2931,
      "##manager ": 2932,
      "##- - - - ": 2933,
      "##Linux ": 2934,
      "##gn": 2935,
      "##es of ": 2936,
      "##image": 2937,
      "##name and ": 2938,
      "##used by ": 2939,
      "##which is ": 2940,
      "##login ": 2941,
      "##so that ": 2942,
      "##Brow": 2943,
      "##User ": 2944,
      "##ex ": 2945,
      "##fram": 2946,
      "##current": 2947,
      "##umbn": 2948,
      "##output": 2949,
      "##save the ": 2950,
      "##sky ": 2951,
      "##Settings Configure ": 2952,
      "##UNI": 2953,
      "##ge ": 2954,
      "##dom": 2955,
      "##ead": 2956,
      "##s on ": 2957,
      "##ock": 2958,
      "##move the ": 2959,
      "##you have to ": 2960,
      "##solv": 2961,
      "##piec": 2962,
      "##los": 2963,
      "##channel ": 2964,
      "##imple ": 2965,
      "##behavi": 2966,
      "##here": 2967,
      "##profile": 2968,
      "##provides ": 2969,
      "## turn": 2970,
      "##external ": 2971,
      "##ith ": 2972,
      "##for your ": 2973,
      "##uni": 2974,
      "##your comput": 2975,
      "View ": 2976,
      "Col": 2977,
      "##oice ": 2978,
      "##a con": 2979,
      "##sound ": 2980,
      "##location": 2981,
      "##password": 2982,
      "Docum": 2983,
      "##ge": 2984,
      "##ause the ": 2985,
      "##year": 2986,
      "##flic": 2987,
      "##use a ": 2988,
      "##lt /": 2989,
      "##bit": 2990,
      "##List": 2991,
      "##ers.": 2992,
      "## wid": 2993,
      "##Window": 2994,
      "##e. g. ": 2995,
      "##ia ": 2996,
      "##1/ ": 2997,
      "##Mar": 2998,
      "##resource ": 2999,
      "##to-": 3000,
      "##variable ": 3001,
      "##failed.": 3002,
      "##my ": 3003,
      "##ts ": 3004,
      "##16": 3005,
      "##% ": 3006,
      "##or: ": 3007,
      "##use this ": 3008,
      "##directly ": 3009,
      "In the ": 3010,
      "##aw ": 3011,
      "##makes ": 3012,
      "##e/ ": 3013,
      "##upl": 3014,
      "##(\"": 3015,
      "##. J": 3016,
      "##. Use ": 3017,
      "##opet": 3018,
      "## toolbar": 3019,
      "##often ": 3020,
      "##someth": 3021,
      "##i. ": 3022,
      "##report ": 3023,
      "##ing to the ": 3024,
      "##messages": 3025,
      "##widget ": 3026,
      "##appli": 3027,
      "##really want to ": 3028,
      "##long ": 3029,
      "##New": 3030,
      "##a new": 3031,
      "##ded to ": 3032,
      "##who ": 3033,
      "##keep": 3034,
      "##ourse ": 3035,
      "##remove the ": 3036,
      "##ging ": 3037,
      "##mag": 3038,
      "##25": 3039,
      "##sum": 3040,
      "##leng": 3041,
      "##/ c": 3042,
      "##accord": 3043,
      "##attribute ": 3044,
      "##ously ": 3045,
      "##close ": 3046,
      "##Acc": 3047,
      "##Scre": 3048,
      "##Qt ": 3049,
      "##once ": 3050,
      "##ig ": 3051,
      "##ived ": 3052,
      "## configure ": 3053,
      "##happen": 3054,
      "##ech": 3055,
      "##s will be ": 3056,
      "##ertain ": 3057,
      "##or c": 3058,
      "##entation": 3059,
      "##exce": 3060,
      "##ely": 3061,
      "##archive ": 3062,
      "##clipboard": 3063,
      "Whe": 3064,
      "##lad": 3065,
      "##step": 3066,
      "##ively ": 3067,
      "##signature ": 3068,
      "##find the ": 3069,
      "##re you sure ": 3070,
      "Cre": 3071,
      "##Bo": 3072,
      "##K3": 3073,
      "##a b": 3074,
      "##files.": 3075,
      "##diffic": 3076,
      "##folder.": 3077,
      "##information about ": 3078,
      "##instead of ": 3079,
      "##good ": 3080,
      "##10 ": 3081,
      "##software ": 3082,
      "##leav": 3083,
      "##contain ": 3084,
      "##scop": 3085,
      "##content ": 3086,
      "##ept ": 3087,
      "##easily ": 3088,
      "Check this ": 3089,
      "##rand": 3090,
      "##ml ": 3091,
      "##center ": 3092,
      "##pas": 3093,
      "##< ": 3094,
      "##in c": 3095,
      "##apt": 3096,
      "##will not be ": 3097,
      "##Select": 3098,
      "##working ": 3099,
      "##Shortc": 3100,
      "##insert ": 3101,
      "##rememb": 3102,
      "##associated ": 3103,
      "##ople ": 3104,
      "##you choose ": 3105,
      "##expl": 3106,
      "##admin": 3107,
      "##umer": 3108,
      "##izard ": 3109,
      "##instance ": 3110,
      "##drop": 3111,
      "Configure ": 3112,
      "##Data ": 3113,
      "##Ar": 3114,
      "##sent ": 3115,
      "##bsp": 3116,
      "##%3 ": 3117,
      "##Please ": 3118,
      "##s which ": 3119,
      "##reposit": 3120,
      "##le-": 3121,
      "##export": 3122,
      "##isco ": 3123,
      "##you really want to ": 3124,
      "##selection": 3125,
      "##. Wh": 3126,
      "There are ": 3127,
      "##mix": 3128,
      "##more than one ": 3129,
      "##page.": 3130,
      "##ates the ": 3131,
      "##album": 3132,
      "##e. You": 3133,
      "##ocabul": 3134,
      "Ret": 3135,
      "##Ob": 3136,
      "##ered ": 3137,
      "##you can choose ": 3138,
      "If this option is ": 3139,
      "##Konquer": 3140,
      "Edit ": 3141,
      "Sy": 3142,
      "##ient ": 3143,
      "##wal": 3144,
      "##PE": 3145,
      "##lett": 3146,
      "## to-": 3147,
      "##%2.": 3148,
      "## transl": 3149,
      "##pg": 3150,
      "##one.": 3151,
      "##only the ": 3152,
      "##or more ": 3153,
      "##for each ": 3154,
      "##que": 3155,
      "##porary ": 3156,
      "##prox": 3157,
      "##design": 3158,
      "## time": 3159,
      "##elements ": 3160,
      "##agram": 3161,
      "##hidden ": 3162,
      "##ying to ": 3163,
      "##ially ": 3164,
      "##sn": 3165,
      "##Hel": 3166,
      "##export ": 3167,
      "##mach": 3168,
      "##Propert": 3169,
      "##e: %1": 3170,
      "##printing ": 3171,
      "##style": 3172,
      "##sheet ": 3173,
      "##be the ": 3174,
      "##uk ": 3175,
      "##quick": 3176,
      "##lic ": 3177,
      "##playing ": 3178,
      "##ignor": 3179,
      "##automatic": 3180,
      "##. You can also ": 3181,
      "##formatt": 3182,
      "##Windows ": 3183,
      "##character ": 3184,
      "##. In the ": 3185,
      "##Editor ": 3186,
      "##Rec": 3187,
      "##Out": 3188,
      "##s from ": 3189,
      "##are the ": 3190,
      "##reach": 3191,
      "##off ": 3192,
      "##ough": 3193,
      "##following": 3194,
      "##click the ": 3195,
      "## changes ": 3196,
      "##clipboard ": 3197,
      "##fact": 3198,
      "##Sch": 3199,
      "##ed with the ": 3200,
      "##lib": 3201,
      "Change ": 3202,
      "##method ": 3203,
      "##permission": 3204,
      "##large ": 3205,
      "##ten": 3206,
      "##SS": 3207,
      "##befor": 3208,
      "##display the ": 3209,
      "##pattern": 3210,
      "##way to ": 3211,
      "##under the ": 3212,
      "It ": 3213,
      "##las": 3214,
      "##store ": 3215,
      "##file to ": 3216,
      "##scr": 3217,
      "##urrently ": 3218,
      "##Window ": 3219,
      "##self ": 3220,
      "##pect": 3221,
      "##page": 3222,
      "##hid": 3223,
      "##sort": 3224,
      "##Bl": 3225,
      "##whole ": 3226,
      "##resol": 3227,
      "##angle ": 3228,
      "##ized ": 3229,
      "##score ": 3230,
      "##post": 3231,
      "##document.": 3232,
      "You have ": 3233,
      "##amera ": 3234,
      "##sent": 3235,
      "##set to ": 3236,
      "##pli": 3237,
      "##dest": 3238,
      "##images": 3239,
      "##immedi": 3240,
      "##file is ": 3241,
      "##file %1": 3242,
      "##lot ": 3243,
      "##minut": 3244,
      "##Syn": 3245,
      "##layout ": 3246,
      "##a ch": 3247,
      "##inside ": 3248,
      "## cli": 3249,
      "##. The": 3250,
      "##short ": 3251,
      "##with this ": 3252,
      "##s that are ": 3253,
      "##connection ": 3254,
      "##hom": 3255,
      "##nbsp": 3256,
      "##prog": 3257,
      "##usr": 3258,
      "##of the current ": 3259,
      "##frame ": 3260,
      "##assign": 3261,
      "##enter a ": 3262,
      "##browser ": 3263,
      "##people ": 3264,
      "##rate ": 3265,
      "##nn": 3266,
      "##dri": 3267,
      "##: the ": 3268,
      "##'.": 3269,
      "##eloper": 3270,
      "## track ": 3271,
      "##also be ": 3272,
      "Add": 3273,
      "Start ": 3274,
      "##separated ": 3275,
      "##io ": 3276,
      "##did ": 3277,
      "##es a ": 3278,
      "##again ": 3279,
      "##of an ": 3280,
      "##Print ": 3281,
      "##box.": 3282,
      "##between the ": 3283,
      "##Tools ": 3284,
      "##browser": 3285,
      "##effect ": 3286,
      "## work": 3287,
      "##Folder": 3288,
      "##as well as ": 3289,
      "##horizont": 3290,
      "##12 ": 3291,
      "##ward ": 3292,
      "##fur": 3293,
      "##DP": 3294,
      "##ank": 3295,
      "##. documentation": 3296,
      "##for c": 3297,
      "##you need to ": 3298,
      "## try ": 3299,
      "##Color": 3300,
      "##photograph": 3301,
      "##index": 3302,
      "Not": 3303,
      "##zo": 3304,
      "##KP": 3305,
      "##org ": 3306,
      "##consid": 3307,
      "##ipp": 3308,
      "##case": 3309,
      "##den": 3310,
      "##=\"": 3311,
      "##on.": 3312,
      "##se.": 3313,
      "##issu": 3314,
      "##pri": 3315,
      "##vert ": 3316,
      "##view.": 3317,
      "##Vide": 3318,
      "##supported ": 3319,
      "Import ": 3320,
      "## through the ": 3321,
      "##launch": 3322,
      "##mount ": 3323,
      "##custom": 3324,
      "##ek": 3325,
      "##stop": 3326,
      "##im ": 3327,
      "##maint": 3328,
      "##events ": 3329,
      "##contact": 3330,
      "Chang": 3331,
      "##between": 3332,
      "##easi": 3333,
      "##witch ": 3334,
      "When": 3335,
      "##speed ": 3336,
      "##method": 3337,
      "Some ": 3338,
      "##hand ": 3339,
      "##ept": 3340,
      "##site ": 3341,
      "##amp ": 3342,
      "##you must ": 3343,
      "##ptions ": 3344,
      "##dialog to ": 3345,
      "You can": 3346,
      "##intern": 3347,
      "##gets ": 3348,
      "##toolbar ": 3349,
      "## checked ": 3350,
      "##interfac": 3351,
      "##detect": 3352,
      "Automat": 3353,
      "##/ share/ ": 3354,
      "Numb": 3355,
      "Save ": 3356,
      "##few ": 3357,
      "##face ": 3358,
      "##Pan": 3359,
      "##ank ": 3360,
      "##string": 3361,
      "##started ": 3362,
      "##. For example ": 3363,
      "##row ": 3364,
      "##daem": 3365,
      "##RA": 3366,
      "##kmail": 3367,
      "##Open ": 3368,
      "##ement": 3369,
      "##etch": 3370,
      "##lets ": 3371,
      "## cannot be ": 3372,
      "##minim": 3373,
      "##screenshot ": 3374,
      "##render": 3375,
      "##square ": 3376,
      "##until ": 3377,
      "Cisco ": 3378,
      "##eled ": 3379,
      "##sist": 3380,
      "##Form": 3381,
      "##Po": 3382,
      "## the t": 3383,
      "##. U": 3384,
      "##of these ": 3385,
      "## to this ": 3386,
      "## the'": 3387,
      "Insert ": 3388,
      "##you will be ": 3389,
      "##iction": 3390,
      "##depending ": 3391,
      "##alendar": 3392,
      "## control": 3393,
      "##anta": 3394,
      "##it?": 3395,
      "##for all ": 3396,
      "##ogeth": 3397,
      "##system tr": 3398,
      "##byt": 3399,
      "Remove ": 3400,
      "##again.": 3401,
      "##invit": 3402,
      "Here you can ": 3403,
      "##Plugin": 3404,
      "##fer ": 3405,
      "##SQ": 3406,
      "## termin": 3407,
      "##unic": 3408,
      "##uses the ": 3409,
      "Invalid ": 3410,
      "##iddle ": 3411,
      "##disabled ": 3412,
      "##PostScript ": 3413,
      "##re you sure you want to ": 3414,
      "##destin": 3415,
      "##a com": 3416,
      "##ys": 3417,
      "##ix": 3418,
      "##navig": 3419,
      "##sound": 3420,
      "##ID ": 3421,
      "##e that": 3422,
      "##added": 3423,
      "##ump": 3424,
      "##all c": 3425,
      "##protocol ": 3426,
      "##memory ": 3427,
      "##white-": 3428,
      "##canc": 3429,
      "##11": 3430,
      "##4.": 3431,
      "##Mat": 3432,
      "##Off": 3433,
      "##around": 3434,
      "## to your ": 3435,
      "##choo": 3436,
      "##ading ": 3437,
      "##li ": 3438,
      "##you wish to ": 3439,
      "##been": 3440,
      "##if it ": 3441,
      "##known": 3442,
      "##gives ": 3443,
      "##able this ": 3444,
      "##title ": 3445,
      "##ten by ": 3446,
      "Mov": 3447,
      "Sav": 3448,
      "##oid ": 3449,
      "##RO": 3450,
      "##(or ": 3451,
      "##. L": 3452,
      "##near": 3453,
      "##playlist ": 3454,
      "##irst ": 3455,
      "##command line ": 3456,
      "##choose the ": 3457,
      "##build ": 3458,
      "##Player ": 3459,
      "##similar": 3460,
      "Ma": 3461,
      "##pag": 3462,
      "##At": 3463,
      "##Right ": 3464,
      "##Val": 3465,
      "## template ": 3466,
      "##or.": 3467,
      "##. x": 3468,
      "##state ": 3469,
      "##abilit": 3470,
      "##system.": 3471,
      "##otherwise ": 3472,
      "##able the ": 3473,
      "##something ": 3474,
      "##gg": 3475,
      "##yet ": 3476,
      "##MIM": 3477,
      "##uzz": 3478,
      "##Sup": 3479,
      "##( ": 3480,
      "##itu": 3481,
      "##ing your ": 3482,
      "##for more ": 3483,
      "##sym": 3484,
      "##down the ": 3485,
      "##entry": 3486,
      "##schem": 3487,
      "##directories ": 3488,
      "##equals ": 3489,
      "...": 3490,
      "##gold ": 3491,
      "##ern": 3492,
      "##entire ": 3493,
      "##where the ": 3494,
      "##update ": 3495,
      "##ally.": 3496,
      "##buttons ": 3497,
      "##is not a ": 3498,
      "## column": 3499,
      "##office ": 3500,
      "Do you really want to ": 3501,
      "## control ": 3502,
      "##job ": 3503,
      "## than the ": 3504,
      "##Group": 3505,
      "Cisco - ": 3506,
      "##white-spac": 3507,
      "##ying ": 3508,
      "##flo": 3509,
      "##Sav": 3510,
      "##CV": 3511,
      "##H ": 3512,
      "## there": 3513,
      "##around ": 3514,
      "##re-": 3515,
      "##repe": 3516,
      "##ild ": 3517,
      "## copyright 200": 3518,
      "##ded.": 3519,
      "##files and ": 3520,
      "##number of": 3521,
      "##stars ": 3522,
      "##-wrap": 3523,
      "##Shortcut": 3524,
      "##20": 3525,
      "##ball": 3526,
      "##ed on ": 3527,
      "##fix ": 3528,
      "##imet": 3529,
      "##rid ": 3530,
      "##server.": 3531,
      "##high ": 3532,
      "##. How": 3533,
      "##e them ": 3534,
      "##allow you to ": 3535,
      "##s. You can ": 3536,
      "##edia ": 3537,
      "##nbsp ": 3538,
      "##rase ": 3539,
      "##gt": 3540,
      "##mand ": 3541,
      "##bit ": 3542,
      "##CI": 3543,
      "##Name ": 3544,
      "##W ": 3545,
      "##come ": 3546,
      "##actual ": 3547,
      "Your ": 3548,
      "##feed": 3549,
      "Default ": 3550,
      "##. By ": 3551,
      "##features ": 3552,
      "##since ": 3553,
      "##false ": 3554,
      "##$KDE": 3555,
      "##{white-spac": 3556,
      "##ize the ": 3557,
      "##keep ": 3558,
      "##pre-wrap": 3559,
      "##Select ": 3560,
      "##partition": 3561,
      "##e: pre-wrap": 3562,
      "##mouse button ": 3563,
      "##below ": 3564,
      "##ache ": 3565,
      "##li {white-spac": 3566,
      "##li {white-space: pre-wrap": 3567,
      "##dd": 3568,
      "##(%1": 3569,
      "##orrect": 3570,
      "##al c": 3571,
      "## could not be ": 3572,
      "##ext to ": 3573,
      "##imp": 3574,
      "##suit": 3575,
      "##addition": 3576,
      "##information.": 3577,
      "##separate ": 3578,
      "##\\t\\t\\t": 3579,
      "## click on the ": 3580,
      "##elescop": 3581,
      "By ": 3582,
      "##could ": 3583,
      "##hour": 3584,
      "##top": 3585,
      "##sing": 3586,
      "##Current ": 3587,
      "##X-": 3588,
      "##ital ": 3589,
      "##edd": 3590,
      "##tern ": 3591,
      "##player": 3592,
      "##loa": 3593,
      "##present ": 3594,
      "##manually ": 3595,
      "##encryption ": 3596,
      "##volume ": 3597,
      "##ma ": 3598,
      "##iel": 3599,
      "##block": 3600,
      "##Det": 3601,
      "##er than ": 3602,
      "##and a ": 3603,
      "##es (": 3604,
      "##virt": 3605,
      "##proces": 3606,
      "##including ": 3607,
      "##connection": 3608,
      "##. Note that ": 3609,
      "##power": 3610,
      "##successfully ": 3611,
      "Pres": 3612,
      "##mus": 3613,
      "##pn": 3614,
      "##sourc": 3615,
      "##ube ": 3616,
      "##kmail ": 3617,
      "##vocabul": 3618,
      "##CS": 3619,
      "##retri": 3620,
      "##. K": 3621,
      "## too ": 3622,
      "##if you are ": 3623,
      "## what ": 3624,
      "##Configuration ": 3625,
      "##get the ": 3626,
      "##Import ": 3627,
      "##objects ": 3628,
      "Start": 3629,
      "##modify ": 3630,
      "##Left ": 3631,
      "Ke": 3632,
      "##QStr": 3633,
      "##Wid": 3634,
      "##utt": 3635,
      "##und": 3636,
      "##in the current ": 3637,
      "##resourc": 3638,
      "##quality ": 3639,
      "##fig ": 3640,
      "##ote ": 3641,
      "##ground": 3642,
      "##pressing ": 3643,
      "##firm": 3644,
      "##opened ": 3645,
      "##settings": 3646,
      "##header ": 3647,
      "Remov": 3648,
      "##pay": 3649,
      "##ynam": 3650,
      "##Per": 3651,
      "##Option": 3652,
      "## the current ": 3653,
      "##ogn": 3654,
      "##intro": 3655,
      "##que ": 3656,
      "##ype ": 3657,
      "##link ": 3658,
      "##from your ": 3659,
      "##prev": 3660,
      "All": 3661,
      "##graphical ": 3662,
      "##From ": 3663,
      "##bottom of the ": 3664,
      "##UNIX ": 3665,
      "p ": 3666,
      "##As": 3667,
      "##Dec": 3668,
      "##Err": 3669,
      "##CP": 3670,
      "## test": 3671,
      "##atur": 3672,
      "##arm": 3673,
      "##. c": 3674,
      "##integr": 3675,
      "##will not ": 3676,
      "##used.": 3677,
      "##lower ": 3678,
      "## column ": 3679,
      "##box to ": 3680,
      "##given": 3681,
      "##small": 3682,
      "Settings Configure ": 3683,
      "##beginning ": 3684,
      "##hard": 3685,
      "##AL": 3686,
      "##DO": 3687,
      "##ver ": 3688,
      "##CT": 3689,
      "##PP": 3690,
      "##Q ": 3691,
      "##Y ": 3692,
      "##inc": 3693,
      "##step ": 3694,
      "##seem": 3695,
      "##accept": 3696,
      "##changed ": 3697,
      "##Album ": 3698,
      "##game": 3699,
      "##important ": 3700,
      "Go": 3701,
      "##OK": 3702,
      "## tem": 3703,
      "## then the ": 3704,
      "##sed": 3705,
      "The file ": 3706,
      "##lets you ": 3707,
      "##epom": 3708,
      "##a small ": 3709,
      "##status": 3710,
      "##encoding ": 3711,
      "##Server ": 3712,
      "##administr": 3713,
      "##proxy ": 3714,
      "p li {white-space: pre-wrap": 3715,
      "##mm": 3716,
      "##call": 3717,
      "##fter ": 3718,
      "##found.": 3719,
      "##US": 3720,
      "##(s) ": 3721,
      "##):": 3722,
      "##Ver": 3723,
      "##. kde": 3724,
      "##) or ": 3725,
      "##line.": 3726,
      "##special": 3727,
      "##using a ": 3728,
      "##click on ": 3729,
      "##small ": 3730,
      "##sure that ": 3731,
      "##Project ": 3732,
      "##extension": 3733,
      "##Mail": 3734,
      "##D-": 3735,
      "##UT": 3736,
      "##Jo": 3737,
      "##Numb": 3738,
      "##input": 3739,
      "##red": 3740,
      "##sec": 3741,
      "## to use ": 3742,
      "##des ": 3743,
      "##what": 3744,
      "##set of ": 3745,
      "##pattern ": 3746,
      "##after": 3747,
      "##parameters ": 3748,
      "##Applic": 3749,
      "##amarok ": 3750,
      "##Control ": 3751,
      "##opete ": 3752,
      "##. They ": 3753,
      "##ca": 3754,
      "##Page ": 3755,
      "## table ": 3756,
      "##online ": 3757,
      "##ommand": 3758,
      "##ing an ": 3759,
      "##esp": 3760,
      "##playlist": 3761,
      "##scor": 3762,
      "##instru": 3763,
      "##meas": 3764,
      "##startup": 3765,
      "##supports ": 3766,
      "##into a ": 3767,
      "##less": 3768,
      "##Delete ": 3769,
      "##settings.": 3770,
      "## connection ": 3771,
      "##break": 3772,
      "##security ": 3773,
      "##individual ": 3774,
      "p li {white-space: pre-wrap} ": 3775,
      "##cell ": 3776,
      "##ek ": 3777,
      "##s. This ": 3778,
      "##is used to ": 3779,
      "##debug": 3780,
      "##ization ": 3781,
      "##contact ": 3782,
      "##notific": 3783,
      "##\\\\{": 3784,
      "##stored ": 3785,
      "##cannot ": 3786,
      "##referenc": 3787,
      "##previously ": 3788,
      "## connection": 3789,
      "##body ": 3790,
      "##a text ": 3791,
      "##certificate ": 3792,
      "##pur": 3793,
      "##kate ": 3794,
      "##s as ": 3795,
      "## could ": 3796,
      "##ice": 3797,
      "##ities ": 3798,
      "##exist ": 3799,
      "##to be ": 3800,
      "##your own ": 3801,
      "##date": 3802,
      "##documents ": 3803,
      "##sole": 3804,
      "If the ": 3805,
      "##monit": 3806,
      "##side of the ": 3807,
      "##IMAP ": 3808,
      "##protocol": 3809,
      "##relative ": 3810,
      "##affect": 3811,
      "##GUI ": 3812,
      "##further ": 3813,
      "##hal": 3814,
      "##bib": 3815,
      "##knode ": 3816,
      "##C) 200": 3817,
      "##. G": 3818,
      "##lex": 3819,
      "##brick": 3820,
      "##compon": 3821,
      "## toolbar ": 3822,
      "##general ": 3823,
      "Option": 3824,
      "##ient": 3825,
      "##If ": 3826,
      "##ata ": 3827,
      "##old": 3828,
      "##: The ": 3829,
      "##. Then ": 3830,
      "##file or ": 3831,
      "##file system": 3832,
      "## while ": 3833,
      "##stra": 3834,
      "##complete ": 3835,
      "##information about the ": 3836,
      "##Export ": 3837,
      "##arrow ": 3838,
      "##filenam": 3839,
      "##anspar": 3840,
      "##oto ": 3841,
      "##Move ": 3842,
      "##'s": 3843,
      "##ature": 3844,
      "##il ": 3845,
      "##actually ": 3846,
      "##stro": 3847,
      "##Enter ": 3848,
      "##later ": 3849,
      "##define ": 3850,
      "##know ": 3851,
      "##detailed ": 3852,
      "##reference ": 3853,
      "##drawn ": 3854,
      "##below.": 3855,
      "##synta": 3856,
      "These ": 3857,
      "## characters ": 3858,
      "##permissions ": 3859,
      "##Message ": 3860,
      "... that ": 3861,
      "At": 3862,
      "Qu": 3863,
      "##my": 3864,
      "##sw": 3865,
      "##z ": 3866,
      "##RE": 3867,
      "##EX": 3868,
      "##%4": 3869,
      "##atch ": 3870,
      "##ated.": 3871,
      "##lear ": 3872,
      "##ed from the ": 3873,
      "##ing it ": 3874,
      "##and re": 3875,
      "##proper": 3876,
      "##using": 3877,
      "##white ": 3878,
      "##formul": 3879,
      "##collection": 3880,
      "##message": 3881,
      "##displays ": 3882,
      "##up a ": 3883,
      "##automatic ": 3884,
      "##Toolbar ": 3885,
      "##author ": 3886,
      "##enemies ": 3887,
      "##oordinates ": 3888,
      "##ven": 3889,
      "##Lev": 3890,
      "##HOM": 3891,
      "## tri": 3892,
      "##altern": 3893,
      "##is only ": 3894,
      "##advanced ": 3895,
      "##: C": 3896,
      "##compar": 3897,
      "##desired ": 3898,
      "##Inf": 3899,
      "##Inform": 3900,
      "Error: ": 3901,
      "##Manager ": 3902,
      "##means ": 3903,
      "##global ": 3904,
      "##numer": 3905,
      "##single ": 3906,
      "##Mode ": 3907,
      "##fall": 3908,
      "##Name": 3909,
      "## tag ": 3910,
      "##s is ": 3911,
      "##on and ": 3912,
      "##preview": 3913,
      "##Enc": 3914,
      "##rules ": 3915,
      "##main window": 3916,
      "## complet": 3917,
      "##corresponding ": 3918,
      "##retriev": 3919,
      "An": 3920,
      "##ra": 3921,
      "##iK": 3922,
      "##15": 3923,
      "##bind": 3924,
      "##uc": 3925,
      "##fut": 3926,
      "##s from the ": 3927,
      "##is already ": 3928,
      "##chap": 3929,
      "##shot": 3930,
      "##/ etc": 3931,
      "##) equals ": 3932,
      "##but the ": 3933,
      "##you can use ": 3934,
      "##able.": 3935,
      "##listed ": 3936,
      "##backend ": 3937,
      "##mode.": 3938,
      "##'%1 '.": 3939,
      "##width ": 3940,
      "##recogn": 3941,
      "##will c": 3942,
      "##distribution ": 3943,
      "##particular ": 3944,
      "##means that ": 3945,
      "##middle ": 3946,
      "##anim": 3947,
      "##lean ": 3948,
      "##stre": 3949,
      "##itself": 3950,
      "##plus ": 3951,
      "##combin": 3952,
      "##mailing ": 3953,
      "##Exam": 3954,
      "##element": 3955,
      "##access to ": 3956,
      "##identifi": 3957,
      "##labeled ": 3958,
      "##top of the ": 3959,
      "##s\" ": 3960,
      "##source": 3961,
      "##best ": 3962,
      "##36": 3963,
      "##four ": 3964,
      "##PO": 3965,
      "##When ": 3966,
      "##s by ": 3967,
      "##anch": 3968,
      "##is also ": 3969,
      "##ile the ": 3970,
      "##channel": 3971,
      "##quanta": 3972,
      "##never ": 3973,
      "##manu": 3974,
      "##. If you want to ": 3975,
      "##start the ": 3976,
      "##clicking the ": 3977,
      "##loaded ": 3978,
      "##month": 3979,
      "##normally ": 3980,
      "##synchron": 3981,
      "##side the ": 3982,
      "##therwise ": 3983,
      "##Screen ": 3984,
      "Move ": 3985,
      "##hard ": 3986,
      "##zi": 3987,
      "##\".": 3988,
      "##Gu": 3989,
      "##ed. The ": 3990,
      "##ull ": 3991,
      "##respect": 3992,
      "##event": 3993,
      "## without ": 3994,
      "##shown in the ": 3995,
      "##based on ": 3996,
      "##prompt": 3997,
      "##() function returns the ": 3998,
      "##percent": 3999,
      "Color ": 4000,
      "##a the ": 4001,
      "##table ": 4002,
      "##Actions ": 4003,
      "##wron": 4004,
      "##fam": 4005,
      "##aries ": 4006,
      "##sh ": 4007,
      "##ation of the ": 4008,
      "##trl": 4009,
      "##check the ": 4010,
      "##model": 4011,
      "##flopp": 4012,
      "Delet": 4013,
      "##devices ": 4014,
      "Do not ": 4015,
      "Only ": 4016,
      "##Filter ": 4017,
      "##Konqueror ": 4018,
      "##code": 4019,
      "##18": 4020,
      "##20 ": 4021,
      "##fill ": 4022,
      "##foo": 4023,
      "##Writ": 4024,
      "##imes ": 4025,
      "##nee": 4026,
      "##a simple ": 4027,
      "##option.": 4028,
      "##rule": 4029,
      "##Editor": 4030,
      "##configure the ": 4031,
      "##history ": 4032,
      "##calendar": 4033,
      "##amount of ": 4034,
      "##length ": 4035,
      "##usr/ ": 4036,
      "##a.": 4037,
      "##coun": 4038,
      "##io": 4039,
      "##ian": 4040,
      "##BS": 4041,
      "##Fe": 4042,
      "##Ser": 4043,
      "## ter": 4044,
      "##ories ": 4045,
      "##. ht": 4046,
      "##on the left ": 4047,
      "##produ": 4048,
      "##s. A": 4049,
      "##located ": 4050,
      "##ird ": 4051,
      "In this ": 4052,
      "##delete the ": 4053,
      "##black ": 4054,
      "##binary ": 4055,
      "##label ": 4056,
      "##http: / /www. ": 4057,
      "##Project": 4058,
      "##behavior ": 4059,
      "Up": 4060,
      "##nect ": 4061,
      "##ll ": 4062,
      "##DM": 4063,
      "##DCO": 4064,
      "##SV": 4065,
      "##Set": 4066,
      "##Sub": 4067,
      "##(s)": 4068,
      "##\"%2": 4069,
      "##real ": 4070,
      "##recurr": 4071,
      "##an image ": 4072,
      "##improv": 4073,
      "##of the selected ": 4074,
      "##ott": 4075,
      "##sugg": 4076,
      "##rypt ": 4077,
      "##below the ": 4078,
      "## title ": 4079,
      "##regular expression ": 4080,
      "How ": 4081,
      "##cros": 4082,
      "##19": 4083,
      "##) to ": 4084,
      "##erc": 4085,
      "##ors ": 4086,
      "##the": 4087,
      "##it's ": 4088,
      "##ing is ": 4089,
      "##spread ": 4090,
      "##disable ": 4091,
      "##login": 4092,
      "##dialog box": 4093,
      "##scheme ": 4094,
      "##title": 4095,
      "##initial": 4096,
      "##basic ": 4097,
      "##double ": 4098,
      "##chosen ": 4099,
      "##maintain": 4100,
      "##virtual ": 4101,
      "Res": 4102,
      "##root": 4103,
      "##ies.": 4104,
      "##tip": 4105,
      "##Art": 4106,
      "##ble ": 4107,
      "##litt": 4108,
      "##Down": 4109,
      "##ild": 4110,
      "##ship": 4111,
      "##both": 4112,
      "##. If you have ": 4113,
      "##matching ": 4114,
      "##create a ": 4115,
      "Display ": 4116,
      "##great": 4117,
      "##Key ": 4118,
      "##capt": 4119,
      "##Location ": 4120,
      "##remind": 4121,
      "##prior": 4122,
      "##mp": 4123,
      "##wizard ": 4124,
      "##ft": 4125,
      "##(the ": 4126,
      "##arm ": 4127,
      "##. org ": 4128,
      "##plat": 4129,
      "##it will be ": 4130,
      "##common ": 4131,
      "##Chang": 4132,
      "##menu item": 4133,
      "##ubic ": 4134,
      "##error occur": 4135,
      "##make the ": 4136,
      "##Trans": 4137,
      "##tab ": 4138,
      "## takes ": 4139,
      "##picture ": 4140,
      "http: / /": 4141,
      "##ry ": 4142,
      "##doc": 4143,
      "##uk": 4144,
      "##in which ": 4145,
      "##an existing ": 4146,
      "##usage ": 4147,
      "##interest": 4148,
      "##displays the ": 4149,
      "##programm": 4150,
      "All ": 4151,
      "##Comp": 4152,
      "##popup ": 4153,
      "##structure ": 4154,
      "##merge ": 4155,
      "##Type ": 4156,
      "##correspond": 4157,
      "##Web ": 4158,
      "##. There are ": 4159,
      "##PGP ": 4160,
      "##umbnail": 4161,
      "##before the ": 4162,
      "##Video ": 4163,
      "Pre": 4164,
      "Writ": 4165,
      "##certific": 4166,
      "##close": 4167,
      "##lay ": 4168,
      "##Spec": 4169,
      "##IT": 4170,
      "##IR": 4171,
      "## tw": 4172,
      "##ink": 4173,
      "##ink ": 4174,
      "##is no ": 4175,
      "##ed or ": 4176,
      "## we ": 4177,
      "##you might ": 4178,
      "##qual": 4179,
      "##collection ": 4180,
      "##overwrite ": 4181,
      "##ppp ": 4182,
      "##become ": 4183,
      "##equal": 4184,
      "## text.": 4185,
      "##. In this ": 4186,
      "## connect": 4187,
      "##ASCI": 4188,
      "##reason": 4189,
      "##difficult": 4190,
      "##nick": 4191,
      "##DT": 4192,
      "##Par": 4193,
      "##Next ": 4194,
      "## togeth": 4195,
      "##remain": 4196,
      "##is used ": 4197,
      "##er for ": 4198,
      "##in order to ": 4199,
      "##ibility ": 4200,
      "##read the ": 4201,
      "##Prof": 4202,
      "##Sty": 4203,
      "##Engl": 4204,
      "##icons ": 4205,
      "Use the ": 4206,
      "##Default ": 4207,
      "Delete ": 4208,
      "##Direct": 4209,
      "##details.": 4210,
      "##epomuk ": 4211,
      "##little ": 4212,
      "##radi": 4213,
      "##os ": 4214,
      "##grid ": 4215,
      "##yth": 4216,
      "##i-": 4217,
      "##ias": 4218,
      "##Cl": 4219,
      "##s all ": 4220,
      "## writ": 4221,
      "## word": 4222,
      "##ed. ": 4223,
      "##ution ": 4224,
      "##in the list ": 4225,
      "##lip": 4226,
      "##bol ": 4227,
      "##direction": 4228,
      "##backup ": 4229,
      "##different": 4230,
      "##sub-": 4231,
      "##address": 4232,
      "##statist": 4233,
      "##size of the ": 4234,
      "##drop down ": 4235,
      "##calendar ": 4236,
      "##Network ": 4237,
      "##diff ": 4238,
      "##destination ": 4239,
      "Au": 4240,
      "##md": 4241,
      "##AP": 4242,
      "##Mone": 4243,
      "##GN": 4244,
      "##acros": 4245,
      "##otal ": 4246,
      "##losed ": 4247,
      "##even": 4248,
      "This will ": 4249,
      "##assum": 4250,
      "##news ": 4251,
      "##game.": 4252,
      "##media ": 4253,
      "##Develop": 4254,
      "##index ": 4255,
      "##wait ": 4256,
      "##zero ": 4257,
      "##policy ": 4258,
      "##implem": 4259,
      "Hide ": 4260,
      "##puzz": 4261,
      "##iev": 4262,
      "##Arr": 4263,
      "##MP": 4264,
      "##Tim": 4265,
      "##Create ": 4266,
      "##Go": 4267,
      "##er: ": 4268,
      "##ens": 4269,
      "##is un": 4270,
      "##or by ": 4271,
      "##es to the ": 4272,
      "##et.": 4273,
      "##ations": 4274,
      "##spread": 4275,
      "##ileg": 4276,
      "## when": 4277,
      "##Album": 4278,
      "## times ": 4279,
      "##execute ": 4280,
      "##digik": 4281,
      "##vertical ": 4282,
      "##power ": 4283,
      "##driver": 4284,
      "##did not ": 4285,
      "##o. ": 4286,
      "##ce the ": 4287,
      "##cost ": 4288,
      "##24": 4289,
      "##Br": 4290,
      "##le the ": 4291,
      "##fast ": 4292,
      "##Canc": 4293,
      "##Ge": 4294,
      "##alle": 4295,
      "##is available ": 4296,
      "##degre": 4297,
      "##of each ": 4298,
      "##front ": 4299,
      "##pressing the ": 4300,
      "##. This will ": 4301,
      "##bright": 4302,
      "## them.": 4303,
      "##does n't ": 4304,
      "##mouse": 4305,
      "## with a ": 4306,
      "##easy ": 4307,
      "##digiK": 4308,
      "##newsgroup": 4309,
      "##Java ": 4310,
      "##magn": 4311,
      "##Help ": 4312,
      "Number of ": 4313,
      "##task": 4314,
      "##db": 4315,
      "##Z ": 4316,
      "##Ctrl": 4317,
      "##sect": 4318,
      "## this option to ": 4319,
      "## compon": 4320,
      "##do this ": 4321,
      "##note ": 4322,
      "## time.": 4323,
      "##module": 4324,
      "##whether the ": 4325,
      "##check your ": 4326,
      "##like the ": 4327,
      "##privileg": 4328,
      "Return": 4329,
      "##ric ": 4330,
      "##yg": 4331,
      "##want": 4332,
      "##Text": 4333,
      "##uff": 4334,
      "##ER": 4335,
      "##and/ ": 4336,
      "##within the ": 4337,
      "##ational ": 4338,
      "##manual ": 4339,
      "##difference ": 4340,
      "##konadi": 4341,
      "##management ": 4342,
      "##embedd": 4343,
      "##. Click ": 4344,
      "##flict": 4345,
      "Ap": 4346,
      "Gener": 4347,
      "List ": 4348,
      "Switch": 4349,
      "The": 4350,
      "Tool": 4351,
      "##diction": 4352,
      "##fetch": 4353,
      "##\\t ": 4354,
      "##ince ": 4355,
      "##along": 4356,
      "##is in": 4357,
      "##es. The ": 4358,
      "##will appear ": 4359,
      "##ally the ": 4360,
      "This is ": 4361,
      "##files are ": 4362,
      "##developer": 4363,
      "##Search ": 4364,
      "##end of the ": 4365,
      "##edit the ": 4366,
      "##full": 4367,
      "##article": 4368,
      "##enabled": 4369,
      "##Line ": 4370,
      "##Files": 4371,
      "##krusader": 4372,
      "Opens the ": 4373,
      "Choose the ": 4374,
      "Set here the ": 4375,
      "##environment": 4376,
      "##metad": 4377,
      "##computer ": 4378,
      "##Phot": 4379,
      "##around the ": 4380,
      "##rang": 4381,
      "##ier": 4382,
      "##Mon": 4383,
      "##frequ": 4384,
      "##Hand": 4385,
      "##s like ": 4386,
      "##replace ": 4387,
      "##ed from ": 4388,
      "##an error ": 4389,
      "The following ": 4390,
      "##track": 4391,
      "##files. ": 4392,
      "##drag ": 4393,
      "##operating ": 4394,
      "##clus": 4395,
      "##keyboard": 4396,
      "Inst": 4397,
      "##query ": 4398,
      "##application.": 4399,
      "##match the ": 4400,
      "##generated ": 4401,
      "##requires ": 4402,
      "Do you want to ": 4403,
      "##modific": 4404,
      "##during ": 4405,
      "##category ": 4406,
      "##added to the ": 4407,
      "Maxim": 4408,
      "##suggest": 4409,
      "##23": 4410,
      "##App": 4411,
      "##. t": 4412,
      "##Up": 4413,
      "##ervis": 4414,
      "##imal ": 4415,
      "##via the ": 4416,
      "##izard": 4417,
      "##perman": 4418,
      "##Star": 4419,
      "##Start": 4420,
      "##audi": 4421,
      "##> lt ": 4422,
      "##appears ": 4423,
      "## contact ": 4424,
      "##some": 4425,
      "##Remove ": 4426,
      "##echn": 4427,
      "##snap": 4428,
      "##scroll": 4429,
      "With": 4430,
      "##eb": 4431,
      "##sign ": 4432,
      "##switch ": 4433,
      "##Copy ": 4434,
      "##eri": 4435,
      "##ster ": 4436,
      "##a list of ": 4437,
      "##e these ": 4438,
      "##not to ": 4439,
      "##ify the ": 4440,
      "##versions ": 4441,
      "## check ": 4442,
      "##scen": 4443,
      "##pressed ": 4444,
      "This option ": 4445,
      "##perform ": 4446,
      "## their": 4447,
      "##ified ": 4448,
      "##width": 4449,
      "##packages ": 4450,
      "Program": 4451,
      "##HTML": 4452,
      "##limit ": 4453,
      "##00 0x": 4454,
      "##CUPS": 4455,
      "##your current ": 4456,
      "##Folder ": 4457,
      "##available.": 4458,
      "##focus ": 4459,
      "##sequence ": 4460,
      "##MIME": 4461,
      "Loc": 4462,
      "Load": 4463,
      "Sup": 4464,
      "##pt to ": 4465,
      "##pect ": 4466,
      "##pen the ": 4467,
      "##dpi": 4468,
      "##) the ": 4469,
      "## top ": 4470,
      "##ones ": 4471,
      "##ref": 4472,
      "##a different ": 4473,
      "##ctiv": 4474,
      "##edul": 4475,
      "##in K": 4476,
      "##of all ": 4477,
      "##usy ": 4478,
      "##convert": 4479,
      "## trigg": 4480,
      "##strict": 4481,
      "##displayed in the ": 4482,
      "##setup ": 4483,
      "##clude ": 4484,
      "##you cannot ": 4485,
      "##browse ": 4486,
      "##property ": 4487,
      "##expect": 4488,
      "##. You may ": 4489,
      "##enemy ": 4490,
      "##kdm ": 4491,
      "##receiv": 4492,
      "##info ": 4493,
      "##necessary ": 4494,
      "##/ etc/ ": 4495,
      "(C) 200": 4496,
      "##yMone": 4497,
      "##has the ": 4498,
      "##dent": 4499,
      "##border": 4500,
      "##Sl": 4501,
      "##Ear": 4502,
      "##GP": 4503,
      "##ON": 4504,
      "##5.": 4505,
      "##another": 4506,
      "##rele": 4507,
      "## calcul": 4508,
      "##adv": 4509,
      "##file system ": 4510,
      "##instead": 4511,
      "##Configur": 4512,
      "##aste ": 4513,
      "##\\\\\\\\{": 4514,
      "##generate ": 4515,
      "##installed": 4516,
      "##identity ": 4517,
      "##. Click": 4518,
      "##expected ": 4519,
      "##size": 4520,
      "##amarok": 4521,
      "##personal ": 4522,
      "##quickly ": 4523,
      "##ommander ": 4524,
      "##t-": 4525,
      "##Mi": 4526,
      "## top": 4527,
      "##lem ": 4528,
      "##ing or ": 4529,
      "##you do not ": 4530,
      "##ress": 4531,
      "##file and ": 4532,
      "##pression ": 4533,
      "##moves ": 4534,
      "##added ": 4535,
      "##mary ": 4536,
      "##starts ": 4537,
      "##etting ": 4538,
      "##Start ": 4539,
      "##here. ": 4540,
      "You are ": 4541,
      "##missing ": 4542,
      "##clicking on the ": 4543,
      "##dragg": 4544,
      "## configure the ": 4545,
      "##continue": 4546,
      "##amba ": 4547,
      "##piece ": 4548,
      "Mar": 4549,
      "##o.": 4550,
      "##pd": 4551,
      "##nu": 4552,
      "##TP": 4553,
      "##Show": 4554,
      "##Ev": 4555,
      "##No ": 4556,
      "## test ": 4557,
      "## togg": 4558,
      "##recom": 4559,
      "##abase ": 4560,
      "##utor": 4561,
      "##: %3": 4562,
      "##verb": 4563,
      "##. The default ": 4564,
      "##instanc": 4565,
      "##has no ": 4566,
      "## type": 4567,
      "## contact": 4568,
      "##address book": 4569,
      "##email address ": 4570,
      "##requested ": 4571,
      "Create a new ": 4572,
      "##Address ": 4573,
      "##Auth": 4574,
      "##immediately ": 4575,
      "Automatically ": 4576,
      "##cept ": 4577,
      "##s' ": 4578,
      "##(%2": 4579,
      "##led.": 4580,
      "##er or ": 4581,
      "##about": 4582,
      "##....": 4583,
      "##by selecting ": 4584,
      "##value.": 4585,
      "##only be ": 4586,
      "##irt": 4587,
      "## types ": 4588,
      "##running": 4589,
      "##however ": 4590,
      "##modem": 4591,
      "##because the ": 4592,
      "##version of ": 4593,
      "##flag": 4594,
      "##encrypted ": 4595,
      "##correctly ": 4596,
      "##argument": 4597,
      "Display the ": 4598,
      "##picture": 4599,
      "##copi": 4600,
      "##e they ": 4601,
      "##Tab ": 4602,
      "##Menu": 4603,
      "Wheth": 4604,
      "##ladder": 4605,
      "##random ": 4606,
      "##symbol ": 4607,
      "##vocabulary ": 4608,
      "Option to ": 4609,
      "##recommen": 4610,
      "##rc": 4611,
      "##ey": 4612,
      "##Mou": 4613,
      "##Up ": 4614,
      "##Sess": 4615,
      "##Icon": 4616,
      "##Item": 4617,
      "##LD": 4618,
      "##VP": 4619,
      "##s in": 4620,
      "##. kde. org": 4621,
      "##uri": 4622,
      "##an empty ": 4623,
      "##share ": 4624,
      "##lines": 4625,
      "Enable": 4626,
      "Sets the ": 4627,
      "##learn ": 4628,
      "##Manager": 4629,
      "##modified ": 4630,
      "##kdm": 4631,
      "##period": 4632,
      "##by clicking on the ": 4633,
      "##purpo": 4634,
      "Rec": 4635,
      "##mult": 4636,
      "##-- ": 4637,
      "##ez": 4638,
      "##F-": 4639,
      "##(1": 4640,
      "##Game": 4641,
      "##Over": 4642,
      "##exact": 4643,
      "##ed to": 4644,
      "##ace": 4645,
      "##shell ": 4646,
      "##may": 4647,
      "##any of the ": 4648,
      "##request ": 4649,
      "Use this ": 4650,
      "Ctrl Shift ": 4651,
      "##rule ": 4652,
      "##character": 4653,
      "##speed": 4654,
      "##layout": 4655,
      "##internal ": 4656,
      "##-to-": 4657,
      "##song": 4658,
      "##CR": 4659,
      "##restor": 4660,
      "##is currently ": 4661,
      "##exit": 4662,
      "##in an ": 4663,
      "##lient ": 4664,
      "##apps/ ": 4665,
      "##Conne": 4666,
      "##but not ": 4667,
      "## collection ": 4668,
      "##Environ": 4669,
      "##box is ": 4670,
      "##bottom": 4671,
      "##details ": 4672,
      "##etc.": 4673,
      "##renam": 4674,
      "##hold": 4675,
      "##gt lt ": 4676,
      "##squar": 4677,
      "## click the ": 4678,
      "##urtle ": 4679,
      "##public ": 4680,
      "The'": 4681,
      "War": 4682,
      "##pages": 4683,
      "##target ": 4684,
      "##ld ": 4685,
      "##out to ": 4686,
      "##alph": 4687,
      "##oft ": 4688,
      "##dir": 4689,
      "##shell": 4690,
      "##integ": 4691,
      "##fail": 4692,
      "##drive ": 4693,
      "##fill": 4694,
      "##due ": 4695,
      "##sets the ": 4696,
      "##kde-": 4697,
      "##editing ": 4698,
      "##belong": 4699,
      "##author": 4700,
      "##handhel": 4701,
      "##data.": 4702,
      "##as well": 4703,
      "##library ": 4704,
      "##General ": 4705,
      "##engine ": 4706,
      "##ursor ": 4707,
      "##domain": 4708,
      "##repository ": 4709,
      "##. However ": 4710,
      "Gr": 4711,
      "Mess": 4712,
      "##ner": 4713,
      "##bo ": 4714,
      "##last": 4715,
      "##Dif": 4716,
      "##\" to ": 4717,
      "##invalid ": 4718,
      "##ate.": 4719,
      "##chart ": 4720,
      "##ab ": 4721,
      "##up.": 4722,
      "##oss": 4723,
      "##ase the ": 4724,
      "##one or more ": 4725,
      "##parent ": 4726,
      "##message.": 4727,
      "##at the same ": 4728,
      "##. If you are ": 4729,
      "##content": 4730,
      "Check ": 4731,
      "##programs ": 4732,
      "##here to ": 4733,
      "##bookmark ": 4734,
      "##empty": 4735,
      "If checked ": 4736,
      "##fields ": 4737,
      "##extension ": 4738,
      "##question ": 4739,
      "##Audio ": 4740,
      "##Word ": 4741,
      "##Java": 4742,
      "##paper ": 4743,
      "##authentication ": 4744,
      "Documentation": 4745,
      "##Format ": 4746,
      "##release": 4747,
      " kde ": 4748,
      "##rup": 4749,
      "##hang": 4750,
      "##dc": 4751,
      "##s).": 4752,
      "##saf": 4753,
      "##boot ": 4754,
      "##Mic": 4755,
      "##Find ": 4756,
      "##PC": 4757,
      "##in.": 4758,
      "##at's ": 4759,
      "##atively ": 4760,
      "##oolean ": 4761,
      "##neg": 4762,
      "## config": 4763,
      "##sert": 4764,
      "## channel": 4765,
      "##on the right ": 4766,
      "##iles ": 4767,
      "##list of": 4768,
      "##auto-": 4769,
      "##patch": 4770,
      "If you have ": 4771,
      "##phone ": 4772,
      "##so the ": 4773,
      "Could not open ": 4774,
      "##problem ": 4775,
      "Print": 4776,
      "##graphics ": 4777,
      "##install. ": 4778,
      "##_BAR_ ": 4779,
      "##Local ": 4780,
      "##itude ": 4781,
      "##AM": 4782,
      "##ing that ": 4783,
      "##ing (": 4784,
      "##escap": 4785,
      "##plot ": 4786,
      "##ets ": 4787,
      "##resiz": 4788,
      "## true ": 4789,
      "##acces": 4790,
      "##energ": 4791,
      "##does not exist": 4792,
      "##deleted ": 4793,
      "##vision ": 4794,
      "##offers ": 4795,
      "##konqueror": 4796,
      "##easy to ": 4797,
      "## can be used to ": 4798,
      "##allowing ": 4799,
      "##parameter ": 4800,
      "##several": 4801,
      "##longer ": 4802,
      "##you would like to ": 4803,
      "##Org": 4804,
      "##K3b": 4805,
      "##automatically": 4806,
      "##and/ or ": 4807,
      "Close ": 4808,
      "##a-": 4809,
      "##tree ": 4810,
      "##ber": 4811,
      "##Date ": 4812,
      "##Car": 4813,
      "##50": 4814,
      "##/ k": 4815,
      "##it and ": 4816,
      "##spell": 4817,
      "##displayed": 4818,
      "If you are ": 4819,
      "##menu item ": 4820,
      "##modem ": 4821,
      "##becom": 4822,
      "##. Some ": 4823,
      "##attempt": 4824,
      "##characters ": 4825,
      "##Script": 4826,
      "##seconds ": 4827,
      "##successful": 4828,
      "##sensit": 4829,
      "##contents of the ": 4830,
      "##elescope ": 4831,
      "##chapter ": 4832,
      "##oic": 4833,
      "##tun": 4834,
      "##ness ": 4835,
      "##Reg": 4836,
      "##fall ": 4837,
      "##kg": 4838,
      "##vect": 4839,
      "##LE": 4840,
      "##PAT": 4841,
      "##Options ": 4842,
      "##enough ": 4843,
      "##ating the ": 4844,
      "##is shown ": 4845,
      "##you the ": 4846,
      "##a n't ": 4847,
      "##ed into ": 4848,
      "##dig ": 4849,
      "##it is not ": 4850,
      "##quick ": 4851,
      "##useful": 4852,
      "##dialog will ": 4853,
      "This is a ": 4854,
      "##add the ": 4855,
      "##class": 4856,
      "##which are ": 4857,
      "Search ": 4858,
      "##runn": 4859,
      "##works ": 4860,
      "##Enable ": 4861,
      "##better ": 4862,
      "##handle ": 4863,
      "##somet": 4864,
      "Opens a ": 4865,
      "##keyboard shortcut": 4866,
      "##DVD ": 4867,
      "##Document ": 4868,
      "##letter ": 4869,
      "##system tray ": 4870,
      "##suitable ": 4871,
      "##ervisia ": 4872,
      " install. ": 4873,
      "##rase": 4874,
      "##Amar": 4875,
      "##sending ": 4876,
      "##Main ": 4877,
      "##By ": 4878,
      "##Sol": 4879,
      "##IF": 4880,
      "##/ t": 4881,
      "##er's ": 4882,
      "##. de": 4883,
      "##stenc": 4884,
      "##it to the ": 4885,
      "##diagram": 4886,
      "##fore": 4887,
      "##for that ": 4888,
      "##occurr": 4889,
      "The default ": 4890,
      "##if your ": 4891,
      "##only one ": 4892,
      "##startup ": 4893,
      "##does not support ": 4894,
      "##hidden": 4895,
      "##record": 4896,
      "##finished ": 4897,
      "##Do you want to ": 4898,
      "Syn": 4899,
      "##Properties ": 4900,
      "##SQL ": 4901,
      "##syntax ": 4902,
      "Di": 4903,
      "##year ": 4904,
      "##Butt": 4905,
      "##koffice ": 4906,
      "##Set ": 4907,
      "##High": 4908,
      "##inue ": 4909,
      "##recomm": 4910,
      "##ing them ": 4911,
      "##its": 4912,
      "##e this": 4913,
      "##image.": 4914,
      "##all of the ": 4915,
      "##used in ": 4916,
      "##used in the ": 4917,
      "##any other ": 4918,
      "##Alarm ": 4919,
      "##compat": 4920,
      "##not the ": 4921,
      "##printers ": 4922,
      "##konsole ": 4923,
      "##Command ": 4924,
      "##failed ": 4925,
      "When you ": 4926,
      "##struct ": 4927,
      "##ographic ": 4928,
      "##until the ": 4929,
      "##continue ": 4930,
      "##gnore ": 4931,
      "##/ share/ apps/ ": 4932,
      "##$KDEDI": 4933,
      "##loaded": 4934,
      "##Options": 4935,
      "Allows ": 4936,
      ". ": 4937,
      "##sam": 4938,
      "##To ": 4939,
      "##ld": 4940,
      "##DN": 4941,
      "##Sec": 4942,
      "##If": 4943,
      "##IC": 4944,
      "##Norm": 4945,
      "##=quot ": 4946,
      "##offer": 4947,
      "##oll ": 4948,
      "##ply": 4949,
      "##e there ": 4950,
      "##fri": 4951,
      "##ival": 4952,
      "##spect": 4953,
      "## that you ": 4954,
      "##use of ": 4955,
      "##use.": 4956,
      "##. You will ": 4957,
      "##backend": 4958,
      "##written": 4959,
      "##how the ": 4960,
      "Unknown ": 4961,
      "##was not ": 4962,
      "##date and": 4963,
      "##add a ": 4964,
      "##. So ": 4965,
      "##empty.": 4966,
      "##spaces ": 4967,
      "##-2009 ": 4968,
      "## command line ": 4969,
      "Show the ": 4970,
      "##regular expression": 4971,
      "##. Check": 4972,
      "##split ": 4973,
      "##Log ": 4974,
      "##your computer ": 4975,
      "## term": 4976,
      "Down": 4977,
      "Open the ": 4978,
      "##count": 4979,
      "##custom ": 4980,
      "##Akonadi": 4981,
      "##ech ": 4982,
      "##bound": 4983,
      "##border ": 4984,
      "##To": 4985,
      "##Sim": 4986,
      "##Calendar ": 4987,
      "##OK ": 4988,
      "##. g": 4989,
      "##stop ": 4990,
      "##ity.": 4991,
      "##ion of ": 4992,
      "##emul": 4993,
      "##exi ": 4994,
      "##pract": 4995,
      "##will automatically ": 4996,
      "##coming ": 4997,
      "##you can select ": 4998,
      "##logg": 4999,
      "##get a ": 5000,
      "##asked ": 5001,
      "##containing ": 5002,
      "##pointer ": 5003,
      "##rough": 5004,
      "##which the ": 5005,
      "##if you do not ": 5006,
      "##month ": 5007,
      "##functionality ": 5008,
      "##Data": 5009,
      "##main window ": 5010,
      "##right-": 5011,
      "##downloaded ": 5012,
      "##i. e. ": 5013,
      "## to-do": 5014,
      "##DPI ": 5015,
      "##CVS ": 5016,
      "##tag": 5017,
      "##eav": 5018,
      "##s-": 5019,
      "##burn": 5020,
      "##Ru": 5021,
      "##kppp ": 5022,
      "##=\\\\\\\\{": 5023,
      "##anal": 5024,
      "##choice ": 5025,
      "##and select ": 5026,
      "## to the next ": 5027,
      "##prefix": 5028,
      "##manage ": 5029,
      "##operations ": 5030,
      "##set a ": 5031,
      "##ed by a ": 5032,
      "##a certain ": 5033,
      "##display of the ": 5034,
      "##Read": 5035,
      "##format.": 5036,
      "##address book ": 5037,
      "##entries": 5038,
      "##normal": 5039,
      "##DVD": 5040,
      "##oordinate ": 5041,
      "## configuration": 5042,
      "Click to ": 5043,
      "##record ": 5044,
      "##Bookmark": 5045,
      "## there is no ": 5046,
      "##sky map": 5047,
      "##machine ": 5048,
      "##choosing ": 5049,
      "##future ": 5050,
      "##floppy ": 5051,
      "##Server": 5052,
      "Wind": 5053,
      "##copy": 5054,
      "##-M": 5055,
      "##e...": 5056,
      "##sum ": 5057,
      "##FTP ": 5058,
      "##): ": 5059,
      "##60 ": 5060,
      "## task ": 5061,
      "##s for the ": 5062,
      "##itle ": 5063,
      "##forward ": 5064,
      "##unknown ": 5065,
      "This command ": 5066,
      "##systems ": 5067,
      "##ug ": 5068,
      "##option is ": 5069,
      "##math": 5070,
      "##. Watt": 5071,
      "##model ": 5072,
      "##Uni": 5073,
      "##anything ": 5074,
      "##rather": 5075,
      "##Lauri": 5076,
      "##orrent ": 5077,
      "##extra ": 5078,
      "##--------": 5079,
      "## web ": 5080,
      "##upload": 5081,
      "Documentation copyright 200": 5082,
      "##Lauri. Watt": 5083,
      "##ise": 5084,
      "##8.": 5085,
      "##Mem": 5086,
      "##Tag": 5087,
      "##RMB": 5088,
      "##Free": 5089,
      "##val ": 5090,
      "##IF ": 5091,
      "##Not ": 5092,
      "##OR": 5093,
      "##7.": 5094,
      "##them": 5095,
      "##ility": 5096,
      "##espec": 5097,
      "##ation and ": 5098,
      "##%1 to ": 5099,
      "##up and ": 5100,
      "##s. For ": 5101,
      "##You ": 5102,
      "##you can also ": 5103,
      "##dropp": 5104,
      "##bring ": 5105,
      "##eak": 5106,
      "##subscri": 5107,
      "##checked the ": 5108,
      "##opening ": 5109,
      "##aster": 5110,
      "##matches ": 5111,
      "##find a ": 5112,
      "##. Otherwise ": 5113,
      "##plugin for ": 5114,
      "##you want the ": 5115,
      "##Box": 5116,
      "##hide the ": 5117,
      "##Configuration": 5118,
      "Net": 5119,
      "##me ": 5120,
      "##yr": 5121,
      "##hide ": 5122,
      "##s to": 5123,
      "##lish": 5124,
      "##()": 5125,
      "##vs ": 5126,
      "##~/": 5127,
      "##s of": 5128,
      "##ertain": 5129,
      "##release ": 5130,
      "##reduc": 5131,
      "##les the ": 5132,
      "##ics": 5133,
      "##es/ ": 5134,
      "##ship ": 5135,
      "##vious ": 5136,
      "##by a ": 5137,
      "##ould": 5138,
      "##scan": 5139,
      "##fault": 5140,
      "##values": 5141,
      "##filled ": 5142,
      "##height ": 5143,
      "##background": 5144,
      "##. As ": 5145,
      "##regist": 5146,
      "##packag": 5147,
      "##browsing ": 5148,
      "##HTTP ": 5149,
      "##might be ": 5150,
      "##you're ": 5151,
      "##wait": 5152,
      "##HOME ": 5153,
      "##e) ": 5154,
      "##km": 5155,
      "##Em": 5156,
      "##EN": 5157,
      "## tell": 5158,
      "##s will ": 5159,
      "##annot": 5160,
      "##align": 5161,
      "##lean": 5162,
      "##is a": 5163,
      "##ed (": 5164,
      "##older ": 5165,
      "##shap": 5166,
      "##ift": 5167,
      "##verse ": 5168,
      "##it in the ": 5169,
      "##and then": 5170,
      "##quite ": 5171,
      "##to a ": 5172,
      "##ograph ": 5173,
      "##Insert ": 5174,
      "##displayed.": 5175,
      "##differences ": 5176,
      "## time you ": 5177,
      "##regard": 5178,
      "##color of the ": 5179,
      "##features": 5180,
      "##off.": 5181,
      "##create a new ": 5182,
      "##executable ": 5183,
      "##Command": 5184,
      "##access to the ": 5185,
      "##handl": 5186,
      "##Graph": 5187,
      "##standard kde ": 5188,
      "##whether to ": 5189,
      "##decimal ": 5190,
      "This": 5191,
      "##. See ": 5192,
      "##modify the ": 5193,
      "##initial ": 5194,
      "Shows ": 5195,
      "##above the ": 5196,
      "##music ": 5197,
      "##quantaplus ": 5198,
      "##dpi ": 5199,
      "##s?": 5200,
      "##Bu": 5201,
      "##Bus ": 5202,
      "##DI ": 5203,
      "##kr": 5204,
      "##Fin": 5205,
      "## tree ": 5206,
      "## things ": 5207,
      "##ard to ": 5208,
      "##alax": 5209,
      "## code ": 5210,
      "##itself ": 5211,
      "##olog": 5212,
      "##up to ": 5213,
      "##played ": 5214,
      "##ket ": 5215,
      "##exampl": 5216,
      "##written ": 5217,
      "##return ": 5218,
      "##ontact ": 5219,
      "##supported": 5220,
      "##loading ": 5221,
      "##ultiple ": 5222,
      "##manager": 5223,
      "##search for ": 5224,
      "Pro": 5225,
      "Print ": 5226,
      "##specify a ": 5227,
      "##highlighted ": 5228,
      "##determine ": 5229,
      "Copy ": 5230,
      "Current ": 5231,
      "For": 5232,
      "##ah": 5233,
      "##hold ": 5234,
      "##1: ": 5235,
      "##Langu": 5236,
      "##chart": 5237,
      "##es for ": 5238,
      "##ellic": 5239,
      "##) 199": 5240,
      "##you can use the ": 5241,
      "##for the current ": 5242,
      "##observ": 5243,
      "##button will ": 5244,
      "## collection": 5245,
      "##user-": 5246,
      "##are:": 5247,
      "##off the ": 5248,
      "##black": 5249,
      "##support for ": 5250,
      "##brevi": 5251,
      "##discus": 5252,
      "##answer ": 5253,
      "##TeX ": 5254,
      "##Menu ": 5255,
      "##unique ": 5256,
      "##e. You can ": 5257,
      "##zoom ": 5258,
      "##error occurred ": 5259,
      "##friend": 5260,
      "##DA": 5261,
      "##Sm": 5262,
      "##(e. g. ": 5263,
      "##Equ": 5264,
      "##). The ": 5265,
      "##x-": 5266,
      "##Copyright ": 5267,
      "## turn ": 5268,
      "##ativ": 5269,
      "##atalog": 5270,
      "##dial": 5271,
      "##ability ": 5272,
      "##imary ": 5273,
      "##unk": 5274,
      "##conta": 5275,
      "##/ usr/ ": 5276,
      "##mod": 5277,
      "##and to ": 5278,
      "##selecting the ": 5279,
      "##players ": 5280,
      "##dialog where ": 5281,
      "##reading ": 5282,
      "##kde.": 5283,
      "##left of the ": 5284,
      "##simul": 5285,
      "Configur": 5286,
      "##. De": 5287,
      "##standard": 5288,
      "##during the ": 5289,
      "Specifi": 5290,
      "##at least one ": 5291,
      "##private ": 5292,
      "##wallet ": 5293,
      "##machin": 5294,
      "##powerful ": 5295,
      "##difficulty ": 5296,
      "Whether to ": 5297,
      "Each ": 5298,
      "##clear": 5299,
      "##tal": 5300,
      "##Book ": 5301,
      "##kind ": 5302,
      "##FO": 5303,
      "##(eg ": 5304,
      "##\") ": 5305,
      "##PG ": 5306,
      "##Krusad": 5307,
      "##Horizont": 5308,
      "##in which": 5309,
      "##onto the ": 5310,
      "##ouch": 5311,
      "##exact ": 5312,
      "##e then ": 5313,
      "##apply ": 5314,
      "##aspect ": 5315,
      "##unless ": 5316,
      "##as an ": 5317,
      "##/ dev": 5318,
      "##like": 5319,
      "##files to ": 5320,
      "##produc": 5321,
      "##has been": 5322,
      "##at the bottom of the ": 5323,
      "##. If you": 5324,
      "## types of ": 5325,
      "##set up ": 5326,
      "##oding ": 5327,
      "##specified": 5328,
      "##visib": 5329,
      "##rough ": 5330,
      "##flu": 5331,
      "##Track": 5332,
      "##KMail": 5333,
      "##Group ": 5334,
      "##driver ": 5335,
      "##solute ": 5336,
      "##continue?": 5337,
      "As": 5338,
      "##14": 5339,
      "##13": 5340,
      "##DB ": 5341,
      "##Sun ": 5342,
      "##Pa": 5343,
      "##Pol": 5344,
      "##Navig": 5345,
      "##Ger": 5346,
      "##Gnu": 5347,
      "##Wal": 5348,
      "##onal ": 5349,
      "##ori": 5350,
      "##album ": 5351,
      "## correct": 5352,
      "##in one ": 5353,
      "##whose ": 5354,
      "##in the same ": 5355,
      "##interpre": 5356,
      "##view the ": 5357,
      "##options.": 5358,
      "##value is ": 5359,
      "##passwor": 5360,
      "##Collection ": 5361,
      "## which is ": 5362,
      "Select a ": 5363,
      "##distance ": 5364,
      "##allowed to ": 5365,
      "##ikip": 5366,
      "##distribution": 5367,
      "##- - - - - - - - ": 5368,
      "##K3b ": 5369,
      "Det": 5370,
      "Mo": 5371,
      "##template ": 5372,
      "##well ": 5373,
      "##kopete ": 5374,
      "##Font ": 5375,
      "##'%2": 5376,
      "##Click": 5377,
      "##ories": 5378,
      "##restrict": 5379,
      "##. All ": 5380,
      "##es) ": 5381,
      "##decl": 5382,
      "##ely.": 5383,
      "##asc": 5384,
      "##on an ": 5385,
      "##andard ": 5386,
      "##indentation ": 5387,
      "##selected the ": 5388,
      "##dates ": 5389,
      "##others ": 5390,
      "##perature ": 5391,
      "##\" or ": 5392,
      "## typing ": 5393,
      "##clas": 5394,
      "##Inst": 5395,
      "##latex ": 5396,
      "##overr": 5397,
      "##you can configure ": 5398,
      "##open a ": 5399,
      "##pane ": 5400,
      "##directory.": 5401,
      "##underst": 5402,
      "##cursor": 5403,
      "##Quit": 5404,
      "##device": 5405,
      "##on your system": 5406,
      "##sync": 5407,
      "One ": 5408,
      "##type of ": 5409,
      "##agram ": 5410,
      "##provides a ": 5411,
      "##background color": 5412,
      "##Layou": 5413,
      "##related ": 5414,
      "## title": 5415,
      "##upload ": 5416,
      "##clipboard.": 5417,
      "##Office ": 5418,
      "Are you sure you want to ": 5419,
      "##a color ": 5420,
      "##circ": 5421,
      "##dynam": 5422,
      "##bal": 5423,
      "##ball ": 5424,
      "##Oper": 5425,
      "##inside the ": 5426,
      "##ende": 5427,
      "##leave ": 5428,
      "##else ": 5429,
      "##unread ": 5430,
      "##ation is ": 5431,
      "##trying to ": 5432,
      "##if it is ": 5433,
      "##kde 's ": 5434,
      "##lement ": 5435,
      "##opens the ": 5436,
      "##load the ": 5437,
      "##offic": 5438,
      "##placed ": 5439,
      "##enabled the ": 5440,
      "##find out ": 5441,
      "##. That ": 5442,
      "##ator.": 5443,
      "##action.": 5444,
      "##useful for ": 5445,
      "##possible": 5446,
      "##Type": 5447,
      "##domain ": 5448,
      "Creates ": 5449,
      "##horizontal ": 5450,
      "##daemon ": 5451,
      "##properly ": 5452,
      "##yMoney ": 5453,
      "##Organiz": 5454,
      "/ ": 5455,
      "How": 5456,
      "##rows ": 5457,
      "##rc ": 5458,
      "##ak ": 5459,
      "##mon ": 5460,
      "##cover": 5461,
      "##spr": 5462,
      "##slow": 5463,
      "##Down ": 5464,
      "##korganiz": 5465,
      "##(in ": 5466,
      "##LP": 5467,
      "##LMB": 5468,
      "##ane": 5469,
      "## course ": 5470,
      "##about to ": 5471,
      "##ewor": 5472,
      "##const": 5473,
      "##data s": 5474,
      "##prefix ": 5475,
      "##do the ": 5476,
      "##changes": 5477,
      "##key.": 5478,
      "##duplic": 5479,
      "##Advanced ": 5480,
      "##groups ": 5481,
      "##contains the ": 5482,
      "Export ": 5483,
      "##based on the ": 5484,
      "##ISO": 5485,
      "Error while ": 5486,
      "##developers ": 5487,
      "Displays the ": 5488,
      "##you'll ": 5489,
      "##already exists. ": 5490,
      "##umbnail ": 5491,
      "##queu": 5492,
      "##prevent ": 5493,
      "##espace ": 5494,
      "##stream": 5495,
      "Maximum ": 5496,
      "High": 5497,
      "##ias ": 5498,
      "##17": 5499,
      "##.. ": 5500,
      "##block ": 5501,
      "##Templ": 5502,
      "##FA": 5503,
      "##ating": 5504,
      "## case ": 5505,
      "##sections ": 5506,
      "##es)": 5507,
      "##emat": 5508,
      "## way": 5509,
      "##experi": 5510,
      "##ump ": 5511,
      "##conf": 5512,
      "##e the current ": 5513,
      "##%1: %2": 5514,
      "##upper ": 5515,
      "##file (": 5516,
      "##menu and ": 5517,
      "##ourn": 5518,
      "##create the ": 5519,
      "##\" \"": 5520,
      "##files (": 5521,
      "##out of ": 5522,
      "##super": 5523,
      "##name. ": 5524,
      "##options": 5525,
      "If you want to ": 5526,
      "##phys": 5527,
      "You must ": 5528,
      "##field is ": 5529,
      "##draw ": 5530,
      "##ategory ": 5531,
      "##. Select": 5532,
      "##provided ": 5533,
      "##fonts ": 5534,
      "##. Each ": 5535,
      "##described ": 5536,
      "##ather ": 5537,
      "##similar ": 5538,
      "Whether ": 5539,
      "##e that this ": 5540,
      "##percentage ": 5541,
      "##ierarch": 5542,
      "##rom": 5543,
      "##100 ": 5544,
      "##Mac": 5545,
      "##Run": 5546,
      "##ST": 5547,
      "##KS": 5548,
      "##alett": 5549,
      "##almost ": 5550,
      "##. Un": 5551,
      "## certificate ": 5552,
      "## would ": 5553,
      "##edge ": 5554,
      "##avor": 5555,
      "##etch ": 5556,
      "##ush": 5557,
      "##: \"": 5558,
      "##as it ": 5559,
      "##on or ": 5560,
      "##licen": 5561,
      "##moving ": 5562,
      "##do I ": 5563,
      "##Prot": 5564,
      "##subm": 5565,
      "##saving ": 5566,
      "##konsole": 5567,
      "##servers ": 5568,
      "##. com ": 5569,
      "##inserted ": 5570,
      "##Status ": 5571,
      "##PDF ": 5572,
      "##QString": 5573,
      "##famil": 5574,
      "Tools ": 5575,
      "First ": 5576,
      "Pl": 5577,
      "##mom": 5578,
      "##cup": 5579,
      "##ben": 5580,
      "##3b ": 5581,
      "##ker": 5582,
      "##Source ": 5583,
      "##XS": 5584,
      "## tre": 5585,
      "##ery ": 5586,
      "##and is ": 5587,
      "##destro": 5588,
      "##forg": 5589,
      "##utility ": 5590,
      "##e the selected ": 5591,
      "##suff": 5592,
      "## true": 5593,
      "##name for the ": 5594,
      "##with the same ": 5595,
      "##your ch": 5596,
      "##Selection ": 5597,
      "##. An": 5598,
      "##latex": 5599,
      "##mouse cursor ": 5600,
      "##make it ": 5601,
      "##ternatively ": 5602,
      "Allow ": 5603,
      "##blue ": 5604,
      "##client ": 5605,
      "##screen sav": 5606,
      "##CD-": 5607,
      "Once ": 5608,
      "##relation": 5609,
      "##Linux": 5610,
      "##period ": 5611,
      "##preferred ": 5612,
      "##e their ": 5613,
      "##Photo": 5614,
      "##00 0x00 0x": 5615,
      "Message ": 5616,
      "##sometimes ": 5617,
      "Edit": 5618,
      "##a comm": 5619,
      "##tool ": 5620,
      "##Met": 5621,
      "##PN": 5622,
      "##Get ": 5623,
      "##though ": 5624,
      "##ital": 5625,
      "##of its ": 5626,
      "##consist": 5627,
      "##within ": 5628,
      "##by default": 5629,
      "##if you": 5630,
      "##rectang": 5631,
      "##name or ": 5632,
      "##so you can ": 5633,
      "##fine ": 5634,
      "##note that ": 5635,
      "##kdeprint ": 5636,
      "##writing ": 5637,
      "##highlight ": 5638,
      "##access the ": 5639,
      "##medium ": 5640,
      "##situ": 5641,
      "##. Here ": 5642,
      "##expression ": 5643,
      "##installation ": 5644,
      "##. See the ": 5645,
      "##Message": 5646,
      "## word ": 5647,
      "##Status": 5648,
      "##random": 5649,
      "##explain": 5650,
      "##PEG ": 5651,
      "##zoom": 5652,
      "##energy ": 5653,
      "Dev": 5654,
      "Next ": 5655,
      "Using ": 5656,
      "##camera ": 5657,
      "##ios": 5658,
      "##1:": 5659,
      "##2-": 5660,
      "##sv": 5661,
      "##kile ": 5662,
      "##Click ": 5663,
      "##Vert": 5664,
      "## tell ": 5665,
      "##s it ": 5666,
      "##ename ": 5667,
      "##ed with a ": 5668,
      "##itions ": 5669,
      "##amp": 5670,
      "##delay ": 5671,
      "##es or ": 5672,
      "##nother ": 5673,
      "##port to ": 5674,
      "## to the right ": 5675,
      "##if you want ": 5676,
      "##e. A": 5677,
      "##interest ": 5678,
      "##yourself ": 5679,
      "##ification ": 5680,
      "##dialog box ": 5681,
      "##make sure ": 5682,
      "Ctrl Q ": 5683,
      "You can also ": 5684,
      "##blank ": 5685,
      "##languages ": 5686,
      "##links ": 5687,
      "##parameter": 5688,
      "##rosoft ": 5689,
      "Settings Show ": 5690,
      "##configuration": 5691,
      "##edia": 5692,
      "##questions ": 5693,
      "##ladder ": 5694,
      "##Panel ": 5695,
      "## therefore ": 5696,
      "##debugg": 5697,
      "##especially ": 5698,
      "Network ": 5699,
      "Man": 5700,
      "##call ": 5701,
      "##c) 199": 5702,
      "##pare ": 5703,
      "##MA": 5704,
      "##jump": 5705,
      "##fing": 5706,
      "##kalarm ": 5707,
      "##ory.": 5708,
      "##ing t": 5709,
      "##decor": 5710,
      "##abort": 5711,
      "##connect ": 5712,
      "##mooth": 5713,
      "##selected.": 5714,
      "## choo": 5715,
      "##with an ": 5716,
      "##if a ": 5717,
      "##manual": 5718,
      "##ables ": 5719,
      "##adding ": 5720,
      "##communic": 5721,
      "##how many ": 5722,
      "##select an ": 5723,
      "Enable this ": 5724,
      "##away ": 5725,
      "##Check": 5726,
      "##appearance ": 5727,
      "##schedul": 5728,
      "## contains the ": 5729,
      "##expression": 5730,
      "##needs ": 5731,
      "##attributes ": 5732,
      "##of course ": 5733,
      "## click on ": 5734,
      "##days ": 5735,
      "Import": 5736,
      "##problems ": 5737,
      "##development ": 5738,
      "##arguments ": 5739,
      "##focus": 5740,
      "##Printer ": 5741,
      "##Mah": 5742,
      "## templates ": 5743,
      "##hardware ": 5744,
      "##monitor": 5745,
      "## together ": 5746,
      "##digiKam": 5747,
      "##allowing you to ": 5748,
      "##suffic": 5749,
      "##-o ": 5750,
      "##To-": 5751,
      "##lt": 5752,
      "##ud": 5753,
      "##four": 5754,
      "##SM": 5755,
      "##Send ": 5756,
      "##Size ": 5757,
      "##Job": 5758,
      "##Pub": 5759,
      "##Nam": 5760,
      "##Gre": 5761,
      "##KT": 5762,
      "##in that ": 5763,
      "##arrow": 5764,
      "##thes": 5765,
      "##ilot ": 5766,
      "##ing on the ": 5767,
      "##ope": 5768,
      "##try": 5769,
      "##scann": 5770,
      "## transpar": 5771,
      "##- \\\\": 5772,
      "##preserv": 5773,
      "## when the ": 5774,
      "##direction ": 5775,
      "## type.": 5776,
      "##boxes ": 5777,
      "##left and ": 5778,
      "##higher ": 5779,
      "##es to be ": 5780,
      "##points ": 5781,
      "##stored in ": 5782,
      "## content ": 5783,
      "##activate ": 5784,
      "Exp": 5785,
      "##Descri": 5786,
      "## character ": 5787,
      "##\"%1\".": 5788,
      "##encoding": 5789,
      "##Format": 5790,
      "##scale ": 5791,
      "##/ cup": 5792,
      "##lot of ": 5793,
      "##Point": 5794,
      "##measure": 5795,
      "##formula ": 5796,
      "##mailing list": 5797,
      "Send ": 5798,
      "##mac": 5799,
      "##ying the ": 5800,
      "##hint": 5801,
      "##hint ": 5802,
      "##hierarch": 5803,
      "##Mail ": 5804,
      "##Tool ": 5805,
      "##lo ": 5806,
      "##Red": 5807,
      "##She": 5808,
      "##(A": 5809,
      "##%{": 5810,
      "##'command ": 5811,
      "##C+": 5812,
      "##lead": 5813,
      "## custom": 5814,
      "##sed to ": 5815,
      "##oldr": 5816,
      "##aver": 5817,
      "##eter ": 5818,
      "##: %2 ": 5819,
      "##whe": 5820,
      "##most": 5821,
      "##sph": 5822,
      "##file typ": 5823,
      "##by using the ": 5824,
      "##scan ": 5825,
      "##graph ": 5826,
      "##list of the ": 5827,
      "##Program": 5828,
      "##KDEPrint ": 5829,
      "##optional": 5830,
      "##icha": 5831,
      "##phrase ": 5832,
      "##latest ": 5833,
      "## there is a ": 5834,
      "##options are ": 5835,
      "##going ": 5836,
      "##screen.": 5837,
      "##found in the ": 5838,
      "##ember ": 5839,
      "##. Mc": 5840,
      "##attem": 5841,
      "##built ": 5842,
      "##fixed ": 5843,
      "##against ": 5844,
      "##instead of the ": 5845,
      "##continu": 5846,
      "##double-": 5847,
      "##paste ": 5848,
      "##Account": 5849,
      "##Panel": 5850,
      "##Detail": 5851,
      "##ython ": 5852,
      "##=\\\\\\\\{}": 5853,
      "##oldrun": 5854,
      "Dec": 5855,
      "##round": 5856,
      "##cause ": 5857,
      "##04": 5858,
      "##nice ": 5859,
      "##was": 5860,
      "##My": 5861,
      "##Bar": 5862,
      "##lap": 5863,
      "##Right": 5864,
      "##fter": 5865,
      "##f course ": 5866,
      "##kappname ": 5867,
      "##Sign": 5868,
      "##vail": 5869,
      "##'%1": 5870,
      "##independ": 5871,
      "##that ": 5872,
      "## certific": 5873,
      "##seen ": 5874,
      "##ically": 5875,
      "##as you ": 5876,
      "##ounter": 5877,
      "##moved ": 5878,
      "##menus": 5879,
      "##head ": 5880,
      "##removed ": 5881,
      "##Exp": 5882,
      "##slow ": 5883,
      "##recent ": 5884,
      "##required to ": 5885,
      "##more.": 5886,
      "##Internet": 5887,
      "##positions ": 5888,
      "##ouble ": 5889,
      "An error occurred ": 5890,
      "##resulting ": 5891,
      "##rap ": 5892,
      "##extract": 5893,
      "##Object ": 5894,
      "##nnn": 5895,
      "##. html": 5896,
      "##DCOP ": 5897,
      "##ASCII": 5898,
      "##embedded ": 5899,
      "##metadata ": 5900,
      " lt ": 5901,
      "Cop": 5902,
      "Make ": 5903,
      "Ph": 5904,
      "Play": 5905,
      "Type ": 5906,
      "##gin ": 5907,
      "##center": 5908,
      "##2) ": 5909,
      "##evalu": 5910,
      "##efore ": 5911,
      "##watch": 5912,
      "##lif": 5913,
      "##lass": 5914,
      "##ly to ": 5915,
      "##kppp": 5916,
      "##FS ": 5917,
      "##OS ": 5918,
      "##==": 5919,
      "## target ": 5920,
      "##only.": 5921,
      "##. net": 5922,
      "##a few ": 5923,
      "##of text ": 5924,
      "##iter": 5925,
      "##di ": 5926,
      "##edg": 5927,
      "##ed)": 5928,
      "##ithm": 5929,
      "##unit": 5930,
      "##unction ": 5931,
      "##convert ": 5932,
      "##/ kde": 5933,
      "##scape ": 5934,
      "##lost": 5935,
      "##name in the ": 5936,
      "##s are not ": 5937,
      "##but it ": 5938,
      "##hero ": 5939,
      "##user's ": 5940,
      "##value of the ": 5941,
      "##sessions ": 5942,
      "## type of ": 5943,
      "##signed ": 5944,
      "##activated ": 5945,
      "##Them": 5946,
      "##argument ": 5947,
      "##KMail ": 5948,
      "##Browser ": 5949,
      "##framewor": 5950,
      "Documentation ": 5951,
      "##. Just ": 5952,
      "##Ctrl+": 5953,
      "##JavaScript ": 5954,
      "##declar": 5955,
      "I ": 5956,
      "##mer": 5957,
      "##cube ": 5958,
      "##pg ": 5959,
      "##11 ": 5960,
      "##s'": 5961,
      "##Certificate ": 5962,
      "## tar": 5963,
      "##atom": 5964,
      "##arc": 5965,
      "##leg": 5966,
      "##is selected": 5967,
      "##ctive ": 5968,
      "##emot": 5969,
      "##eler": 5970,
      "##for you": 5971,
      "##from this ": 5972,
      "##your system ": 5973,
      "##file %1 ": 5974,
      "##ould you ": 5975,
      "##design ": 5976,
      "##brack": 5977,
      "##interval ": 5978,
      "##compiled ": 5979,
      "##epe": 5980,
      "If you": 5981,
      "##printed ": 5982,
      "##kont": 5983,
      "##available for ": 5984,
      "##showing the ": 5985,
      "##groupware ": 5986,
      "##... from the ": 5987,
      "##signature": 5988,
      "##achiev": 5989,
      "##import: ": 5990,
      "##authoriz": 5991,
      "##ography ": 5992,
      "##Playlist ": 5993,
      "##status bar ": 5994,
      "##disabled": 5995,
      "##amera": 5996,
      "##library": 5997,
      "##section.": 5998,
      "##Space ": 5999,
      "##necessar": 6000,
      "It is ": 6001,
      "##daemon": 6002,
      "##depending on the ": 6003,
      "## terminal ": 6004,
      "##Error": 6005,
      "##UTF-": 6006,
      "##English ": 6007,
      "##compatible ": 6008,
      "##clock": 6009,
      "##tag ": 6010,
      "##1) ": 6011,
      "##Ab": 6012,
      "##e. This ": 6013,
      "##kb": 6014,
      "##kill": 6015,
      "##kstars ": 6016,
      "##Sum": 6017,
      "##var": 6018,
      "##NO": 6019,
      "##KI": 6020,
      "## thread": 6021,
      "##lex ": 6022,
      "##leading ": 6023,
      "## copy ": 6024,
      "##ited ": 6025,
      "##direct ": 6026,
      "##is that ": 6027,
      "##forward": 6028,
      "##ution": 6029,
      "##appro": 6030,
      "##at a ": 6031,
      "##/ s": 6032,
      "##izer ": 6033,
      "##ender ": 6034,
      "##s. mail": 6035,
      "##presents ": 6036,
      "##paragr": 6037,
      "##poser ": 6038,
      "##strings ": 6039,
      "##establ": 6040,
      "##class ": 6041,
      "##may not be ": 6042,
      "##viewer ": 6043,
      "##compile ": 6044,
      "##compile": 6045,
      "##yourself": 6046,
      "##Engin": 6047,
      "##add a new ": 6048,
      "##languag": 6049,
      "##sites ": 6050,
      "##Database ": 6051,
      "##Device ": 6052,
      "##look at the ": 6053,
      "##appear in the ": 6054,
      "##path to the ": 6055,
      "##control the ": 6056,
      "##Remote ": 6057,
      "##everything ": 6058,
      "##services ": 6059,
      "##Background ": 6060,
      "##adjust the ": 6061,
      "Draw ": 6062,
      "##according to the ": 6063,
      "## to-do ": 6064,
      "##home/ ": 6065,
      "Change the ": 6066,
      "##Level ": 6067,
      "##Information ": 6068,
      "##wrong": 6069,
      "##stencil": 6070,
      "As ": 6071,
      "After ": 6072,
      "Not ": 6073,
      "Using the ": 6074,
      "##rout": 6075,
      "##gpg": 6076,
      "##galax": 6077,
      "##her ": 6078,
      "##- the ": 6079,
      "##Action ": 6080,
      "##s. It ": 6081,
      "##Fl": 6082,
      "##:00": 6083,
      "##IB": 6084,
      "##. %1": 6085,
      "##secre": 6086,
      "##chedu": 6087,
      "##: This ": 6088,
      "##quiz": 6089,
      "##tries ": 6090,
      "##filesystem": 6091,
      "##s the current ": 6092,
      "##with your ": 6093,
      "## wheth": 6094,
      "##final ": 6095,
      "##applet": 6096,
      "##can also be ": 6097,
      "##number.": 6098,
      "##brick ": 6099,
      "##when you": 6100,
      "##does not exist ": 6101,
      "##slide ": 6102,
      "##words ": 6103,
      "##icon in the ": 6104,
      "##Edit C": 6105,
      "##installation.": 6106,
      "##looking ": 6107,
      "##erminal ": 6108,
      "##person ": 6109,
      "##memory": 6110,
      "##transl": 6111,
      "##has to be ": 6112,
      "##chosen": 6113,
      "##Matth": 6114,
      "##could be ": 6115,
      "##Widget": 6116,
      "##clusive ": 6117,
      "##someone ": 6118,
      "Now ": 6119,
      "Text ": 6120,
      "##cach": 6121,
      "##pet": 6122,
      "##yet": 6123,
      "##ience ": 6124,
      "##ho": 6125,
      "##s. To ": 6126,
      "##ll": 6127,
      "##Cap": 6128,
      "##\" and ": 6129,
      "##Vari": 6130,
      "##Hist": 6131,
      "##50 ": 6132,
      "##XML": 6133,
      "##on top ": 6134,
      "##er than the ": 6135,
      "##real": 6136,
      "##restart ": 6137,
      "##is in ": 6138,
      "##star ": 6139,
      "##ower": 6140,
      "##plain": 6141,
      "##five ": 6142,
      "##ements ": 6143,
      "##ed. Do you want to ": 6144,
      "##you need ": 6145,
      "##for an ": 6146,
      "##conc": 6147,
      "##construct": 6148,
      "##by default ": 6149,
      "##artist": 6150,
      "##plicit": 6151,
      "##s to a ": 6152,
      "##st QString": 6153,
      "##doing ": 6154,
      "##ards ": 6155,
      "##Proc": 6156,
      "##require ": 6157,
      "##can be used to ": 6158,
      "##user to ": 6159,
      "##value of ": 6160,
      "##button in the ": 6161,
      "##button on the ": 6162,
      "##ly-": 6163,
      "## tool to ": 6164,
      "##includes ": 6165,
      "##Column ": 6166,
      "##place": 6167,
      "## windows ": 6168,
      "##enables ": 6169,
      "## transaction ": 6170,
      "##recently ": 6171,
      "##allowed ": 6172,
      "##commands ": 6173,
      "##plugins ": 6174,
      "##selected text ": 6175,
      "##protect": 6176,
      "##attachment": 6177,
      "##rello ": 6178,
      "##particular": 6179,
      "##question": 6180,
      "##Modu": 6181,
      "##position.": 6182,
      "##shown.": 6183,
      "##. Use the ": 6184,
      "##Example": 6185,
      "##implement": 6186,
      "Bl": 6187,
      "Run": 6188,
      "Right ": 6189,
      "Wor": 6190,
      "##a. ": 6191,
      "##care": 6192,
      "##satur": 6193,
      "##Ret": 6194,
      "##kcontrol": 6195,
      "##S/ ": 6196,
      "##(if ": 6197,
      "##). ": 6198,
      "##ony": 6199,
      "##on c": 6200,
      "##this to ": 6201,
      "##decre": 6202,
      "##emporary ": 6203,
      "##at http: / /": 6204,
      "##unable to ": 6205,
      "##/ 200": 6206,
      "##with c": 6207,
      "##) is ": 6208,
      "##comes ": 6209,
      "##file '%1 '": 6210,
      "##beh": 6211,
      "##location.": 6212,
      "##ence": 6213,
      "##created": 6214,
      "##brok": 6215,
      "##ed to be ": 6216,
      "##names": 6217,
      "##file that ": 6218,
      "##due to ": 6219,
      "##Search": 6220,
      "##optional ": 6221,
      "##feed ": 6222,
      "##printing": 6223,
      "## then be ": 6224,
      "##. We ": 6225,
      "##supported by ": 6226,
      "##marked ": 6227,
      "##urrent": 6228,
      "##make a ": 6229,
      "##go to the ": 6230,
      "Disable ": 6231,
      "##anyway": 6232,
      "##medium": 6233,
      "##drawing ": 6234,
      "##needed ": 6235,
      "##help you ": 6236,
      "##drag the ": 6237,
      "##time": 6238,
      "##likely ": 6239,
      "##receive ": 6240,
      "##range of ": 6241,
      "##slider ": 6242,
      "##publish": 6243,
      "##increase": 6244,
      "##lets you": 6245,
      "##ability to ": 6246,
      "##\" or \"": 6247,
      "##vailable ": 6248,
      "##mimet": 6249,
      "##cover ": 6250,
      "##24 ": 6251,
      "##dar": 6252,
      "##Tree ": 6253,
      "##v ": 6254,
      "##LO": 6255,
      "##Page": 6256,
      "##onom": 6257,
      "##er that ": 6258,
      "##relev": 6259,
      "##alk": 6260,
      "##seg": 6261,
      "##or not": 6262,
      "##dir ": 6263,
      "##olv": 6264,
      "##ety ": 6265,
      "##at all": 6266,
      "##unit ": 6267,
      "##ide the ": 6268,
      "##indent": 6269,
      "##0000": 6270,
      "##ke. Mc": 6271,
      "## trying to ": 6272,
      "##accent": 6273,
      "##accept ": 6274,
      "##values.": 6275,
      "##field.": 6276,
      "##applications.": 6277,
      "##visual": 6278,
      "##Import": 6279,
      "##games ": 6280,
      "##. This": 6281,
      "##equival": 6282,
      "## this to ": 6283,
      "##space": 6284,
      "##decide ": 6285,
      "Shows the ": 6286,
      "## take a ": 6287,
      "##possible.": 6288,
      "## creating ": 6289,
      "##bug report": 6290,
      "##planet": 6291,
      "##has to ": 6292,
      "##administrator ": 6293,
      "##Info ": 6294,
      "##priority ": 6295,
      "##puzzle ": 6296,
      "Switch to ": 6297,
      "##Mike. Mc": 6298,
      "##rupt": 6299,
      "##Akonadi ": 6300,
      "Fin": 6301,
      "Web": 6302,
      "##closed ": 6303,
      "##had ": 6304,
      "##-down ": 6305,
      "##AC": 6306,
      "##wild": 6307,
      "##Min": 6308,
      "##DB": 6309,
      "##kspread ": 6310,
      "##Su": 6311,
      "##(0": 6312,
      "##Center ": 6313,
      "##Last ": 6314,
      "##How": 6315,
      "##ones": 6316,
      "##er)": 6317,
      "##atter": 6318,
      "##es: ": 6319,
      "##aga": 6320,
      "##forc": 6321,
      "##/ f": 6322,
      "##master ": 6323,
      "## this button to ": 6324,
      "##file: %1": 6325,
      "## that you have ": 6326,
      "##e. net": 6327,
      "##has not ": 6328,
      "##branch": 6329,
      "##files in the ": 6330,
      "##setup": 6331,
      "##. An ": 6332,
      "##no longer ": 6333,
      "##showing ": 6334,
      "##color for ": 6335,
      "##canv": 6336,
      "##choose a ": 6337,
      "##installed.": 6338,
      "## checked the ": 6339,
      "##decrypt": 6340,
      "##alarms ": 6341,
      "What ": 6342,
      "##known as ": 6343,
      "##polyg": 6344,
      "##processing ": 6345,
      "##would be ": 6346,
      "##prompt ": 6347,
      "## widget": 6348,
      "## client ": 6349,
      "##(%1)": 6350,
      "##Joh": 6351,
      "##Written by ": 6352,
      "##Mouse ": 6353,
      "##negative ": 6354,
      "##st QStringamp ": 6355,
      "Ab": 6356,
      "Can ": 6357,
      "Game ": 6358,
      "Par": 6359,
      "Sim": 6360,
      "##ris": 6361,
      "##ray ": 6362,
      "##pop ": 6363,
      "##htt": 6364,
      "##templ": 6365,
      "##dam": 6366,
      "##win": 6367,
      "##boot": 6368,
      "##40 ": 6369,
      "##(and ": 6370,
      "##Pap": 6371,
      "##With": 6372,
      "##ond": 6373,
      "##. p": 6374,
      "##. b": 6375,
      "##illi": 6376,
      "##you could ": 6377,
      "##plas": 6378,
      "##plit ": 6379,
      "##debug ": 6380,
      "##an un": 6381,
      "##exit ": 6382,
      "##exper": 6383,
      "##for con": 6384,
      "##you a ": 6385,
      "##for new ": 6386,
      "##: '": 6387,
      "##sha": 6388,
      "##shad": 6389,
      "##modes": 6390,
      "##spin": 6391,
      "##speak": 6392,
      "##ounc": 6393,
      "##files that ": 6394,
      "## that will be ": 6395,
      "##end to ": 6396,
      "## trust": 6397,
      "##moving the ": 6398,
      "##e. For ": 6399,
      "##predefined ": 6400,
      "##ed to a ": 6401,
      "##end of ": 6402,
      "##subst": 6403,
      "##awar": 6404,
      "##Entry ": 6405,
      "##view of the ": 6406,
      "##definition ": 6407,
      "##supported.": 6408,
      "## tooltip": 6409,
      "##storage ": 6410,
      "##execution ": 6411,
      "##Files (": 6412,
      "## transaction": 6413,
      "##entry in the ": 6414,
      "##found in ": 6415,
      "##device.": 6416,
      "##Diagram": 6417,
      "##rename ": 6418,
      "##. Select ": 6419,
      "##-2008 ": 6420,
      "##adient ": 6421,
      "##whenever ": 6422,
      "##ATE": 6423,
      "##first.": 6424,
      "##letters ": 6425,
      "##description of the ": 6426,
      "##length": 6427,
      "##remember ": 6428,
      "##progress ": 6429,
      "##introdu": 6430,
      "##overwrite it?": 6431,
      "##permanently ": 6432,
      "##Stars ": 6433,
      "##iosl": 6434,
      "Run ": 6435,
      "##oh": 6436,
      "##a th": 6437,
      "##i/ ": 6438,
      "##96": 6439,
      "##say": 6440,
      "##Software ": 6441,
      "##Pass": 6442,
      "##YY": 6443,
      "##recur": 6444,
      "##recurs": 6445,
      "##ing. ": 6446,
      "## close ": 6447,
      "##es this ": 6448,
      "##node": 6449,
      "##force ": 6450,
      "##contribut": 6451,
      "##mob": 6452,
      "##ation for ": 6453,
      "##front": 6454,
      "##ight to ": 6455,
      "## tru": 6456,
      "##s. Please ": 6457,
      "## combin": 6458,
      "##read-": 6459,
      "##clos": 6460,
      "##ookies ": 6461,
      "##may not ": 6462,
      "##program.": 6463,
      "##. Add": 6464,
      "##information is ": 6465,
      "##query": 6466,
      "##aining ": 6467,
      "##e: http: / /": 6468,
      "##Enter": 6469,
      "##entering ": 6470,
      "##you can change the ": 6471,
      "##it is possible to ": 6472,
      "##icon.": 6473,
      "##contains a ": 6474,
      "##need to be ": 6475,
      "##Files ": 6476,
      "##looks ": 6477,
      "##email addres": 6478,
      "##hole ": 6479,
      "##possibly ": 6480,
      "##widgets ": 6481,
      "##Apply ": 6482,
      "##. Once ": 6483,
      "##Desktop Environ": 6484,
      "Draw": 6485,
      "## web": 6486,
      "##Selected ": 6487,
      "##easier to ": 6488,
      "##system tray": 6489,
      "##QString ": 6490,
      "##pdf": 6491,
      "##Microsoft ": 6492,
      "##Protoc": 6493,
      "Fil": 6494,
      "Lef": 6495,
      "##hap": 6496,
      "##Action": 6497,
      "##Make ": 6498,
      "##TA": 6499,
      "##Sk": 6500,
      "##%4 ": 6501,
      "##x3": 6502,
      "##PS ": 6503,
      "##KPlayer ": 6504,
      "##Wizard": 6505,
      "##Hide ": 6506,
      "##}{": 6507,
      "##is selected ": 6508,
      "##stopp": 6509,
      "##ed: ": 6510,
      "##nothing ": 6511,
      "##ision ": 6512,
      "##avoid ": 6513,
      "##units ": 6514,
      "##shut": 6515,
      "##in the file ": 6516,
      "##resum": 6517,
      "##%1?": 6518,
      "##ive": 6519,
      "##playback ": 6520,
      "##pty ": 6521,
      "##dialog and ": 6522,
      "##name is ": 6523,
      "##value": 6524,
      "##string.": 6525,
      "##used for the ": 6526,
      "##ipul": 6527,
      "Insert": 6528,
      "##Selection": 6529,
      "##folders": 6530,
      "##document. ": 6531,
      "##subject ": 6532,
      "##phrase": 6533,
      "##entral ": 6534,
      "Conne": 6535,
      "##slot": 6536,
      "##mention": 6537,
      "##digit": 6538,
      "##graphic": 6539,
      "##completion ": 6540,
      "##Desktop": 6541,
      "##shared ": 6542,
      "##context menu": 6543,
      "##false": 6544,
      "##preced": 6545,
      "##environment variable ": 6546,
      "##according to ": 6547,
      "##close the ": 6548,
      "##Save": 6549,
      "##recurrence ": 6550,
      "##Arrow ": 6551,
      "##advant": 6552,
      "##instead.": 6553,
      "##bo box ": 6554,
      "Allows you to ": 6555,
      "##mathemat": 6556,
      "##nnn. ": 6557,
      "##palett": 6558,
      "##y/ ": 6559,
      "##ix ": 6560,
      "##hyp": 6561,
      "##tex ": 6562,
      "##sus": 6563,
      "##Rel": 6564,
      "##RMB ": 6565,
      "##far ": 6566,
      "##Full ": 6567,
      "##Code ": 6568,
      "##\") returns ": 6569,
      "##Lay": 6570,
      "##Pos": 6571,
      "##Part": 6572,
      "##Nepomuk ": 6573,
      "##Here ": 6574,
      "##HP ": 6575,
      "## techn": 6576,
      "##orb": 6577,
      "##alv": 6578,
      "##alled ": 6579,
      "##leop": 6580,
      "## calendar": 6581,
      "##of time ": 6582,
      "##es:": 6583,
      "##oppon": 6584,
      "##primary ": 6585,
      "##igu": 6586,
      "##ock ": 6587,
      "##/ B": 6588,
      "##in the text ": 6589,
      "##tak": 6590,
      "##tach ": 6591,
      "##line. ": 6592,
      "##date.": 6593,
      "##many": 6594,
      "##menubar ": 6595,
      "##for the selected ": 6596,
      "##200 ": 6597,
      "## type the ": 6598,
      "## theme": 6599,
      "Inter": 6600,
      "##Stre": 6601,
      "##checkbox ": 6602,
      "##user.": 6603,
      "##proce": 6604,
      "##mouse pointer ": 6605,
      "## tools ": 6606,
      "##soon ": 6607,
      "##store the ": 6608,
      "##often": 6609,
      "## transfer": 6610,
      "##digits ": 6611,
      "##' '": 6612,
      "##iginal ": 6613,
      "##source code ": 6614,
      "##header": 6615,
      "## commands ": 6616,
      "##ratio ": 6617,
      "##updated ": 6618,
      "##solution ": 6619,
      "##ursor": 6620,
      "##Arch": 6621,
      "System": 6622,
      "##. By default ": 6623,
      "##quality": 6624,
      "##VPN ": 6625,
      "##leopat": 6626,
      "Acc": 6627,
      "##rary ": 6628,
      "##oom ": 6629,
      "##mas": 6630,
      "##dot": 6631,
      "##DIS": 6632,
      "##kick": 6633,
      "##UM": 6634,
      "##Siz": 6635,
      "##EL": 6636,
      "##ve": 6637,
      "##Head": 6638,
      "##s an ": 6639,
      "##theme ": 6640,
      "##stick": 6641,
      "##icol": 6642,
      "##chan": 6643,
      "##es in ": 6644,
      "##ocket ": 6645,
      "##config ": 6646,
      "##ation: ": 6647,
      "##from one ": 6648,
      "##pre-": 6649,
      "##ers and ": 6650,
      "##at the top of the ": 6651,
      "##suppli": 6652,
      "##you want to use ": 6653,
      "##used by the ": 6654,
      "Enc": 6655,
      "##examp": 6656,
      "##Choose ": 6657,
      "##same as ": 6658,
      "##deleted.": 6659,
      "##s of a ": 6660,
      "##ance of ": 6661,
      "Ctrl N ": 6662,
      "##Image": 6663,
      "##accessible ": 6664,
      "##go to ": 6665,
      "##going to ": 6666,
      "##bin/ ": 6667,
      "##attende": 6668,
      "##values are ": 6669,
      "##somew": 6670,
      "## character": 6671,
      "##build": 6672,
      "##Management ": 6673,
      "##process.": 6674,
      "##attachment ": 6675,
      "##attachments ": 6676,
      "##depends on the ": 6677,
      "##bookmarks ": 6678,
      "##Contact ": 6679,
      "##Only ": 6680,
      "Specify ": 6681,
      "##messages.": 6682,
      "##Dialog ": 6683,
      "##Left": 6684,
      "##next to the ": 6685,
      "##s which are ": 6686,
      "##progres": 6687,
      "##D-Bus ": 6688,
      "##Level": 6689,
      "##sourceforg": 6690,
      "##irtual ": 6691,
      "##dcop ": 6692,
      "##foreground ": 6693,
      "##rather than ": 6694,
      "##example the ": 6695,
      "##kind of ": 6696,
      "Or": 6697,
      "##ro ": 6698,
      "##ait ": 6699,
      "##16 ": 6700,
      "##9.": 6701,
      "##wall": 6702,
      "##MS": 6703,
      "##fou": 6704,
      "##Dav": 6705,
      "##Fiel": 6706,
      "##(c) 200": 6707,
      "##GB": 6708,
      "##Home ": 6709,
      "## tile": 6710,
      "##s and": 6711,
      "##. Re": 6712,
      "##ing them": 6713,
      "## call": 6714,
      "## to start ": 6715,
      "##ent to ": 6716,
      "##except ": 6717,
      "##e three ": 6718,
      "##ute ": 6719,
      "##uncheck": 6720,
      "##while the ": 6721,
      "##movi": 6722,
      "##upper": 6723,
      "##derived ": 6724,
      "##install the ": 6725,
      "##encrypt ": 6726,
      "##kde 3.": 6727,
      "##mechan": 6728,
      "##week ": 6729,
      "##All": 6730,
      "##notic": 6731,
      "##newly ": 6732,
      "##define the ": 6733,
      "##button and ": 6734,
      "##aster ": 6735,
      "##a copy ": 6736,
      "##you will see ": 6737,
      "Always ": 6738,
      "##0.0": 6739,
      "##properties": 6740,
      "There was ": 6741,
      "##learn": 6742,
      "Image ": 6743,
      "##guide ": 6744,
      "##limited to ": 6745,
      "##received ": 6746,
      "##launch ": 6747,
      "##GUI": 6748,
      "##keep the ": 6749,
      "##Screen": 6750,
      "##passph": 6751,
      "##queue ": 6752,
      "##Black ": 6753,
      "Keep ": 6754,
      "Go to ": 6755,
      "##alternative ": 6756,
      "##numeric ": 6757,
      "Update ": 6758,
      "##digikam": 6759,
      "##as well.": 6760,
      " Ctrl ": 6761,
      "##o the ": 6762,
      "##pick": 6763,
      "##y-": 6764,
      "##yz": 6765,
      "##tip ": 6766,
      "##bul": 6767,
      "##lass ": 6768,
      "##RP": 6769,
      "##DC": 6770,
      "##Dig": 6771,
      "##kdes": 6772,
      "##Font": 6773,
      "##Ident": 6774,
      "##Go ": 6775,
      "##` ": 6776,
      "##in-": 6777,
      "##orrespon": 6778,
      "##enough": 6779,
      "##al.": 6780,
      "##alzi": 6781,
      "##. w": 6782,
      "##ing to": 6783,
      "##ices ": 6784,
      "##of that ": 6785,
      "##of type ": 6786,
      "##for %1": 6787,
      "##if they ": 6788,
      "##maj": 6789,
      "##quare ": 6790,
      "## that are ": 6791,
      "##ne-M": 6792,
      "## configure": 6793,
      "##one is ": 6794,
      "##end the ": 6795,
      "##list and ": 6796,
      "##lists ": 6797,
      "##out.": 6798,
      "##interval": 6799,
      "##context": 6800,
      "##viewer": 6801,
      "##back to ": 6802,
      "##notes ": 6803,
      "##Chat ": 6804,
      "##overwrit": 6805,
      "##Column": 6806,
      "##toolbar.": 6807,
      "Execut": 6808,
      "##needs to be ": 6809,
      "##size.": 6810,
      "##. Note: ": 6811,
      "##histogram": 6812,
      "##urtle": 6813,
      "Click here to ": 6814,
      "##PGP": 6815,
      "##. Also ": 6816,
      "##makes it ": 6817,
      "##leave this ": 6818,
      "Check this box to ": 6819,
      "##considered ": 6820,
      "##minimum ": 6821,
      "##byte ": 6822,
      "##Shortcuts...": 6823,
      "##notification": 6824,
      "... that you can ": 6825,
      "##GNU ": 6826,
      "##Cancel ": 6827,
      "Configure the ": 6828,
      "##Mahfou": 6829,
      "##ne-Mari": 6830,
      "... ": 6831,
      "Des": 6832,
      "##oint": 6833,
      "##oid": 6834,
      "##oder ": 6835,
      "##pm": 6836,
      "##-bit ": 6837,
      "##2)": 6838,
      "##As...": 6839,
      "##dition": 6840,
      "##song ": 6841,
      "##.)": 6842,
      "##busy ": 6843,
      "##RS": 6844,
      "##kil": 6845,
      "##SE": 6846,
      "##Samba ": 6847,
      "##Eur": 6848,
      "##60": 6849,
      "## tow": 6850,
      "##s per ": 6851,
      "##ing on ": 6852,
      "##plot": 6853,
      "##ed text ": 6854,
      "##aditional ": 6855,
      "##. Try ": 6856,
      "##ation (": 6857,
      "##lections ": 6858,
      "##it can be ": 6859,
      "##) are ": 6860,
      "##file name ": 6861,
      "##disable the ": 6862,
      "##lines.": 6863,
      "##suf": 6864,
      "## compar": 6865,
      "##applet ": 6866,
      "##. This can be ": 6867,
      "##addition ": 6868,
      "You cannot ": 6869,
      "##listen": 6870,
      "##height": 6871,
      "##corner ": 6872,
      "##back to the ": 6873,
      "##more information ": 6874,
      "##user interface ": 6875,
      "##page of the ": 6876,
      "##returns\" ": 6877,
      "##region ": 6878,
      "Construct ": 6879,
      "##stored in the ": 6880,
      "##. No ": 6881,
      "##description": 6882,
      "##colors ": 6883,
      "##configuration dialog ": 6884,
      "##part of ": 6885,
      "##Use the ": 6886,
      "##INDI ": 6887,
      "##built-": 6888,
      "##mix ": 6889,
      "##drag and ": 6890,
      "##freez": 6891,
      "##itted ": 6892,
      "##included in the ": 6893,
      "Click this button to ": 6894,
      "##discard": 6895,
      "##crash": 6896,
      "##Team": 6897,
      "##recipi": 6898,
      "Check this box ": 6899,
      "##cancel": 6900,
      "##Info": 6901,
      "##Information": 6902,
      "##bindings ": 6903,
      "##\"%2\"": 6904,
      "##platform": 6905,
      "##Profile": 6906,
      "Auth": 6907,
      "##Author": 6908,
      "##date and time ": 6909,
      "##GnuPG ": 6910,
      "##interpret": 6911,
      "##konsolek": 6912,
      "Ar": 6913,
      "Activ": 6914,
      "Certificate ": 6915,
      "Nepomuk ": 6916,
      "Time ": 6917,
      "##rapp": 6918,
      "##rain": 6919,
      "##gor": 6920,
      "##hit ": 6921,
      "##non ": 6922,
      "##ness": 6923,
      "##sort ": 6924,
      "##want ": 6925,
      "##big ": 6926,
      "##80 ": 6927,
      "##Merg": 6928,
      "##Template ": 6929,
      "##CH": 6930,
      "##IL": 6931,
      "##Lat": 6932,
      "##LMB ": 6933,
      "##Port": 6934,
      "##. menu": 6935,
      "##stay ": 6936,
      "##ic c": 6937,
      "##of them ": 6938,
      "##older": 6939,
      "##olph": 6940,
      "##and other ": 6941,
      "##fit ": 6942,
      "##acy ": 6943,
      "##no t": 6944,
      "##you can see ": 6945,
      "##. This option ": 6946,
      "##comment": 6947,
      "##brings ": 6948,
      "##operator": 6949,
      "##files in ": 6950,
      "##estim": 6951,
      "##folders.": 6952,
      "##epending ": 6953,
      "##username and ": 6954,
      "##calle": 6955,
      "##simpl": 6956,
      "##entry.": 6957,
      "## tabul": 6958,
      "##icons": 6959,
      "##flag ": 6960,
      "##which can be ": 6961,
      "##directories": 6962,
      "##abling ": 6963,
      "##. If this ": 6964,
      "## content": 6965,
      "##references ": 6966,
      "##green ": 6967,
      "##level.": 6968,
      "##name:": 6969,
      "##encryption": 6970,
      "## characters.": 6971,
      "##structure": 6972,
      "##s. You ": 6973,
      "## complete ": 6974,
      "##send the ": 6975,
      "Trans": 6976,
      "##answer": 6977,
      "##temporary ": 6978,
      "##info": 6979,
      "##scheduled": 6980,
      "##mounted ": 6981,
      "##Auto ": 6982,
      "##event or": 6983,
      "##area.": 6984,
      "##drop-down ": 6985,
      "##Object": 6986,
      "##resources ": 6987,
      "##manually.": 6988,
      "##wrong ": 6989,
      "##Style ": 6990,
      "##utorial ": 6991,
      "##vector ": 6992,
      "##Normal ": 6993,
      "##physical ": 6994,
      "##sufficient ": 6995,
      "Websit": 6996,
      "Back": 6997,
      "Light ": 6998,
      "Str": 6999,
      "Wel": 7000,
      "##ra ": 7001,
      "##1-": 7002,
      "##22": 7003,
      "##bed ": 7004,
      "##Mov": 7005,
      "##Boolean ": 7006,
      "##ksy": 7007,
      "##xsl": 7008,
      "##CA": 7009,
      "##/ w": 7010,
      "##Pat": 7011,
      "##Pres": 7012,
      "##Pers": 7013,
      "##Word": 7014,
      "##Hot": 7015,
      "##59": 7016,
      "##ézi": 7017,
      "## te": 7018,
      "##ilar": 7019,
      "##of-": 7020,
      "##abbrevi": 7021,
      "##in m": 7022,
      "##at a": 7023,
      "##ify": 7024,
      "##in the sky map": 7025,
      "##verb ": 7026,
      "The first ": 7027,
      "##upgr": 7028,
      "##file format": 7029,
      "##by clicking the ": 7030,
      "## const": 7031,
      "##playlist.": 7032,
      "##fast": 7033,
      "##dialog which ": 7034,
      "## compat": 7035,
      "##ency": 7036,
      "##creating ": 7037,
      "##created.": 7038,
      "##stronom": 7039,
      "##port for ": 7040,
      "##do you want to ": 7041,
      "##started": 7042,
      "##started.": 7043,
      "##duit ": 7044,
      "##when a ": 7045,
      "##backup": 7046,
      "##addresse": 7047,
      "##. With": 7048,
      "##system is ": 7049,
      "##display of ": 7050,
      "##so that the ": 7051,
      "##version of the ": 7052,
      "##skip": 7053,
      "##blank": 7054,
      "##Delet": 7055,
      "Cannot open ": 7056,
      "##respons": 7057,
      "##. But ": 7058,
      "##expand": 7059,
      "##. You should ": 7060,
      "##Anne-Mari": 7061,
      "##invok": 7062,
      "##. com/ ": 7063,
      "##Shift key ": 7064,
      "##possibilit": 7065,
      "##valid.": 7066,
      "##CUPS server ": 7067,
      "In order to ": 7068,
      "##panel.": 7069,
      "##/ share/": 7070,
      "##above.": 7071,
      "##Automat": 7072,
      "##solved ": 7073,
      "##leave the ": 7074,
      "##Sync": 7075,
      "##Point ": 7076,
      "##abilities ": 7077,
      "##CVS": 7078,
      "##half ": 7079,
      "##bibli": 7080,
      "##IRC ": 7081,
      "##digikam ": 7082,
      "##brightness ": 7083,
      "Download ": 7084,
      "##wheel ": 7085,
      "##life ": 7086,
      "##against": 7087,
      "< ": 7088,
      "Ignore ": 7089,
      "La": 7090,
      "Sp": 7091,
      "\\t": 7092,
      "the ": 7093,
      "##pip": 7094,
      "##yes/ ": 7095,
      "##tre": 7096,
      "##say ": 7097,
      "##Be": 7098,
      "##TC": 7099,
      "##TL": 7100,
      "##kdiff": 7101,
      "##Free ": 7102,
      "##\"\" ": 7103,
      "##Past": 7104,
      "##orrect ": 7105,
      "##ately": 7106,
      "##refre": 7107,
      "##ing: ": 7108,
      "##there ": 7109,
      "## currently ": 7110,
      "##accur": 7111,
      "##for KDE": 7112,
      "##ogle ": 7113,
      "##to use ": 7114,
      "##file in the ": 7115,
      "##ripp": 7116,
      "## contain ": 7117,
      "##s. S": 7118,
      "##pression": 7119,
      "##%1 is ": 7120,
      "##dialog that ": 7121,
      "##e. Please ": 7122,
      "##selected item": 7123,
      "##mail. com": 7124,
      "##2000 ": 7125,
      "##irr": 7126,
      "##week": 7127,
      "##right mouse button ": 7128,
      "##not be able to ": 7129,
      "##e that is ": 7130,
      "##Charact": 7131,
      "##photo ": 7132,
      "##s a new ": 7133,
      "##do not have ": 7134,
      "If this ": 7135,
      "##File...": 7136,
      "##program is ": 7137,
      "Defin": 7138,
      "##buff": 7139,
      "##. Make ": 7140,
      "##() function": 7141,
      "##invest": 7142,
      "## when you ": 7143,
      "##shortcuts ": 7144,
      "##lobal ": 7145,
      "View": 7146,
      "##What's ": 7147,
      "##flict ": 7148,
      "## widget ": 7149,
      "##near the ": 7150,
      "## temporary ": 7151,
      "##instructions ": 7152,
      "##recogniz": 7153,
      "Mark ": 7154,
      "##exactly ": 7155,
      "Grou": 7156,
      "##. Default ": 7157,
      "Specifies the ": 7158,
      "##avorite ": 7159,
      "##average ": 7160,
      "An error occurred while ": 7161,
      "##kontact ": 7162,
      "##compile. documentation": 7163,
      "Most ": 7164,
      "User ": 7165,
      "##mid": 7166,
      "##ires": 7167,
      "##-1 ": 7168,
      "##Access": 7169,
      "##sle": 7170,
      "##33": 7171,
      "##Bézi": 7172,
      "##T(": 7173,
      "##Tag ": 7174,
      "##Run ": 7175,
      "##few": 7176,
      "##ks": 7177,
      "##Sun": 7178,
      "##(see ": 7179,
      "##Lib": 7180,
      "##inu": 7181,
      "## thus ": 7182,
      "##onc": 7183,
      "##at this ": 7184,
      "##. j": 7185,
      "##ing this option ": 7186,
      "##ed by": 7187,
      "##dimen": 7188,
      "##delay": 7189,
      "##an application ": 7190,
      "##conflict": 7191,
      "##wher": 7192,
      "##rest ": 7193,
      "##very": 7194,
      "The number of ": 7195,
      "##ively": 7196,
      "##ations.": 7197,
      "##lipp": 7198,
      "##playing": 7199,
      "##linu": 7200,
      "##. The first ": 7201,
      "##such": 7202,
      "##s. E": 7203,
      "##rectangle ": 7204,
      "##encies ": 7205,
      "##acceler": 7206,
      "##menu to ": 7207,
      "##commonly ": 7208,
      "##kde application": 7209,
      "##its own ": 7210,
      "##viewing ": 7211,
      "##. At": 7212,
      "##e: %1 ": 7213,
      "##users. ": 7214,
      "## tab.": 7215,
      "##. Writ": 7216,
      "##you can configure the ": 7217,
      "##cept": 7218,
      "##marked as ": 7219,
      "##Comput": 7220,
      "##which will ": 7221,
      "## translat": 7222,
      "##multi-": 7223,
      "##. Most ": 7224,
      "##time.": 7225,
      "##sure that the ": 7226,
      "##KMyMoney ": 7227,
      "Enter a ": 7228,
      "##secure ": 7229,
      "##Plugin ": 7230,
      "##Box ": 7231,
      "If this option is checked ": 7232,
      "##Output ": 7233,
      "##consider": 7234,
      "##programming ": 7235,
      "##Cancel": 7236,
      "##LDAP ": 7237,
      "##handheld ": 7238,
      "##accessed ": 7239,
      "##eavy ": 7240,
      "##kernel ": 7241,
      "##attempt to ": 7242,
      "##experim": 7243,
      "##sourceforge. net": 7244,
      " help": 7245,
      "Press ": 7246,
      "##rw": 7247,
      "##ric": 7248,
      "##car": 7249,
      "##-of-": 7250,
      "##dock": 7251,
      "##soci": 7252,
      "##smooth": 7253,
      "##Micha": 7254,
      "##Bar ": 7255,
      "##journ": 7256,
      "##ff ": 7257,
      "##DTE": 7258,
      "##kapp": 7259,
      "##I/ ": 7260,
      "##\")": 7261,
      "##\\ ": 7262,
      "##s and the ": 7263,
      "## ther": 7264,
      "##anize ": 7265,
      "##enam": 7266,
      "##ing?": 7267,
      "##these ": 7268,
      "## cell": 7269,
      "##stial ": 7270,
      "##a message ": 7271,
      "##er C": 7272,
      "##using this ": 7273,
      "##cons": 7274,
      "##. There": 7275,
      "##short": 7276,
      "##shape ": 7277,
      "##will only ": 7278,
      "##currency ": 7279,
      "##istribut": 7280,
      "This page ": 7281,
      "##name (": 7282,
      "##comment ": 7283,
      "##pose ": 7284,
      "##. If a ": 7285,
      "##displaying ": 7286,
      "## themes ": 7287,
      "##heav": 7288,
      "##kde. org ": 7289,
      "##Check ": 7290,
      "##defines ": 7291,
      "##\\\\ ": 7292,
      "##areas ": 7293,
      "##you can create ": 7294,
      "##specifies the ": 7295,
      "##Reposit": 7296,
      "Could not find ": 7297,
      "##such a ": 7298,
      "##Line": 7299,
      "##making ": 7300,
      "##has been modifi": 7301,
      "##filters ": 7302,
      "##Design": 7303,
      "##headers ": 7304,
      "##error: ": 7305,
      "##Theme ": 7306,
      "##connect to ": 7307,
      "##Player": 7308,
      "##apply": 7309,
      "##have to be ": 7310,
      "##popup": 7311,
      "##begin{": 7312,
      "##completely ": 7313,
      "##DVI ": 7314,
      "##limited ": 7315,
      "##libraries ": 7316,
      "##Display ": 7317,
      "##ircle ": 7318,
      "##Toolbars ": 7319,
      "##Work": 7320,
      "##facet.": 7321,
      "##body": 7322,
      "##resolution ": 7323,
      "Note: ": 7324,
      "Move the ": 7325,
      "##Application": 7326,
      "##comparis": 7327,
      "How do I ": 7328,
      "##. In this case ": 7329,
      "## calculates the ": 7330,
      "Left ": 7331,
      "##. menu. documentation": 7332,
      " help. menu. documentation": 7333,
      "(c) 199": 7334,
      "Cont": 7335,
      "Fl": 7336,
      "Let": 7337,
      "Out": 7338,
      "Per": 7339,
      "Rel": 7340,
      "Serv": 7341,
      "We ": 7342,
      "##cache ": 7343,
      "##ie": 7344,
      "##-based ": 7345,
      "##soft": 7346,
      "##30 ": 7347,
      "##TS": 7348,
      "##Le": 7349,
      "##With ": 7350,
      "##He": 7351,
      "##inch": 7352,
      "##onto ": 7353,
      "##reli": 7354,
      "##also": 7355,
      "##. d": 7356,
      "##. f": 7357,
      "##ional ": 7358,
      "##ildr": 7359,
      "##ed a ": 7360,
      "##unsaved ": 7361,
      "##/ A": 7362,
      "## to.": 7363,
      "##selection.": 7364,
      "##use of the ": 7365,
      "##. It": 7366,
      "## context ": 7367,
      "##have an ": 7368,
      "##You can ": 7369,
      "##manipul": 7370,
      "##run the ": 7371,
      "##matter ": 7372,
      "##differenc": 7373,
      "##requires": 7374,
      "##ellation ": 7375,
      "##key is ": 7376,
      "##: / /": 7377,
      "You may ": 7378,
      "##signal ": 7379,
      "##Undo": 7380,
      "##Link ": 7381,
      "##equal ": 7382,
      "##presentation ": 7383,
      "##language": 7384,
      "Unable to create ": 7385,
      "##functional": 7386,
      "##levels ": 7387,
      "Opens ": 7388,
      "##ailed ": 7389,
      "##results ": 7390,
      "##background color ": 7391,
      "##OpenPGP ": 7392,
      "##s. You can": 7393,
      "##detect ": 7394,
      "##. Choose ": 7395,
      "##you've ": 7396,
      "##Printing ": 7397,
      "##database.": 7398,
      "##pppd ": 7399,
      "Click on the ": 7400,
      "##UserActions ": 7401,
      "##Account ": 7402,
      "##mixed with ": 7403,
      "##CPU ": 7404,
      "##Application ": 7405,
      "##respective ": 7406,
      " install. compile. documentation": 7407,
      "##ellico ": 7408,
      "Modif": 7409,
      "##ould you like to ": 7410,
      "##anyway?": 7411,
      "Website: http: / /": 7412,
      "Another ": 7413,
      "Min": 7414,
      "Norm": 7415,
      "Rest": 7416,
      "##oke ": 7417,
      "##ait": 7418,
      "##cu": 7419,
      "##nt ": 7420,
      "##snow ": 7421,
      "##zip ": 7422,
      "##bri": 7423,
      "##Media ": 7424,
      "##lot": 7425,
      "##Rain ": 7426,
      "##kpres": 7427,
      "##SO": 7428,
      "##EE": 7429,
      "##). This ": 7430,
      "##In ": 7431,
      "##Pal": 7432,
      "##Next": 7433,
      "##KN": 7434,
      "##Kol": 7435,
      "##e and ": 7436,
      "## think ": 7437,
      "##enh": 7438,
      "## cubic ": 7439,
      "##or not ": 7440,
      "##abb": 7441,
      "##absolute ": 7442,
      "##is.": 7443,
      "##be able to ": 7444,
      "##ither ": 7445,
      "##/ false ": 7446,
      "##moder": 7447,
      "##it can ": 7448,
      "##and their ": 7449,
      "The current ": 7450,
      "##n yes/ ": 7451,
      "##000": 7452,
      "##loan ": 7453,
      "##button the ": 7454,
      "This section ": 7455,
      "##parse ": 7456,
      "##list is ": 7457,
      "##cret": 7458,
      "##changed": 7459,
      "##owner ": 7460,
      "##extended ": 7461,
      "##item.": 7462,
      "##margin": 7463,
      "##End ": 7464,
      "##saved.": 7465,
      "##view and ": 7466,
      "##ways to ": 7467,
      "##definition": 7468,
      "##opens a ": 7469,
      "##enter your ": 7470,
      "##\\t\\t ": 7471,
      "##most case": 7472,
      "##ates a ": 7473,
      "##containing the ": 7474,
      "##required": 7475,
      "##styles ": 7476,
      "##clicking on ": 7477,
      "##great ": 7478,
      "##konqueror 's ": 7479,
      "##CDDB ": 7480,
      "##1.0 ": 7481,
      "##array": 7482,
      "##position of the ": 7483,
      "##ratio": 7484,
      "##Konfigur": 7485,
      "##replaced with the ": 7486,
      "##much": 7487,
      "##K Desktop Environ": 7488,
      "##Web": 7489,
      "##already exists.": 7490,
      "##context menu ": 7491,
      "##means that the ": 7492,
      "##versation ": 7493,
      "##authentication": 7494,
      "##IP address ": 7495,
      "%1: ": 7496,
      "##UNIX": 7497,
      "##applied ": 7498,
      "##except": 7499,
      "Creating ": 7500,
      "##Konqueror": 7501,
      "##Schem": 7502,
      "##Sync ": 7503,
      "##RAW ": 7504,
      "##rendered ": 7505,
      "##navigation ": 7506,
      "##needed to ": 7507,
      "##mdash ": 7508,
      "##operating system": 7509,
      "##snapshot ": 7510,
      "Program copyright 200": 7511,
      "##Earth ": 7512,
      "##integer ": 7513,
      "##sensitive ": 7514,
      "## true/ false ": 7515,
      "##Description ": 7516,
      "##establish": 7517,
      "##/ f true/ false ": 7518,
      "##y/ n yes/ ": 7519,
      "##no t/ f true/ false ": 7520,
      "##y/ n yes/ no t/ f true/ false ": 7521,
      "##y/ n yes/ no t/ f true/ false 1/ ": 7522,
      "Form": 7523,
      "Log": 7524,
      "Scre": 7525,
      "Vis": 7526,
      "##rum": 7527,
      "##a to ": 7528,
      "##a command ": 7529,
      "##mum": 7530,
      "##crit": 7531,
      "##pick ": 7532,
      "##hour ": 7533,
      "##dic": 7534,
      "##sat": 7535,
      "##TR": 7536,
      "##uct": 7537,
      "##kommander ": 7538,
      "##First ": 7539,
      "##(S": 7540,
      "##Jam": 7541,
      "##Paste ": 7542,
      "##Kr": 7543,
      "##Ok": 7544,
      "##+0": 7545,
      "## table": 7546,
      "## though ": 7547,
      "## thumbnail": 7548,
      "##ond ": 7549,
      "##ert ": 7550,
      "##algor": 7551,
      "##ing text ": 7552,
      "## current ": 7553,
      "## calendar ": 7554,
      "##explan": 7555,
      "##e through": 7556,
      "##ull": 7557,
      "##unch": 7558,
      "##unles": 7559,
      "##resize ": 7560,
      "##and try ": 7561,
      "##from with": 7562,
      "##file for ": 7563,
      "##file manager ": 7564,
      "##series ": 7565,
      "##- The ": 7566,
      "##s. A ": 7567,
      "##%1 is not ": 7568,
      "##moves": 7569,
      "##post ": 7570,
      "## will not ": 7571,
      "##files will be ": 7572,
      "##directly": 7573,
      "##list to ": 7574,
      "##views ": 7575,
      "##available to ": 7576,
      "##your t": 7577,
      "##your changes ": 7578,
      "##Step": 7579,
      "##subject": 7580,
      "##folder and ": 7581,
      "##work.": 7582,
      "##box labeled ": 7583,
      "##available in the ": 7584,
      "##anta ": 7585,
      "##visual ": 7586,
      "##Extr": 7587,
      "##make sure that ": 7588,
      "## time the ": 7589,
      "##generic ": 7590,
      "##Unable to ": 7591,
      "##executed ": 7592,
      "##a template ": 7593,
      "##either the ": 7594,
      "Unable to open ": 7595,
      "##effic": 7596,
      "##searching ": 7597,
      "On the ": 7598,
      "##desktop.": 7599,
      "##Developer": 7600,
      "##speech ": 7601,
      "##Lock ": 7602,
      "##status bar": 7603,
      "##ere's ": 7604,
      "##extensions ": 7605,
      "##highlighting ": 7606,
      "Shift ": 7607,
      "##Note that ": 7608,
      "##copy the ": 7609,
      "##. When you ": 7610,
      "##-wide ": 7611,
      "##Control": 7612,
      "##paper": 7613,
      "##formatting ": 7614,
      "##loaded.": 7615,
      "##firmation ": 7616,
      "##smaller ": 7617,
      "##BSD ": 7618,
      "##DTD ": 7619,
      "List of ": 7620,
      "With this ": 7621,
      "##recommended to ": 7622,
      "##Session": 7623,
      "Warning": 7624,
      "Window ": 7625,
      "##password.": 7626,
      "##PNG ": 7627,
      "##oldrunner ": 7628,
      "##ioslave ": 7629,
      "##/ share/ config": 7630,
      "Name ": 7631,
      "Sorr": 7632,
      "Us": 7633,
      "##roll": 7634,
      "##a/ ": 7635,
      "##ps ": 7636,
      "##total ": 7637,
      "##Mag": 7638,
      "##Mis": 7639,
      "##ling ": 7640,
      "##liter": 7641,
      "##kstar": 7642,
      "##Sc": 7643,
      "##Small ": 7644,
      "##void ": 7645,
      "##x.": 7646,
      "##It ": 7647,
      "##\"/ ": 7648,
      "##Qt": 7649,
      "##KG": 7650,
      "##Wizard ": 7651,
      "## the. ": 7652,
      "##ary.": 7653,
      "##ing/ ": 7654,
      "##is very ": 7655,
      "##is enabled ": 7656,
      "##std": 7657,
      "##or hide the ": 7658,
      "##ower ": 7659,
      "##: :": 7660,
      "##conf ": 7661,
      "##alloc": 7662,
      "##use it ": 7663,
      "##one of": 7664,
      "##ffect": 7665,
      "## transp": 7666,
      "##%1 %2": 7667,
      "##e. com": 7668,
      "##e. Mahfou": 7669,
      "##readable ": 7670,
      "##assign ": 7671,
      "##es the current ": 7672,
      "##sets ": 7673,
      "##Standard ": 7674,
      "##away": 7675,
      "##ance": 7676,
      "##help: / ": 7677,
      "##click to ": 7678,
      "##later": 7679,
      "##opened": 7680,
      "##message is ": 7681,
      "##display a ": 7682,
      "##window is ": 7683,
      "##. Sim": 7684,
      "##. Now ": 7685,
      "##such as the ": 7686,
      "##. Please check your ": 7687,
      "##goes ": 7688,
      "##whether": 7689,
      "##arrang": 7690,
      "##because it ": 7691,
      "##drag to ": 7692,
      "##like this": 7693,
      "##disabled.": 7694,
      "##ength ": 7695,
      "##have the same ": 7696,
      "##Address": 7697,
      "Comp": 7698,
      "##editor.": 7699,
      "##sense ": 7700,
      "##pair": 7701,
      "##One ": 7702,
      "##day of the ": 7703,
      "##newsgroup ": 7704,
      "##TeX": 7705,
      "##scheduled ": 7706,
      "##example: ": 7707,
      "##provide a ": 7708,
      "## template": 7709,
      "##joy": 7710,
      "##losing ": 7711,
      "## translation ": 7712,
      "##hides the ": 7713,
      "##Support": 7714,
      "##DCOP": 7715,
      "##Download ": 7716,
      "##Change": 7717,
      "http: / /www. ": 7718,
      "##across the ": 7719,
      "##sector ": 7720,
      "##Earth": 7721,
      "##recommended ": 7722,
      "##Bookmarks ": 7723,
      "##Horizontal ": 7724,
      "##ikipedia": 7725,
      "##duplicate ": 7726,
      "##famili": 7727,
      "##attery ": 7728,
      "\\t\\t ": 7729,
      "##\\t\\t \\t": 7730,
      "Alt ": 7731,
      "Load ": 7732,
      "No": 7733,
      "Reg": 7734,
      "##ps": 7735,
      "##hum": 7736,
      "##1 and ": 7737,
      "##sa": 7738,
      "##30": 7739,
      "##MM": 7740,
      "##Dan": 7741,
      "##kill ": 7742,
      "##Fog": 7743,
      "##Spe": 7744,
      "##Ed": 7745,
      "##vent": 7746,
      "##Custom ": 7747,
      "##KPhoto": 7748,
      "##er. mail": 7749,
      "##ouch ": 7750,
      "##ating a ": 7751,
      "##reply ": 7752,
      "##. En": 7753,
      "##ings.": 7754,
      "##is installed ": 7755,
      "## ca": 7756,
      "## coordinates ": 7757,
      "##explicit": 7758,
      "##is to be ": 7759,
      "##in its ": 7760,
      "##for this": 7761,
      "##as.": 7762,
      "##ocus ": 7763,
      "##track ": 7764,
      "##ations are ": 7765,
      "##ighb": 7766,
      "##ind the ": 7767,
      "##by pressing the ": 7768,
      "##serial ": 7769,
      "## channel ": 7770,
      "##encounter": 7771,
      "##selected in the ": 7772,
      "## typically ": 7773,
      "##Input ": 7774,
      "##Alarm": 7775,
      "##Prov": 7776,
      "##ultane": 7777,
      "##backgam": 7778,
      "##set.": 7779,
      "##ference ": 7780,
      "##checked": 7781,
      "##work with ": 7782,
      "## changes": 7783,
      "##better": 7784,
      "##most of the ": 7785,
      "##settings are ": 7786,
      "##game is ": 7787,
      "##matched ": 7788,
      "##. On ": 7789,
      "##. More ": 7790,
      "##response ": 7791,
      "##IN ": 7792,
      "Why ": 7793,
      "##project.": 7794,
      "OpenVPN ": 7795,
      "##look at ": 7796,
      "##Viewer": 7797,
      "##oadc": 7798,
      "##String": 7799,
      "##initi": 7800,
      "##CON": 7801,
      "##General": 7802,
      "##sens": 7803,
      "Auto ": 7804,
      "##. Check ": 7805,
      "##in case ": 7806,
      "##Properties": 7807,
      "##formatted ": 7808,
      "##Import Filter": 7809,
      "##ynamic ": 7810,
      "Settings Configure Shortcuts...": 7811,
      "##monitor ": 7812,
      "##component ": 7813,
      "##Artic": 7814,
      "## two": 7815,
      "##spreadsheet ": 7816,
      "##degrees ": 7817,
      "##Icon ": 7818,
      "##becomes ": 7819,
      "##Button": 7820,
      "##~/. kde": 7821,
      "##balance ": 7822,
      "##destroy": 7823,
      "##Public ": 7824,
      "##relevant ": 7825,
      "System ": 7826,
      "Element ": 7827,
      "On ": 7828,
      "With ": 7829,
      "##oder": 7830,
      "##next to ": 7831,
      "##dos": 7832,
      "##ware": 7833,
      "##'+": 7834,
      "##xt ": 7835,
      "##Card ": 7836,
      "##Lab": 7837,
      "##JPEG ": 7838,
      "##Pack": 7839,
      "##Other ": 7840,
      "##en.": 7841,
      "##rew": 7842,
      "##repl": 7843,
      "##resh": 7844,
      "##restore ": 7845,
      "##represents ": 7846,
      "##ilot": 7847,
      "##or other ": 7848,
      "##omin": 7849,
      "##char": 7850,
      "##and so ": 7851,
      "##plain ": 7852,
      "##urity ": 7853,
      "##imedia ": 7854,
      "##fortun": 7855,
      "##for details.": 7856,
      "##not found": 7857,
      "##/ m": 7858,
      "The S": 7859,
      "##your own": 7860,
      "##file format ": 7861,
      "## consist": 7862,
      "##linear ": 7863,
      "##s. B": 7864,
      "This option": 7865,
      "##you can set ": 7866,
      "##from the list ": 7867,
      "##ovray ": 7868,
      "##lower": 7869,
      "##logar": 7870,
      "##a sim": 7871,
      "##ification": 7872,
      "##sub ": 7873,
      "##editing": 7874,
      "##box and ": 7875,
      "##data from ": 7876,
      "##like a ": 7877,
      "##same as the ": 7878,
      "##\\ty/ n yes/ no t/ f true/ false 1/ ": 7879,
      "Use this to ": 7880,
      "##group.": 7881,
      "Selects the ": 7882,
      "##package": 7883,
      "##packages": 7884,
      "##ides ": 7885,
      "If this is ": 7886,
      "##flash": 7887,
      "##before you ": 7888,
      "##configuration dialog": 7889,
      "##HTTP": 7890,
      "##write to ": 7891,
      "##understand": 7892,
      "Please enter the ": 7893,
      "##print sub": 7894,
      "##selv": 7895,
      "##synthes": 7896,
      "##ever the ": 7897,
      "##error.": 7898,
      "## controll": 7899,
      "##holding ": 7900,
      "##location of the ": 7901,
      "##pixel ": 7902,
      "##photograph ": 7903,
      "##replacement ": 7904,
      "##insert the ": 7905,
      "##include the ": 7906,
      "##. On the ": 7907,
      "##archived ": 7908,
      "##Preview ": 7909,
      "##preferences ": 7910,
      "##Netscape ": 7911,
      "##categories ": 7912,
      "##schedule ": 7913,
      "## through a ": 7914,
      "##Auto": 7915,
      "##Document": 7916,
      "##resolv": 7917,
      "##invitation ": 7918,
      "##(%1) ": 7919,
      "##. They are ": 7920,
      "##EXIF ": 7921,
      "##produce ": 7922,
      "##Complet": 7923,
      "##DTD": 7924,
      "Returns the ": 7925,
      "##Session ": 7926,
      "##squares ": 7927,
      "##does not exist.": 7928,
      "##PATH": 7929,
      "##'%2'": 7930,
      "##Matthias": 7931,
      "##nnn. nnn. ": 7932,
      "##Boolean \\ty/ n yes/ no t/ f true/ false 1/ ": 7933,
      "##Anne-Marie. Mahfou": 7934,
      "##'+'": 7935,
      "Copy": 7936,
      "Clear ": 7937,
      "Data ": 7938,
      "Nam": 7939,
      "Val": 7940,
      "##got ": 7941,
      "##gold": 7942,
      "##tape ": 7943,
      "##-up ": 7944,
      "##dm": 7945,
      "##Tru": 7946,
      "##land": 7947,
      "##kp": 7948,
      "##(for ": 7949,
      "##(this ": 7950,
      "##Lo": 7951,
      "##No": 7952,
      "##Ne": 7953,
      "## torr": 7954,
      "##in their ": 7955,
      "##reset ": 7956,
      "##alread": 7957,
      "##third ": 7958,
      "## clas": 7959,
      "##of which ": 7960,
      "##ed in": 7961,
      "##an icon ": 7962,
      "##in a": 7963,
      "##in any ": 7964,
      "##: A": 7965,
      "##: %": 7966,
      "##%1)": 7967,
      "##spent ": 7968,
      "##spam ": 7969,
      "##lide": 7970,
      "## that it ": 7971,
      "##artist ": 7972,
      "##izing ": 7973,
      "##all your ": 7974,
      "##sure": 7975,
      "##e. S": 7976,
      "##numbers": 7977,
      "##strong": 7978,
      "##has already ": 7979,
      "##changes.": 7980,
      "##operator ": 7981,
      "##. If your ": 7982,
      "##ignore ": 7983,
      "##user can ": 7984,
      "##defined": 7985,
      "##get to ": 7986,
      "##simultane": 7987,
      "##proced": 7988,
      "##> lt /": 7989,
      "##Collection": 7990,
      "Select this option to ": 7991,
      "##easy": 7992,
      "##executable": 7993,
      "##Link": 7994,
      "##imported ": 7995,
      "##. Then": 7996,
      "##Defin": 7997,
      "##anywhere ": 7998,
      "##effor": 7999,
      "##on your system ": 8000,
      "When the ": 8001,
      "Toggle the ": 8002,
      "##account.": 8003,
      "##guit": 8004,
      "##indicat": 8005,
      "##slider": 8006,
      "##Bookmark ": 8007,
      "##calculated ": 8008,
      "##. All": 8009,
      "##Keyboard ": 8010,
      "##variables ": 8011,
      "##sidebar ": 8012,
      "##maximum number of ": 8013,
      "##. When the ": 8014,
      "##wallet": 8015,
      "##SSL ": 8016,
      "##scroll ": 8017,
      "##gives you ": 8018,
      "##similar to ": 8019,
      "By default ": 8020,
      "##Special ": 8021,
      "##escape ": 8022,
      "##Amarok": 8023,
      "##contain a ": 8024,
      "##Wallet ": 8025,
      "##secret ": 8026,
      "##placehol": 8027,
      "##called the ": 8028,
      "Go ": 8029,
      "Sec": 8030,
      "bool ": 8031,
      "##az": 8032,
      "## - ": 8033,
      "##cvs ": 8034,
      "##pot": 8035,
      "##pass ": 8036,
      "##yc": 8037,
      "##ied ": 8038,
      "##14 ": 8039,
      "##15 ": 8040,
      "##zip": 8041,
      "##bes": 8042,
      "##bus": 8043,
      "##liv": 8044,
      "##juk ": 8045,
      "##fetch ": 8046,
      "##Del": 8047,
      "##Faile": 8048,
      "##x. ": 8049,
      "##Close ": 8050,
      "##[%1": 8051,
      "##PPD": 8052,
      "##=... ": 8053,
      "##s your ": 8054,
      "##insk": 8055,
      "## the selected ": 8056,
      "##anch ": 8057,
      "##ated to ": 8058,
      "##are: ": 8059,
      "##revision ": 8060,
      "##repet": 8061,
      "##alway": 8062,
      "##though": 8063,
      "##is always ": 8064,
      "## could not ": 8065,
      "## code": 8066,
      "##sem": 8067,
      "##ompare ": 8068,
      "##chat ": 8069,
      "##and T": 8070,
      "##demon": 8071,
      "##ope ": 8072,
      "##ential ": 8073,
      "##noth": 8074,
      "##in pixel": 8075,
      "##const QStringamp ": 8076,
      "##should": 8077,
      "##on (": 8078,
      "##ride": 8079,
      "##by using ": 8080,
      "##follow ": 8081,
      "##on the server": 8082,
      "##other.": 8083,
      "## what": 8084,
      "##name of ": 8085,
      "##name to ": 8086,
      "##prepar": 8087,
      "##at the bottom ": 8088,
      "##. Your ": 8089,
      "##Int": 8090,
      "##marble ": 8091,
      "##key to ": 8092,
      "##Alt": 8093,
      "## them to ": 8094,
      "##set of": 8095,
      "##See ": 8096,
      "##parts of the ": 8097,
      "##addresses ": 8098,
      "##dialog is ": 8099,
      "##menu entry ": 8100,
      "##a custom ": 8101,
      "##File Quit": 8102,
      "##regular": 8103,
      "##highly ": 8104,
      "##highest ": 8105,
      "##ternal": 8106,
      "##enabled.": 8107,
      "##missing": 8108,
      "##failed to ": 8109,
      "##other than ": 8110,
      "##either": 8111,
      "## continue ": 8112,
      "##default the ": 8113,
      "##filtering ": 8114,
      "##name=\"": 8115,
      "##Interface ": 8116,
      "##. You must ": 8117,
      "##ueb": 8118,
      "## command.": 8119,
      "##Location": 8120,
      "##shows a ": 8121,
      "##ledg": 8122,
      "##e theme ": 8123,
      "Open a ": 8124,
      "##www. k": 8125,
      "##computer": 8126,
      "##Previous ": 8127,
      "##ometric ": 8128,
      "##know what ": 8129,
      "##copy 200": 8130,
      "##. Alternatively ": 8131,
      "##. You can choose ": 8132,
      "##disk.": 8133,
      "##TEX": 8134,
      "##cards ": 8135,
      "##repository": 8136,
      "##automatically.": 8137,
      "##homep": 8138,
      "##separated by ": 8139,
      "Automatic ": 8140,
      "##half": 8141,
      "Audio ": 8142,
      "Loading ": 8143,
      "##reflect": 8144,
      "##utorial": 8145,
      "##alphab": 8146,
      "##Cartr": 8147,
      "##useful to ": 8148,
      "##Amarok ": 8149,
      "##analyz": 8150,
      "##experienc": 8151,
      "##KSpre": 8152,
      "##/ cups/ ": 8153,
      "##bracket": 8154,
      "##paragraph": 8155,
      "##Module": 8156,
      "##hyper": 8157,
      "##freezing ": 8158,
      "##. Written by ": 8159,
      "Dat": 8160,
      "Path": 8161,
      "Rot": 8162,
      "Simple ": 8163,
      "##ry": 8164,
      "##right to ": 8165,
      "##oo ": 8166,
      "##memb": 8167,
      "##cost": 8168,
      "##camera": 8169,
      "##him": 8170,
      "##hot": 8171,
      "##horiz": 8172,
      "##test": 8173,
      "##native ": 8174,
      "##bol": 8175,
      "##uch ": 8176,
      "##favorite ": 8177,
      "##UML ": 8178,
      "##GE": 8179,
      "##KOrganiz": 8180,
      "##5) ": 8181,
      "##one. ": 8182,
      "##ens ": 8183,
      "##arbit": 8184,
      "##you.": 8185,
      "## to do ": 8186,
      "##ing with ": 8187,
      "##and click ": 8188,
      "##ample ": 8189,
      "##plus": 8190,
      "##exerc": 8191,
      "##is too ": 8192,
      "##in all ": 8193,
      "##in some ": 8194,
      "##in front ": 8195,
      "##av ": 8196,
      "##en B": 8197,
      "##umin": 8198,
      "##not found ": 8199,
      "##shuff": 8200,
      "##/ home/ ": 8201,
      "##ation to ": 8202,
      "##file with ": 8203,
      "##file type ": 8204,
      "##disconnect": 8205,
      "##sually ": 8206,
      "##s. M": 8207,
      "##s. When ": 8208,
      "##umbrello ": 8209,
      "##%1 of ": 8210,
      "##from the list.": 8211,
      "## canc": 8212,
      "##comments ": 8213,
      "##selected cell": 8214,
      "##operation.": 8215,
      "##posed ": 8216,
      "##1 (": 8217,
      "##number of c": 8218,
      "Include ": 8219,
      "##some of the ": 8220,
      "##subfolder ": 8221,
      "##start a new ": 8222,
      "##application to ": 8223,
      "##data from the ": 8224,
      "A simple ": 8225,
      "##down.": 8226,
      "##mouse button": 8227,
      "##Plas": 8228,
      "##Play ": 8229,
      "Contr": 8230,
      "##click on a ": 8231,
      "##video": 8232,
      "##skipp": 8233,
      "##tribute ": 8234,
      "##digital ": 8235,
      "##Default": 8236,
      "##where you ": 8237,
      "Export": 8238,
      "Set this option to ": 8239,
      "##1.0": 8240,
      "##right.": 8241,
      "Remote ": 8242,
      "##seconds.": 8243,
      "##Struct": 8244,
      "## that they ": 8245,
      "##maximum": 8246,
      "##photo": 8247,
      "##LaTeX ": 8248,
      "##determine the ": 8249,
      "Displays a ": 8250,
      "##detected ": 8251,
      "##effect.": 8252,
      "##history": 8253,
      "##Time - ": 8254,
      "##current tab": 8255,
      "##years ": 8256,
      "##summary ": 8257,
      "##PEG": 8258,
      "##consider ": 8259,
      "##RAM": 8260,
      "##MIME ": 8261,
      "##components ": 8262,
      "##retrieve ": 8263,
      "Updat": 8264,
      "##reminder": 8265,
      "##corresponds to the ": 8266,
      "Write ": 8267,
      "##ASCII ": 8268,
      "##Development ": 8269,
      "##Time": 8270,
      "##dictionary ": 8271,
      "##Appear": 8272,
      "##audio": 8273,
      "##snapshot": 8274,
      "You are about to ": 8275,
      "##$KDEDIR ": 8276,
      "##Lauri. Watts. mail": 8277,
      "##Language ": 8278,
      "##Template": 8279,
      "##built-in ": 8280,
      "List": 8281,
      "New": 8282,
      "Peri": 8283,
      "Requ": 8284,
      "Sk": 8285,
      "Scri": 8286,
      "Vide": 8287,
      "##mut": 8288,
      "##mist": 8289,
      "##mask": 8290,
      "##2 and ": 8291,
      "##2 (": 8292,
      "##Ag": 8293,
      "##Active ": 8294,
      "##My ": 8295,
      "##Mart": 8296,
      "##Back ": 8297,
      "##TO": 8298,
      "##ude ": 8299,
      "##kv": 8300,
      "##Effect": 8301,
      "##:00 ": 8302,
      "##Cre": 8303,
      "##LA": 8304,
      "##Load": 8305,
      "##GL": 8306,
      "##6.": 8307,
      "##s with the ": 8308,
      "##ore": 8309,
      "##. x ": 8310,
      "##y and ": 8311,
      "## categ": 8312,
      "##a screenshot ": 8313,
      "##or select ": 8314,
      "##ed in a ": 8315,
      "##child ": 8316,
      "##es of the ": 8317,
      "##aces ": 8318,
      "##in and ": 8319,
      "##undo ": 8320,
      "##if they are ": 8321,
      "##on one ": 8322,
      "##ides": 8323,
      "##ood": 8324,
      "The name of the ": 8325,
      "##ate a ": 8326,
      "##file %1.": 8327,
      "##by selecting the ": 8328,
      "##uses a ": 8329,
      "##world": 8330,
      "##on the server ": 8331,
      "##000 ": 8332,
      "##gray": 8333,
      "##grid": 8334,
      "##grind ": 8335,
      "##if you want the ": 8336,
      "##Your ": 8337,
      "##you can add ": 8338,
      "##obtain": 8339,
      "##has an ": 8340,
      "##changed.": 8341,
      "##. If not ": 8342,
      "##. If no ": 8343,
      "##internet ": 8344,
      "##keys.": 8345,
      "##keyword": 8346,
      "##auto ": 8347,
      "##options:": 8348,
      "##image to ": 8349,
      "## communic": 8350,
      "##later.": 8351,
      "##earli": 8352,
      "##defines the ": 8353,
      "##window will ": 8354,
      "##. With ": 8355,
      "You need to ": 8356,
      "##formats ": 8357,
      "##type": 8358,
      "##idea ": 8359,
      "If checked the ": 8360,
      "##. org/ ": 8361,
      "##identify ": 8362,
      "##allows to ": 8363,
      "##modules ": 8364,
      "##Quick ": 8365,
      "##data to ": 8366,
      "##property": 8367,
      "##font size ": 8368,
      "##needs to ": 8369,
      "##setting is ": 8370,
      "##original": 8371,
      "##information to ": 8372,
      "##provided by ": 8373,
      "##midi ": 8374,
      "##dragging ": 8375,
      "##configuration.": 8376,
      "##send a ": 8377,
      "## which the ": 8378,
      "## taken ": 8379,
      "## clicking ": 8380,
      "##Service ": 8381,
      "##Note: ": 8382,
      "##. Only ": 8383,
      "##planet ": 8384,
      "## to turn ": 8385,
      "##Access ": 8386,
      "##happens ": 8387,
      "##exception ": 8388,
      "##permissions.": 8389,
      "Note that ": 8390,
      "##incid": 8391,
      "##bricks ": 8392,
      "##POP": 8393,
      "##greater than ": 8394,
      "##Profile ": 8395,
      "##Z Edit ": 8396,
      "##(%2)": 8397,
      "##Krusader": 8398,
      "##owerDev": 8399,
      "##mathematical ": 8400,
      "##leopatra ": 8401,
      "##mechanis": 8402,
      "##ikipedia. org": 8403,
      "% ": 8404,
      "Clear": 8405,
      "Get ": 8406,
      "Here's ": 8407,
      "Last ": 8408,
      "Mak": 8409,
      "Pass": 8410,
      "##rash": 8411,
      "##ox ": 8412,
      "##gall": 8413,
      "##ms ": 8414,
      "##certain ": 8415,
      "##ier ": 8416,
      "##1 to ": 8417,
      "##-- > ": 8418,
      "##AV": 8419,
      "##ng": 8420,
      "##sun": 8421,
      "##Zoom ": 8422,
      "##wrapp": 8423,
      "##Bott": 8424,
      "##Table ": 8425,
      "##lost ": 8426,
      "##Radi": 8427,
      "##flow": 8428,
      "##(default": 8429,
      "##Path": 8430,
      "##NE": 8431,
      "##KStars ": 8432,
      "##$HOME ": 8433,
      "##YP": 8434,
      "##s in a ": 8435,
      "##on their ": 8436,
      "##enable the ": 8437,
      "##ather": 8438,
      "##rease ": 8439,
      "##remain ": 8440,
      "##least": 8441,
      "##ster": 8442,
      "##of t": 8443,
      "##itle": 8444,
      "##ing of the ": 8445,
      "##diag": 8446,
      "##deal": 8447,
      "##es all ": 8448,
      "##etc ": 8449,
      "##usable ": 8450,
[...]
