{
  "version": "1.0",
  "truncation": {
    "direction": "Right",
    "max_length": 256,
    "strategy": "LongestFirst",
    "stride": 0
  },
  "padding": {
    "strategy": "BatchLongest",
    "direction": "Right",
    "pad_to_multiple_of": null,
    "pad_id": 1,
    "pad_type_id": 0,
    "pad_token": "<pad>"
  },
  "added_tokens": [
    {
      "id": 0,
      "content": "<unk>",
      "single_word": false,
      "lstrip": false,
      "rstrip": false,
      "normalized": false,
      "special": true
    },
    {
      "id": 1,
      "content": "<pad>",
      "single_word": false,
      "lstrip": false,
      "rstrip": false,
      "normalized": false,
      "special": true
    },
    {
      "id": 2,
      "content": "<bos>",
      "single_word": false,
      "lstrip": false,
      "rstrip": false,
      "normalized": false,
      "special": true
    },
    {
      "id": 3,
      "content": "<eos>",
      "single_word": false,
      "lstrip": false,
      "rstrip": false,
      "normalized": false,
      "special": true
    }
  ],
  "normalizer": null,
  "pre_tokenizer": null,
  "post_processor": {
    "type": "TemplateProcessing",
    "single": [
      {
        "SpecialToken": {
          "id": "<bos>",
          "type_id": 0
        }
      },
      {
        "Sequence": {
          "id": "A",
          "type_id": 0
        }
      },
      {
        "SpecialToken": {
          "id": "<eos>",
          "type_id": 0
        }
      }
    ],
    "pair": [
      {
        "Sequence": {
          "id": "A",
          "type_id": 0
        }
      },
      {
        "Sequence": {
          "id": "B",
          "type_id": 1
        }
      }
    ],
    "special_tokens": {
      "<bos>": {
        "id": "<bos>",
        "ids": [
          2
        ],
        "tokens": [
          "<bos>"
        ]
      },
      "<eos>": {
        "id": "<eos>",
        "ids": [
          3
        ],
        "tokens": [
          "<eos>"
        ]
      }
    }
  },
  "decoder": {
    "type": "WordPiece",
    "prefix": "##",
    "cleanup": true
  },
  "model": {
    "type": "WordPiece",
    "unk_token": "<unk>",
    "continuing_subword_prefix": "##",
    "max_input_chars_per_word": 100,
    "vocab": {
      "<unk>": 0,
      "<pad>": 1,
      "<bos>": 2,
      "<eos>": 3,
      " ": 4,
      "!": 5,
      "\"": 6,
      "$": 7,
      "%": 8,
      "'": 9,
      "(": 10,
      ")": 11,
      "+": 12,
      "-": 13,
      ".": 14,
      "/": 15,
      "0": 16,
      "1": 17,
      "2": 18,
      "3": 19,
      "4": 20,
      "5": 21,
      "6": 22,
      "7": 23,
      "8": 24,
      "9": 25,
      ":": 26,
      "<": 27,
      "=": 28,
      ">": 29,
      "?": 30,
      "A": 31,
      "B": 32,
      "C": 33,
      "D": 34,
      "E": 35,
      "F": 36,
      "G": 37,
      "H": 38,
      "I": 39,
      "J": 40,
      "K": 41,
      "L": 42,
      "M": 43,
      "N": 44,
      "O": 45,
      "P": 46,
      "Q": 47,
      "R": 48,
      "S": 49,
      "T": 50,
      "U": 51,
      "V": 52,
      "W": 53,
      "X": 54,
      "Y": 55,
      "Z": 56,
      "[": 57,
      "\\": 58,
      "]": 59,
      "^": 60,
      "_": 61,
      "`": 62,
      "a": 63,
      "b": 64,
      "c": 65,
      "d": 66,
      "e": 67,
      "f": 68,
      "g": 69,
      "h": 70,
      "i": 71,
      "j": 72,
      "k": 73,
      "l": 74,
      "m": 75,
      "n": 76,
      "o": 77,
      "p": 78,
      "q": 79,
      "r": 80,
      "s": 81,
      "t": 82,
      "u": 83,
      "v": 84,
      "w": 85,
      "x": 86,
      "y": 87,
      "z": 88,
      "{": 89,
      "}": 90,
      "~": 91,
      "": 92,
      "¢": 93,
      "£": 94,
      "¥": 95,
      "¦": 96,
      "§": 97,
      "¨": 98,
      "©": 99,
      "ª": 100,
      "«": 101,
      "¬": 102,
      "®": 103,
      "¯": 104,
      "°": 105,
      "±": 106,
      "²": 107,
      "³": 108,
      "´": 109,
      "µ": 110,
      "¶": 111,
      "·": 112,
      "¸": 113,
      "¹": 114,
      "º": 115,
      "»": 116,
      "¼": 117,
      "½": 118,
      "¾": 119,
      "¿": 120,
      "À": 121,
      "Á": 122,
      "Â": 123,
      "Ã": 124,
      "Ä": 125,
      "Å": 126,
      "Æ": 127,
      "Ç": 128,
      "È": 129,
      "É": 130,
      "Ê": 131,
      "Ë": 132,
      "Ì": 133,
      "Í": 134,
      "Î": 135,
      "Ï": 136,
      "Ð": 137,
      "Ò": 138,
      "Ó": 139,
      "Ô": 140,
      "Õ": 141,
      "Ö": 142,
      "×": 143,
      "Ø": 144,
      "Ù": 145,
      "Ú": 146,
      "Û": 147,
      "Ü": 148,
      "Ý": 149,
      "Þ": 150,
      "ß": 151,
      "à": 152,
      "á": 153,
      "â": 154,
      "ã": 155,
      "ä": 156,
      "å": 157,
      "æ": 158,
      "ç": 159,
      "è": 160,
      "é": 161,
      "ê": 162,
      "ë": 163,
      "ì": 164,
      "í": 165,
      "î": 166,
      "ï": 167,
      "ð": 168,
      "ñ": 169,
      "ò": 170,
      "ó": 171,
      "ô": 172,
      "õ": 173,
      "ö": 174,
      "ø": 175,
      "ù": 176,
      "ú": 177,
      "û": 178,
      "ü": 179,
      "ý": 180,
      "þ": 181,
      "ÿ": 182,
      "ā": 183,
      "Ă": 184,
      "ă": 185,
      "ć": 186,
      "ĉ": 187,
      "Č": 188,
      "č": 189,
      "ė": 190,
      "ě": 191,
      "ğ": 192,
      "ı": 193,
      "ĺ": 194,
      "ł": 195,
      "ń": 196,
      "ň": 197,
      "ŏ": 198,
      "Œ": 199,
      "œ": 200,
      "Ř": 201,
      "ř": 202,
      "Ş": 203,
      "ş": 204,
      "Š": 205,
      "š": 206,
      "Ţ": 207,
      "ţ": 208,
      "ŭ": 209,
      "ů": 210,
      "ž": 211,
      "Ə": 212,
      "θ": 213,
      "ถ": 214,
      "ท": 215,
      "น": 216,
      "บ": 217,
      "ม": 218,
      "ย": 219,
      "ว": 220,
      "ส": 221,
      "า": 222,
      "ิ": 223,
      "ี": 224,
      "่": 225,
      "้": 226,
      "ầ": 227,
      "ệ": 228,
      "ồ": 229,
      "ộ": 230,
      "ủ": 231,
      "–": 232,
      "—": 233,
      "‘": 234,
      "’": 235,
      "‚": 236,
      "“": 237,
      "”": 238,
      "„": 239,
      "•": 240,
      "…": 241,
      "‰": 242,
      "‹": 243,
      "›": 244,
      "⁄": 245,
      "⁻": 246,
      "₣": 247,
      "₧": 248,
      "₫": 249,
      "€": 250,
      "™": 251,
      "→": 252,
      "↓": 253,
      "≠": 254,
      "≤": 255,
      "≥": 256,
      "⌈": 257,
      "⌉": 258,
      "⌊": 259,
      "⌋": 260,
      "�": 261,
      "##d": 262,
      "##i": 263,
      "##a": 264,
      "##l": 265,
      "##o": 266,
      "##g": 267,
      "## ": 268,
      "##-": 269,
      "##n": 270,
      "##p": 271,
      "##u": 272,
      "##t": 273,
      "##b": 274,
      "##x": 275,
      "##\"": 276,
      "##S": 277,
      "##s": 278,
      "##e": 279,
      "##z": 280,
      "##v": 281,
      "##r": 282,
      "##m": 283,
      "##1": 284,
      "##6": 285,
      "##0": 286,
      "##:": 287,
      "##V": 288,
      "##N": 289,
      "##c": 290,
      "##é": 291,
      "##f": 292,
      "##h": 293,
      "##%": 294,
      "##.": 295,
      "##j": 296,
      "##è": 297,
      "##q": 298,
      "##ê": 299,
      "##2": 300,
      "##'": 301,
      "##L": 302,
      "##R": 303,
      "##D": 304,
      "##k": 305,
      "##«": 306,
      "##?": 307,
      "##»": 308,
      "##y": 309,
      "##A": 310,
      "##T": 311,
      "##î": 312,
      "##I": 313,
      "##F": 314,
      "##C": 315,
      "##M": 316,
      "##H": 317,
      "##E": 318,
      "##w": 319,
      "##O": 320,
      "##G": 321,
      "##U": 322,
      "##B": 323,
      "##/": 324,
      "##(": 325,
      "##)": 326,
      "##à": 327,
      "##P": 328,
      "##Y": 329,
      "##=": 330,
      "##X": 331,
      "##9": 332,
      "##8": 333,
      "##3": 334,
      "##K": 335,
      "##]": 336,
      "##[": 337,
      "##_": 338,
      "##ù": 339,
      "##~": 340,
      "##û": 341,
      "##>": 342,
      "##7": 343,
      "##ô": 344,
      "##4": 345,
      "##5": 346,
      "##+": 347,
      "##J": 348,
      "##ç": 349,
      "##W": 350,
      "##É": 351,
      "##À": 352,
      "##!": 353,
      "##{": 354,
      "##}": 355,
      "##\\": 356,
      "##â": 357,
      "##Q": 358,
      "##$": 359,
      "##ï": 360,
      "##Z": 361,
      "##œ": 362,
      "##^": 363,
      "##ü": 364,
      "##È": 365,
      "##<": 366,
      "##€": 367,
      "##¥": 368,
      "##°": 369,
      "##Ê": 370,
      "##³": 371,
      "##ţ": 372,
      "##ă": 373,
      "##·": 374,
      "##Ã": 375,
      "##ª": 376,
      "##´": 377,
      "##…": 378,
      "##ŏ": 379,
      "##µ": 380,
      "##`": 381,
      "##£": 382,
      "##í": 383,
      "##²": 384,
      "##Î": 385,
      "##⁻": 386,
      "##¹": 387,
      "##ö": 388,
      "##©": 389,
      "##ë": 390,
      "##ồ": 391,
      "##–": 392,
      "##ó": 393,
      "##ú": 394,
      "##á": 395,
      "##Ô": 396,
      "##’": 397,
      "##č": 398,
      "##Č": 399,
      "##ć": 400,
      "##Á": 401,
      "##ł": 402,
      "##⌊": 403,
      "##⌋": 404,
      "##å": 405,
      "##ø": 406,
      "##ä": 407,
      "##ย": 408,
      "##ี": 409,
      "##่": 410,
      "##ส": 411,
      "##ิ": 412,
      "##บ": 413,
      "##า": 414,
      "##ม": 415,
      "##ท": 416,
      "##ถ": 417,
      "##้": 418,
      "##ว": 419,
      "##น": 420,
      "##ủ": 421,
      "##ầ": 422,
      "##ộ": 423,
      "##±": 424,
      "##®": 425,
      "##": 426,
      "##Œ": 427,
      "##ė": 428,
      "##Ç": 429,
      "##š": 430,
      "##ı": 431,
      "##ñ": 432,
      "##Â": 433,
      "##ã": 434,
      "##→": 435,
      "##≥": 436,
      "##ň": 437,
      "##⌈": 438,
      "##⌉": 439,
      "##ě": 440,
      "##ş": 441,
      "##�": 442,
      "##ž": 443,
      "##ů": 444,
      "##ĉ": 445,
      "##ò": 446,
      "##Ö": 447,
      "##™": 448,
      "##¶": 449,
      "##Ü": 450,
      "##×": 451,
      "##ệ": 452,
      "##æ": 453,
      "##θ": 454,
      "##↓": 455,
      "##Ř": 456,
      "##Ø": 457,
      "##ā": 458,
      "##ń": 459,
      "##º": 460,
      "##½": 461,
      "##Ä": 462,
      "##ý": 463,
      "##≤": 464,
      "##ĺ": 465,
      "##ŭ": 466,
      "##Å": 467,
      "##—": 468,
      "##ř": 469,
      "##≠": 470,
      "##ğ": 471,
      "##e ": 472,
      "##s ": 473,
      "##r ": 474,
      "##on": 475,
      "##t ": 476,
      "##ou": 477,
      "##es ": 478,
      "##en": 479,
      "##ti": 480,
      "##de ": 481,
      "##an": 482,
      "##er ": 483,
      "##le ": 484,
      "##a ": 485,
      "##er": 486,
      "##is": 487,
      "##qu": 488,
      "##es": 489,
      "##ch": 490,
      "##tion": 491,
      "##tr": 492,
      "##. ": 493,
      "##fi": 494,
      "##eu": 495,
      "##la ": 496,
      "##un": 497,
      "##in": 498,
      "##pa": 499,
      "##or": 500,
      "##les ": 501,
      "##60": 502,
      "##160": 503,
      "##ez": 504,
      "##ez ": 505,
      "##au": 506,
      "##men": 507,
      "##si": 508,
      "##te ": 509,
      "## d": 510,
      "##pr": 511,
      "##ous ": 512,
      "##om": 513,
      "##ec": 514,
      "##al": 515,
      "##pou": 516,
      "##et ": 517,
      "##ra": 518,
      "##l'": 519,
      "##re ": 520,
      "##el": 521,
      "##ar": 522,
      "##tion ": 523,
      "##su": 524,
      "##que ": 525,
      "##li": 526,
      "##tre ": 527,
      "## 160": 528,
      "##ac": 529,
      "##ai": 530,
      "##fich": 531,
      "##ment ": 532,
      "##d'": 533,
      "##vous ": 534,
      "##un ": 535,
      "##lis": 536,
      "##ans ": 537,
      "##ri": 538,
      "##à ": 539,
      "##di": 540,
      "##pour ": 541,
      "##est ": 542,
      "##u ": 543,
      "##con": 544,
      "##et": 545,
      "##une ": 546,
      "##eur ": 547,
      "##é ": 548,
      "##pl": 549,
      "##ex": 550,
      "##i ": 551,
      "##des ": 552,
      "##ag": 553,
      "##dé": 554,
      "##av": 555,
      "##re": 556,
      "## 160 ": 557,
      "##en ": 558,
      "##at": 559,
      "##oi": 560,
      "##ré": 561,
      "##ant ": 562,
      "##com": 563,
      "##tilis": 564,
      "##ne ": 565,
      "##ement ": 566,
      "##on ": 567,
      "##me ": 568,
      "##os": 569,
      "##dans ": 570,
      "##él": 571,
      "##im": 572,
      "##il": 573,
      "##utilis": 574,
      "##ce ": 575,
      "##ca": 576,
      "##: ": 577,
      "##mo": 578,
      "##gu": 579,
      "##em": 580,
      "##fichi": 581,
      "##op": 582,
      "##sur ": 583,
      "##ouv": 584,
      "##éc": 585,
      "##ta": 586,
      "##our": 587,
      "##de la ": 588,
      "##e. ": 589,
      "##du ": 590,
      "##ess": 591,
      "##ap": 592,
      "##pro": 593,
      "##e.": 594,
      "##vo": 595,
      "##eur": 596,
      "##tionn": 597,
      "##st": 598,
      "##ent ": 599,
      "##tu": 600,
      "##ossi": 601,
      "##ont ": 602,
      "##ffich": 603,
      "##ée ": 604,
      "##au ": 605,
      "##/ ": 606,
      "##ser": 607,
      "##ts ": 608,
      "##par ": 609,
      "##ou ": 610,
      "##être ": 611,
      "##« 160 ": 612,
      "##pas ": 613,
      "##age ": 614,
      "##ers ": 615,
      "##ble ": 616,
      "##tions ": 617,
      "##onn": 618,
      "##out": 619,
      "##am": 620,
      "##vez ": 621,
      "##élec": 622,
      "##%1": 623,
      "##se ": 624,
      "##co": 625,
      "##ma": 626,
      "## de ": 627,
      "##cu": 628,
      "##ette ": 629,
      "##par": 630,
      "##ter": 631,
      "##for": 632,
      "##x ": 633,
      "##ées ": 634,
      "##ni": 635,
      "##l ": 636,
      "##ci": 637,
      "##d ": 638,
      "##ér": 639,
      "##avec": 640,
      "##ten": 641,
      "##nom": 642,
      "##vi": 643,
      "##plu": 644,
      "##figu": 645,
      "##pouvez ": 646,
      "##er les ": 647,
      "##si ": 648,
      "##éri": 649,
      "##n'": 650,
      "##ff": 651,
      "##) ": 652,
      "##por": 653,
      "##fichier ": 654,
      "##du": 655,
      "##er le ": 656,
      "##és ": 657,
      "##man": 658,
      "##oul": 659,
      "##avec ": 660,
      "##té ": 661,
      "##tes ": 662,
      "##affich": 663,
      "##per": 664,
      "##électionn": 665,
      "##eurs ": 666,
      "##de l'": 667,
      "##peu": 668,
      "##de": 669,
      "## 160 »": 670,
      "##bl": 671,
      "##votre ": 672,
      "##qui ": 673,
      "##sont ": 674,
      "##elle ": 675,
      "##iss": 676,
      "##ment": 677,
      "##er la ": 678,
      "##160: ": 679,
      "##bo": 680,
      "##as": 681,
      "## d'": 682,
      "##160 ": 683,
      "##po": 684,
      "##te de ": 685,
      "##app": 686,
      "##ph": 687,
      "##th": 688,
      "##..": 689,
      "##. L": 690,
      "##aire ": 691,
      "##bu": 692,
      "##cette ": 693,
      "##gra": 694,
      "##tiv": 695,
      "##plac": 696,
      "##isi": 697,
      "##fon": 698,
      "##sélectionn": 699,
      "##possi": 700,
      "##che ": 701,
      "##élé": 702,
      "##cl": 703,
      "##il ": 704,
      "##gn": 705,
      "## du ": 706,
      "##liqu": 707,
      "##plus ": 708,
      "## des ": 709,
      "##cor": 710,
      "##ver": 711,
      "##is ": 712,
      "##donn": 713,
      "##que vous ": 714,
      "##aut": 715,
      "##eau ": 716,
      "##dis": 717,
      "##cour": 718,
      "##tres ": 719,
      "##val": 720,
      "##e de ": 721,
      "##possible ": 722,
      "##el ": 723,
      "##fichiers ": 724,
      "##00": 725,
      "##end": 726,
      "##pu": 727,
      "##our ": 728,
      "##sy": 729,
      "##fonc": 730,
      "##pon": 731,
      "##figura": 732,
      "##. C": 733,
      "##tex": 734,
      "##nouv": 735,
      "##és": 736,
      "##ic": 737,
      "##res ": 738,
      "## dans ": 739,
      "##oit ": 740,
      "##ell": 741,
      "##n ": 742,
      "##ces ": 743,
      "##fen": 744,
      "##ail": 745,
      "##qu'": 746,
      "##res": 747,
      "##parti": 748,
      "Le ": 749,
      "##peut ": 750,
      "##. V": 751,
      "##difi": 752,
      "##ter ": 753,
      "##lo": 754,
      "##ang": 755,
      "Im": 756,
      "##us": 757,
      "##ad": 758,
      "##forma": 759,
      "##ère ": 760,
      "##arg": 761,
      "##tou": 762,
      "##la": 763,
      "##para": 764,
      "##sion ": 765,
      "##min": 766,
      "##ateur ": 767,
      "##it": 768,
      "##prim": 769,
      "##dans le ": 770,
      "##reg": 771,
      "##160 »": 772,
      "##dans la ": 773,
      "##mar": 774,
      "La ": 775,
      "##nu": 776,
      "##emp": 777,
      "##comme ": 778,
      "##rec": 779,
      "##ons ": 780,
      "##ant": 781,
      "##iv": 782,
      "##bout": 783,
      "##boî": 784,
      "##tion de ": 785,
      "##ill": 786,
      "##ous pouvez ": 787,
      "##ème ": 788,
      "##lor": 789,
      "##issez ": 790,
      "##s.": 791,
      "##sou": 792,
      "##ments ": 793,
      "##bi": 794,
      "##pi": 795,
      "##aut ": 796,
      "##serv": 797,
      "##y ": 798,
      "##dossi": 799,
      "##eau": 800,
      "##perm": 801,
      "##istr": 802,
      "##mess": 803,
      "##do": 804,
      "##er un ": 805,
      "##ame": 806,
      "##à la ": 807,
      "##modifi": 808,
      "##activ": 809,
      "##- ": 810,
      "##to": 811,
      "##cho": 812,
      "##. S": 813,
      "##ages ": 814,
      "##alo": 815,
      "##sur le ": 816,
      "##cri": 817,
      "##er l'": 818,
      "Impossible ": 819,
      "##yp": 820,
      "##rac": 821,
      "## et ": 822,
      "##sp": 823,
      "##le": 824,
      "##ès ": 825,
      "##oir ": 826,
      "##ran": 827,
      "##ét": 828,
      "##es.": 829,
      "##ob": 830,
      "##alogu": 831,
      "##cha": 832,
      "##comman": 833,
      "##ce": 834,
      "## (": 835,
      "##lu": 836,
      "##bar": 837,
      "##sup": 838,
      "## 160: ": 839,
      "##teur ": 840,
      "##registr": 841,
      "##ég": 842,
      "##données ": 843,
      "##option ": 844,
      "##sa": 845,
      "##sera ": 846,
      "##isissez ": 847,
      "##fenêtre ": 848,
      "##avez ": 849,
      "##entr": 850,
      "##charg": 851,
      "##tiqu": 852,
      "##éci": 853,
      "##syst": 854,
      "##dialogu": 855,
      "##aj": 856,
      "##trouv": 857,
      "##te": 858,
      "##ier ": 859,
      "##ais ": 860,
      "##160:": 861,
      "##Name": 862,
      "##déf": 863,
      "##enti": 864,
      "##%2": 865,
      "##vous pouvez ": 866,
      "## 160 » ": 867,
      "##isir ": 868,
      "##lica": 869,
      "##mé": 870,
      "##n'est ": 871,
      "##oulez ": 872,
      "##cer": 873,
      "##cré": 874,
      "##tant ": 875,
      "##ba": 876,
      "##conn": 877,
      "##ori": 878,
      "##te de dialogu": 879,
      "##til": 880,
      "##cliqu": 881,
      "##gl": 882,
      "##configura": 883,
      "##ge ": 884,
      "##s de ": 885,
      "##fini": 886,
      "##er une ": 887,
      "##oup": 888,
      "##fo": 889,
      "##texte ": 890,
      "##s'": 891,
      "##cal": 892,
      "##t de ": 893,
      "##comp": 894,
      "##typ": 895,
      "##liste ": 896,
      "##inter": 897,
      "##coul": 898,
      "##gne ": 899,
      "## dé": 900,
      "##fil": 901,
      "##à l'": 902,
      "##lec": 903,
      "##eux ": 904,
      "##re de ": 905,
      "##puis ": 906,
      "##spéci": 907,
      "##i vous ": 908,
      "##ro": 909,
      "##informa": 910,
      "##bouton ": 911,
      "##mes ": 912,
      "##boîte de dialogu": 913,
      "Affich": 914,
      "##alis": 915,
      "##applica": 916,
      "##ation ": 917,
      "##mê": 918,
      "##so": 919,
      "##ress": 920,
      "##%1 ": 921,
      "##et de ": 922,
      "##cher": 923,
      "##gram": 924,
      "##fac": 925,
      "##all": 926,
      "##er des ": 927,
      "##été ": 928,
      "##crip": 929,
      "##enregistr": 930,
      "##col": 931,
      "##ois ": 932,
      "##aux ": 933,
      "##par déf": 934,
      "##ligne ": 935,
      "##pas": 936,
      "##oma": 937,
      "## pour ": 938,
      "##des": 939,
      "##« 160 %1": 940,
      "##actu": 941,
      "##pp": 942,
      "##ous les ": 943,
      "##re d'": 944,
      "##écu": 945,
      "##anc": 946,
      "##chang": 947,
      "##vers ": 948,
      "##200": 949,
      "##. P": 950,
      "##éren": 951,
      "##ques ": 952,
      "##sim": 953,
      "##vent ": 954,
      "##no": 955,
      "##menu ": 956,
      "##nomb": 957,
      "##ique ": 958,
      "##éra": 959,
      "##pres": 960,
      "##era ": 961,
      "##én": 962,
      "##suiv": 963,
      "##sec": 964,
      "##ren": 965,
      "##le de ": 966,
      "##figur": 967,
      "##tez ": 968,
      "##KD": 969,
      "##al ": 970,
      "##inst": 971,
      "##pour les ": 972,
      "##program": 973,
      "##outes ": 974,
      "##gr": 975,
      "##graph": 976,
      "##id": 977,
      "##ab": 978,
      "##Con": 979,
      "Impossible de ": 980,
      "##and": 981,
      "##même ": 982,
      "##ord": 983,
      "##ait ": 984,
      "L'": 985,
      "##mais ": 986,
      "##n'est pas ": 987,
      "##car": 988,
      "##ets ": 989,
      "##docu": 990,
      "##mè": 991,
      "##euill": 992,
      "##sion": 993,
      "##si vous ": 994,
      "##-vous ": 995,
      "##conten": 996,
      "##roi": 997,
      "##tri": 998,
      "##in ": 999,
      "##jour": 1000,
      "##int": 1001,
      "##fin": 1002,
      "##commande ": 1003,
      "##spécifi": 1004,
      "##it ": 1005,
      "##rez ": 1006,
      "##élément ": 1007,
      "##tous les ": 1008,
      "##elles ": 1009,
      "##tation ": 1010,
      "##automa": 1011,
      "##mon": 1012,
      "##non ": 1013,
      "##outil": 1014,
      "##ul": 1015,
      "## est ": 1016,
      "##diff": 1017,
      "##ation": 1018,
      "##conti": 1019,
      "##amp": 1020,
      "Con": 1021,
      "##ement": 1022,
      "##acc": 1023,
      "##ture ": 1024,
      "Les ": 1025,
      "##serveur ": 1026,
      "##160?": 1027,
      "##édi": 1028,
      "##KDE": 1029,
      "##ante ": 1030,
      "##té": 1031,
      "##utilisateur ": 1032,
      "##seu": 1033,
      "##système ": 1034,
      "##s. ": 1035,
      "##dossier ": 1036,
      "##euillez ": 1037,
      "##tail": 1038,
      "Ch": 1039,
      "##pri": 1040,
      "##eff": 1041,
      "##ajout": 1042,
      "##outes les ": 1043,
      "##impor": 1044,
      "##informations ": 1045,
      "##sur la ": 1046,
      "##cop": 1047,
      "##kde ": 1048,
      "##fichier": 1049,
      "##alement ": 1050,
      "##...": 1051,
      "##indi": 1052,
      "##boîte de dialogue ": 1053,
      "##poni": 1054,
      "##tif": 1055,
      "##oc": 1056,
      "##d'un ": 1057,
      "##valeur ": 1058,
      "##exi": 1059,
      "##autres ": 1060,
      "##image ": 1061,
      "##sign": 1062,
      "##ue ": 1063,
      "##e. L": 1064,
      "##voy": 1065,
      "##tement ": 1066,
      "##exemp": 1067,
      "##ain": 1068,
      "##e-": 1069,
      "##respon": 1070,
      "##es de ": 1071,
      "##o ": 1072,
      "##vos ": 1073,
      "##ie ": 1074,
      "##lign": 1075,
      "##modu": 1076,
      "##mod": 1077,
      "##1 ": 1078,
      "##autre ": 1079,
      "##ract": 1080,
      "##écran": 1081,
      "##rir ": 1082,
      "##avi": 1083,
      "##cette option ": 1084,
      "##ellement ": 1085,
      "##par défaut ": 1086,
      "Dé": 1087,
      "##jet ": 1088,
      "##0 ": 1089,
      "##paramè": 1090,
      "##fica": 1091,
      "##gau": 1092,
      "##g ": 1093,
      "##ent": 1094,
      "##mi": 1095,
      "##iff": 1096,
      "##toutes les ": 1097,
      "##and ": 1098,
      "##iste ": 1099,
      "##entre ": 1100,
      "##mode ": 1101,
      "##).": 1102,
      "##termin": 1103,
      "##supprim": 1104,
      "##champ": 1105,
      "##aus": 1106,
      "##poin": 1107,
      "##ans": 1108,
      "##icô": 1109,
      "##soit ": 1110,
      "##ins ": 1111,
      "##peuvent ": 1112,
      "##str": 1113,
      "##ol": 1114,
      "##reur ": 1115,
      "##peut être ": 1116,
      "##ise ": 1117,
      "##coch": 1118,
      "##caract": 1119,
      "##uc": 1120,
      "##péri": 1121,
      "##contr": 1122,
      "##lors": 1123,
      "##fois ": 1124,
      "##défini": 1125,
      "##kd": 1126,
      "##exemple ": 1127,
      "##. Vous pouvez ": 1128,
      "##disponi": 1129,
      "##d'une ": 1130,
      "##chaque ": 1131,
      "##utiliser ": 1132,
      "##correspon": 1133,
      "##zon": 1134,
      "##recher": 1135,
      "##info": 1136,
      "##exécu": 1137,
      "##um": 1138,
      "##voulez ": 1139,
      "##choisir ": 1140,
      "##niv": 1141,
      "##pos": 1142,
      "##ich": 1143,
      "##posi": 1144,
      "##prés": 1145,
      "##sé": 1146,
      "##fonctionn": 1147,
      "##. Les ": 1148,
      "##form": 1149,
      "##es. ": 1150,
      "##démar": 1151,
      "##ir ": 1152,
      "##é.": 1153,
      "##c ": 1154,
      "##sour": 1155,
      "##automatiqu": 1156,
      "##Il ": 1157,
      "##éch": 1158,
      "##couleur ": 1159,
      "##que le ": 1160,
      "##eci ": 1161,
      "##ements ": 1162,
      "##pers": 1163,
      "##ance ": 1164,
      "##er.": 1165,
      "##uni": 1166,
      "##pré": 1167,
      "##seront ": 1168,
      "##vra": 1169,
      "##adress": 1170,
      "##placement ": 1171,
      "##ongl": 1172,
      "##message ": 1173,
      "##ses ": 1174,
      "##ici ": 1175,
      "##ay": 1176,
      "##jou": 1177,
      "##prin": 1178,
      "Vous pouvez ": 1179,
      "##prem": 1180,
      "##trl ": 1181,
      "##pend": 1182,
      "##utilisant ": 1183,
      "##lt ": 1184,
      "##jeu": 1185,
      "##page ": 1186,
      "##. Le ": 1187,
      "##ard": 1188,
      "##ges": 1189,
      "##temp": 1190,
      "##nouveau ": 1191,
      "##ière ": 1192,
      "##S ": 1193,
      "##éd": 1194,
      "##utilisat": 1195,
      "##arti": 1196,
      "##faire ": 1197,
      "##voi": 1198,
      "##connexi": 1199,
      "##différen": 1200,
      "##up": 1201,
      "##éléments ": 1202,
      "##tâ": 1203,
      "##voir ": 1204,
      "##près ": 1205,
      "##group": 1206,
      "##bles ": 1207,
      "##ann": 1208,
      "##kon": 1209,
      "##lors ": 1210,
      "##a été ": 1211,
      "##barre d'": 1212,
      "##deux ": 1213,
      "##écri": 1214,
      "##cliquez ": 1215,
      "##tion du ": 1216,
      "##tribu": 1217,
      "##« 160 %1 160 »": 1218,
      "##pour le ": 1219,
      "##liste de ": 1220,
      "##we": 1221,
      "##ine ": 1222,
      "##ar ": 1223,
      "##. La ": 1224,
      "##or ": 1225,
      "##L ": 1226,
      "##tt": 1227,
      "##avec le ": 1228,
      "##cli": 1229,
      "##avoir ": 1230,
      "## de": 1231,
      "##un fichier ": 1232,
      "##160 » ": 1233,
      "##'est ": 1234,
      "##onne ": 1235,
      "##org": 1236,
      "##ist": 1237,
      "##install": 1238,
      "##quel": 1239,
      "Pour ": 1240,
      "##appara": 1241,
      "##tion des ": 1242,
      "## dossi": 1243,
      "##ence ": 1244,
      "##ches ": 1245,
      "##Com": 1246,
      "##sor": 1247,
      "##tion.": 1248,
      "##érifi": 1249,
      "##nouvelle ": 1250,
      "Mo": 1251,
      "##permet de ": 1252,
      "##ères ": 1253,
      "In": 1254,
      "##y a ": 1255,
      "##quel ": 1256,
      "##préc": 1257,
      "##atu": 1258,
      "##phéri": 1259,
      "##gi": 1260,
      "##f ": 1261,
      "##trans": 1262,
      "Ou": 1263,
      "##ci ": 1264,
      "##ok": 1265,
      "##où": 1266,
      "Utilis": 1267,
      "##gén": 1268,
      "##poli": 1269,
      "##modè": 1270,
      "##oin": 1271,
      "##opéra": 1272,
      "##2 ": 1273,
      "##options ": 1274,
      "##son ": 1275,
      "##vir": 1276,
      "##gauche ": 1277,
      "##rap": 1278,
      "Vous ": 1279,
      "##sieurs ": 1280,
      "##correc": 1281,
      "##sans ": 1282,
      "##tout ": 1283,
      "##four": 1284,
      "##personn": 1285,
      "##base ": 1286,
      "##\\\\": 1287,
      "##aires ": 1288,
      "##quer": 1289,
      "##éta": 1290,
      "##sul": 1291,
      "##fonction ": 1292,
      "##pour la ": 1293,
      "##e. C": 1294,
      "##configuration ": 1295,
      "##où ": 1296,
      "Cette ": 1297,
      "##ali": 1298,
      "##ven": 1299,
      "##der": 1300,
      "##affichage ": 1301,
      "##déplac": 1302,
      "##pression ": 1303,
      "##programme ": 1304,
      "##the ": 1305,
      "##oulez -vous ": 1306,
      "##pour": 1307,
      "##princi": 1308,
      "##ate ": 1309,
      "##En": 1310,
      "##configur": 1311,
      "##compl": 1312,
      "Un ": 1313,
      "##ler ": 1314,
      "##depuis ": 1315,
      "##e la ": 1316,
      "##aussi ": 1317,
      "##ra ": 1318,
      "##cat": 1319,
      "##figuration ": 1320,
      "##ris ": 1321,
      "##ffi": 1322,
      "##In": 1323,
      "##devez ": 1324,
      "##que les ": 1325,
      "##ors ": 1326,
      "##bli": 1327,
      "##envoy": 1328,
      "##ée.": 1329,
      "##rem": 1330,
      "##num": 1331,
      "##aire": 1332,
      "##tique ": 1333,
      "##scrip": 1334,
      "##e. V": 1335,
      "##erm": 1336,
      "##plusieurs ": 1337,
      "##que la ": 1338,
      "##périphéri": 1339,
      "Une ": 1340,
      "##3 ": 1341,
      "##imprim": 1342,
      "##automatiquement ": 1343,
      "##télé": 1344,
      "##sions ": 1345,
      "##trav": 1346,
      "##messages ": 1347,
      "##sous ": 1348,
      "##ouver": 1349,
      "##principa": 1350,
      "Si ": 1351,
      "##type ": 1352,
      "##alar": 1353,
      "##et les ": 1354,
      "##dans l'": 1355,
      "##correspond": 1356,
      "## dans la ": 1357,
      "##sélec": 1358,
      "##espa": 1359,
      "##et d'": 1360,
      "##avant ": 1361,
      "##P ": 1362,
      "##fenê": 1363,
      "##. Pour ": 1364,
      "##ez le ": 1365,
      "##permet": 1366,
      "Impossible d'": 1367,
      "##s-": 1368,
      "##ectu": 1369,
      "##tin": 1370,
      "##cur": 1371,
      "##able ": 1372,
      "##ail ": 1373,
      "##bure": 1374,
      "##ass": 1375,
      "##ocu": 1376,
      "##visi": 1377,
      "##D ": 1378,
      "##e le ": 1379,
      "##certa": 1380,
      "##rés": 1381,
      "##pag": 1382,
      "##identi": 1383,
      "##contient ": 1384,
      "##ants ": 1385,
      "##: / ": 1386,
      "##partie ": 1387,
      "##droi": 1388,
      "##apparaî": 1389,
      "##sur": 1390,
      "##. Si vous ": 1391,
      "##. D": 1392,
      "##propri": 1393,
      "##sur l'": 1394,
      "##utilisé ": 1395,
      "##nom ": 1396,
      "##liste des ": 1397,
      "##contrô": 1398,
      "##ari": 1399,
      "##sh": 1400,
      "##auc": 1401,
      "##face ": 1402,
      "##en utilisant ": 1403,
      "##main": 1404,
      "##souris ": 1405,
      "##tac": 1406,
      "##nes ": 1407,
      "##images ": 1408,
      "##qu'il ": 1409,
      "##jours ": 1410,
      "##application ": 1411,
      "##module ": 1412,
      "##dess": 1413,
      "##menu": 1414,
      "##également ": 1415,
      "##sus ": 1416,
      "##déj": 1417,
      "##ouvrir ": 1418,
      "## dans le ": 1419,
      "##lanc": 1420,
      "##aux": 1421,
      "##outils ": 1422,
      "##se": 1423,
      "##ses": 1424,
      "##dev": 1425,
      "##chiff": 1426,
      "## dossier ": 1427,
      "##dossiers ": 1428,
      "##passe ": 1429,
      "## 160:": 1430,
      "##proc": 1431,
      "##liquez ": 1432,
      "##antes ": 1433,
      "##dans les ": 1434,
      "En": 1435,
      "##els ": 1436,
      "##pour l'": 1437,
      "##clu": 1438,
      "##de données ": 1439,
      "##e. S": 1440,
      "##èmes ": 1441,
      "##ichier ": 1442,
      "##sem": 1443,
      "##oisissez ": 1444,
      "##exter": 1445,
      "##pendant ": 1446,
      "##. Si ": 1447,
      "##bas": 1448,
      "##fait ": 1449,
      "##cep": 1450,
      "##entrée ": 1451,
      "##UR": 1452,
      "##sur le bouton ": 1453,
      "##eure ": 1454,
      "##taille ": 1455,
      "##dem": 1456,
      "##ind": 1457,
      "##roit ": 1458,
      "##jus": 1459,
      "##Mo": 1460,
      "##tron": 1461,
      "##navi": 1462,
      "##courri": 1463,
      "##après ": 1464,
      "##mail": 1465,
      "##« 160 %1 160 » ": 1466,
      "##tionnaire ": 1467,
      "##enn": 1468,
      "##présen": 1469,
      "##vue ": 1470,
      "##can": 1471,
      "##éro": 1472,
      "##version ": 1473,
      "##paramètres ": 1474,
      "##hai": 1475,
      "##ez la ": 1476,
      "##régl": 1477,
      "##vel": 1478,
      "##ite ": 1479,
      "##rée ": 1480,
      "##que l'": 1481,
      "##effectu": 1482,
      "##alors ": 1483,
      "##partir ": 1484,
      "##raccour": 1485,
      "##emplacement ": 1486,
      "##fa": 1487,
      "##souhai": 1488,
      "##requ": 1489,
      "##pe": 1490,
      "##bor": 1491,
      "##sorti": 1492,
      "##> ": 1493,
      "Si vous ": 1494,
      "##aide ": 1495,
      "##format ": 1496,
      "##obj": 1497,
      "## de l'": 1498,
      "Ctrl ": 1499,
      "##cela ": 1500,
      "##peuvent être ": 1501,
      "##--": 1502,
      "##recherche ": 1503,
      "##velop": 1504,
      "Il ": 1505,
      "##connec": 1506,
      "##simpl": 1507,
      "##et la ": 1508,
      "##néc": 1509,
      "##te.": 1510,
      "Sélectionn": 1511,
      "##me": 1512,
      "##case ": 1513,
      "##teur de ": 1514,
      "##jour ": 1515,
      "##ME": 1516,
      "##abl": 1517,
      "##b ": 1518,
      "##port ": 1519,
      "##temps ": 1520,
      "##chaî": 1521,
      "##quelle ": 1522,
      "##derni": 1523,
      "##bes": 1524,
      "##ettre ": 1525,
      "##indiqu": 1526,
      "##atten": 1527,
      "##rig": 1528,
      "##saisir ": 1529,
      "Ac": 1530,
      "##affiche ": 1531,
      "##er à ": 1532,
      "##. A": 1533,
      "##ors": 1534,
      "##onglet ": 1535,
      "##jout": 1536,
      "##ées": 1537,
      "##niveau ": 1538,
      "##plan": 1539,
      "##eaux ": 1540,
      "##mainten": 1541,
      "##modifica": 1542,
      "##sous-": 1543,
      "##verti": 1544,
      "Ce ": 1545,
      "##. U": 1546,
      "##vérifi": 1547,
      "##êtes ": 1548,
      "##age": 1549,
      "##m ": 1550,
      "##icône ": 1551,
      "##action ": 1552,
      "##omb": 1553,
      "##stand": 1554,
      "##ordin": 1555,
      "##tes": 1556,
      "##sur les ": 1557,
      "##k ": 1558,
      "##existe ": 1559,
      "##que vous avez ": 1560,
      "##p: / ": 1561,
      "##de k": 1562,
      "##tabl": 1563,
      " k": 1564,
      "##le fichier ": 1565,
      "##Affich": 1566,
      "##quand ": 1567,
      "##ve": 1568,
      "##local": 1569,
      "##lecture ": 1570,
      "##à partir ": 1571,
      "##rreur ": 1572,
      "##électron": 1573,
      "##doit ": 1574,
      "##cul": 1575,
      "Ouv": 1576,
      "##eur.": 1577,
      "##connexion ": 1578,
      "##Qu": 1579,
      "##er de ": 1580,
      "##mul": 1581,
      "##èg": 1582,
      "##. Il ": 1583,
      "##précéd": 1584,
      "##probl": 1585,
      "##er et ": 1586,
      "##coup": 1587,
      "##4 ": 1588,
      "##pass": 1589,
      "##cet ": 1590,
      "##cas ": 1591,
      "##certi": 1592,
      "##artic": 1593,
      "##konquer": 1594,
      "##HT": 1595,
      "##graphique ": 1596,
      "##press": 1597,
      "##arch": 1598,
      "##réf": 1599,
      "##na": 1600,
      "##. E": 1601,
      "##velopp": 1602,
      "##quo": 1603,
      "##utilisée ": 1604,
      "##leur ": 1605,
      "##ère": 1606,
      "##5 ": 1607,
      "##syn": 1608,
      "##p ": 1609,
      "##oto": 1610,
      "##caractères ": 1611,
      "##endre ": 1612,
      "##et le ": 1613,
      "##en charg": 1614,
      "##renvoi": 1615,
      "##télécharg": 1616,
      "##év": 1617,
      "##rou": 1618,
      "##rel": 1619,
      "##code ": 1620,
      "##valeurs ": 1621,
      "##contac": 1622,
      "##ss": 1623,
      "##Comment": 1624,
      "##aisissez ": 1625,
      "##navig": 1626,
      "##rus": 1627,
      "Erreur ": 1628,
      "##tion d'": 1629,
      "##bien ": 1630,
      "##iqu": 1631,
      "##sélectionné": 1632,
      "##... ": 1633,
      "##simp": 1634,
      "##rê": 1635,
      "##fai": 1636,
      "##à d": 1637,
      "##cod": 1638,
      "##pen": 1639,
      "##manière ": 1640,
      "##papi": 1641,
      "##cliquant ": 1642,
      "##compte ": 1643,
      "##accès ": 1644,
      "##touche ": 1645,
      "##oris": 1646,
      "##160: %1": 1647,
      "##p: / /": 1648,
      "##ela ": 1649,
      "##paqu": 1650,
      "##mot de ": 1651,
      "##interface ": 1652,
      "##vrai": 1653,
      "##fourni": 1654,
      "##tés ": 1655,
      "##dre ": 1656,
      "##il est ": 1657,
      "##de fichiers ": 1658,
      "##dés": 1659,
      "##applications ": 1660,
      "##ign": 1661,
      "##seul": 1662,
      "##simplement ": 1663,
      "##part ": 1664,
      "##tho": 1665,
      "##lan": 1666,
      "##vari": 1667,
      "##\\t": 1668,
      "##t.": 1669,
      "##ron": 1670,
      "##Ch": 1671,
      "##arri": 1672,
      "##direc": 1673,
      "##secon": 1674,
      "##ML": 1675,
      "##couleurs ": 1676,
      "##documen": 1677,
      "## 160?": 1678,
      "Choisissez ": 1679,
      "##collec": 1680,
      "##ttp: / /": 1681,
      "##alit": 1682,
      "##ils ": 1683,
      "##section ": 1684,
      "##t-": 1685,
      "##manu": 1686,
      "##yez ": 1687,
      "##adresse ": 1688,
      "##besoin": 1689,
      "##bin": 1690,
      "##qui": 1691,
      "##à un ": 1692,
      "##uti": 1693,
      "##orm": 1694,
      "##. k": 1695,
      "##lib": 1696,
      "##nombre de ": 1697,
      "##résul": 1698,
      "##date ": 1699,
      "##peti": 1700,
      "##wh": 1701,
      "##core ": 1702,
      "##utilisateurs ": 1703,
      "##choisissez ": 1704,
      "##erreur ": 1705,
      "##ire ": 1706,
      "##par exemple ": 1707,
      "##%2 ": 1708,
      "##très ": 1709,
      "##bili": 1710,
      "##alité ": 1711,
      "##ww": 1712,
      "##appu": 1713,
      "##curs": 1714,
      "##AR": 1715,
      "##haut ": 1716,
      "##inclu": 1717,
      "##n'a ": 1718,
      "##utilisez ": 1719,
      "##projet ": 1720,
      "##toujours ": 1721,
      "##xim": 1722,
      "##fl": 1723,
      "##rapi": 1724,
      "##rusad": 1725,
      "##thè": 1726,
      "##cell": 1727,
      "##fu": 1728,
      "##e. P": 1729,
      "##lignes ": 1730,
      "##démarr": 1731,
      "##. Veuillez ": 1732,
      "##cochée ": 1733,
      "Com": 1734,
      "##par défaut": 1735,
      "##ath": 1736,
      "##ing": 1737,
      "##multi": 1738,
      "##de dé": 1739,
      "##moins ": 1740,
      "## docu": 1741,
      "##d' ": 1742,
      "##ci-": 1743,
      "##souhaitez ": 1744,
      "##commen": 1745,
      "##type de ": 1746,
      "##audi": 1747,
      "##struc": 1748,
      "##Re": 1749,
      "##document ": 1750,
      "##ini": 1751,
      "##boîte ": 1752,
      "##fication ": 1753,
      "##sty": 1754,
      "##photo": 1755,
      "##médi": 1756,
      "##pann": 1757,
      "##. Vous ": 1758,
      "##obten": 1759,
      "##de votre ": 1760,
      "##er ou ": 1761,
      "##le nom": 1762,
      "##attribu": 1763,
      "##compor": 1764,
      "##proj": 1765,
      "##forme ": 1766,
      "##tation": 1767,
      "##ens ": 1768,
      "##bureau ": 1769,
      "##vous permet de ": 1770,
      "##état ": 1771,
      "##premier ": 1772,
      "##tionne ": 1773,
      "##répon": 1774,
      "##. L'": 1775,
      "##clé ": 1776,
      "##eux": 1777,
      "##avier ": 1778,
      "##issant ": 1779,
      "##pli": 1780,
      "##dans une ": 1781,
      "##essi": 1782,
      "##nécess": 1783,
      "##actuellement ": 1784,
      "##lon": 1785,
      "##tes de ": 1786,
      "##objet ": 1787,
      "##e/ ": 1788,
      "##faç": 1789,
      "Saisissez ": 1790,
      "##en cour": 1791,
      "##dat": 1792,
      "##paquet": 1793,
      "##ille ": 1794,
      "##gran": 1795,
      "##ligne de ": 1796,
      "##avec les ": 1797,
      "##écran ": 1798,
      "##source ": 1799,
      "##dans un ": 1800,
      "##) renvoi": 1801,
      "##commandes ": 1802,
      "##nombre ": 1803,
      "##déjà ": 1804,
      "##mém": 1805,
      "##ha": 1806,
      "##é par ": 1807,
      "##périphérique ": 1808,
      "##envir": 1809,
      "##gestionnaire ": 1810,
      "##etc": 1811,
      "##clavier ": 1812,
      "##importe ": 1813,
      "Ex": 1814,
      "##annu": 1815,
      "##format": 1816,
      "##upprim": 1817,
      "##ale ": 1818,
      "##e)": 1819,
      "##AT": 1820,
      "##Configur": 1821,
      "Activ": 1822,
      "##fichier de ": 1823,
      "##ferm": 1824,
      "##rés ": 1825,
      "##kde. ": 1826,
      "##och": 1827,
      "##servi": 1828,
      "##barre de ": 1829,
      "##tions": 1830,
      "##ainsi ": 1831,
      "##er votre ": 1832,
      "##oire ": 1833,
      "##%3": 1834,
      "##proces": 1835,
      "##be ": 1836,
      "##Édi": 1837,
      "##ins": 1838,
      "##avec la ": 1839,
      "##champ ": 1840,
      "##Ou": 1841,
      "##raccourci": 1842,
      "##konqueror ": 1843,
      "##gni": 1844,
      "##est un ": 1845,
      "##part": 1846,
      "##but ": 1847,
      "##ur": 1848,
      "##sur un ": 1849,
      "##nous ": 1850,
      "##ret": 1851,
      "##Fichier ": 1852,
      "##oun": 1853,
      "##an ": 1854,
      "##table ": 1855,
      "##Al": 1856,
      "##re.": 1857,
      "##maxim": 1858,
      "##actif": 1859,
      "##ines ": 1860,
      "##bogu": 1861,
      "##appel": 1862,
      "##fenêtres ": 1863,
      "##ers": 1864,
      "##soci": 1865,
      "##vraiment ": 1866,
      "##suite ": 1867,
      "##gin": 1868,
      "##ev": 1869,
      "##dow": 1870,
      "##cô": 1871,
      "##espace ": 1872,
      "##initi": 1873,
      "##cus": 1874,
      "##propriét": 1875,
      "##prop": 1876,
      "##à jour ": 1877,
      "##éditeur ": 1878,
      "##personnalis": 1879,
      "##numéro": 1880,
      "##mot de passe ": 1881,
      "##net": 1882,
      "##ête ": 1883,
      "##e les ": 1884,
      "##signi": 1885,
      "##vu": 1886,
      "##cap": 1887,
      "##bas ": 1888,
      "##vers le ": 1889,
      "##ne sont ": 1890,
      "##messag": 1891,
      "##génér": 1892,
      "##semble ": 1893,
      "##tra": 1894,
      "##fenêtre de ": 1895,
      "##désactiv": 1896,
      "##ourn": 1897,
      "##seulement ": 1898,
      "##. N": 1899,
      "##vous devez ": 1900,
      "##pas de ": 1901,
      "##160!": 1902,
      "##liss": 1903,
      "##ement.": 1904,
      "Dans ": 1905,
      "##ce qui ": 1906,
      "##forum": 1907,
      "##des fichiers ": 1908,
      "##car ": 1909,
      "##righ": 1910,
      "##don": 1911,
      "##essay": 1912,
      "## démar": 1913,
      "##http: / /": 1914,
      "##. Cette ": 1915,
      "##journ": 1916,
      "##première ": 1917,
      "##jeu ": 1918,
      "Cliquez ": 1919,
      "##boutons ": 1920,
      "##istant ": 1921,
      "##compos": 1922,
      "##zone ": 1923,
      "## d'un ": 1924,
      "##ord ": 1925,
      "##n'importe ": 1926,
      "##sélectionné ": 1927,
      "##. Par ": 1928,
      "##ram": 1929,
      "##saisi": 1930,
      "##UP": 1931,
      "##Configuration ": 1932,
      "##les de ": 1933,
      "##lieu": 1934,
      "##contenu": 1935,
      "##règ": 1936,
      "##ard ": 1937,
      "##cach": 1938,
      "##avec un ": 1939,
      "##és.": 1940,
      "##sortie ": 1941,
      "## doit ": 1942,
      "##arrê": 1943,
      "##colonne ": 1944,
      "##copi": 1945,
      "##sélectionnez ": 1946,
      "##ock": 1947,
      "##maintenant ": 1948,
      "##archiv": 1949,
      "##indow": 1950,
      "##propr": 1951,
      "##ques": 1952,
      "##en cliquant ": 1953,
      "##info: ": 1954,
      "##chaîne ": 1955,
      "Veuillez ": 1956,
      "##ée": 1957,
      "##An": 1958,
      "##permettant ": 1959,
      "##tit": 1960,
      "##sionn": 1961,
      "##modèle ": 1962,
      "##imag": 1963,
      "##aper": 1964,
      "##simple ": 1965,
      "##fie ": 1966,
      "##sur une ": 1967,
      "##eau de ": 1968,
      "##cel": 1969,
      "Configuration ": 1970,
      "## - ": 1971,
      "##rage ": 1972,
      "##name ": 1973,
      "##les fichiers ": 1974,
      "##cette option est ": 1975,
      "##disponibles ": 1976,
      "##uniqu": 1977,
      "##eur de ": 1978,
      "Défini": 1979,
      "##point ": 1980,
      "##et l'": 1981,
      "##thème ": 1982,
      "##actuel": 1983,
      "##raccourcis ": 1984,
      "##as ": 1985,
      "##of ": 1986,
      "##environn": 1987,
      "##définir ": 1988,
      "##laquelle ": 1989,
      "##base de données ": 1990,
      "##aperç": 1991,
      "##cellu": 1992,
      "Re": 1993,
      "##kde": 1994,
      "##bri": 1995,
      "##F ": 1996,
      "##script ": 1997,
      "##lequel ": 1998,
      "##Ac": 1999,
      "##inu": 2000,
      "##action": 2001,
      "##produ": 2002,
      "##ais": 2003,
      "##lire ": 2004,
      "##c'est ": 2005,
      "##ées.": 2006,
      "##ement de ": 2007,
      "##mise ": 2008,
      "##esc": 2009,
      "##ex ": 2010,
      "##feu": 2011,
      "##èm": 2012,
      "##chos": 2013,
      "##sur votre ": 2014,
      "##filtre ": 2015,
      "##police ": 2016,
      "##ast": 2017,
      "##yrigh": 2018,
      "##boîte de dialogue de ": 2019,
      "##carte ": 2020,
      "##langu": 2021,
      "##de la souris ": 2022,
      "## ou ": 2023,
      "##standard": 2024,
      "##br": 2025,
      "##en d": 2026,
      "##oivent ": 2027,
      "##age de ": 2028,
      "##porter ": 2029,
      "##ations ": 2030,
      "##échou": 2031,
      "##entrées ": 2032,
      "##solu": 2033,
      "##externe ": 2034,
      "Lors": 2035,
      "##lle ": 2036,
      "##Ser": 2037,
      "##ésactiv": 2038,
      "##ation de ": 2039,
      "##vidé": 2040,
      "##identifi": 2041,
      "##position ": 2042,
      "##/ 160 ": 2043,
      "##aly": 2044,
      "##contex": 2045,
      "##complè": 2046,
      "##on d": 2047,
      "##dessus ": 2048,
      "##teurs ": 2049,
      "##albu": 2050,
      "##d'ex": 2051,
      "##ost": 2052,
      "##tâches ": 2053,
      "##ment.": 2054,
      "##. Voulez -vous ": 2055,
      "##eaucoup": 2056,
      "##réseau ": 2057,
      "##lat": 2058,
      "##gt ": 2059,
      "##tent ": 2060,
      "##vis": 2061,
      "##CD": 2062,
      "##rag": 2063,
      "##ateur de ": 2064,
      "##- - ": 2065,
      "##comm": 2066,
      "##logi": 2067,
      "##cr": 2068,
      "##= ": 2069,
      "##8 ": 2070,
      "##barre d'outils ": 2071,
      "##à ce ": 2072,
      "##. Ce ": 2073,
      "##fonctionnalit": 2074,
      "##étiqu": 2075,
      "##paramètre ": 2076,
      "##groupe ": 2077,
      "##objets ": 2078,
      "##sa ": 2079,
      "##heure ": 2080,
      "##yright ": 2081,
      "##disponible ": 2082,
      "##jusqu'": 2083,
      "Qu": 2084,
      "##) 200": 2085,
      "##té de ": 2086,
      "## d'une ": 2087,
      "##-t": 2088,
      "##ut": 2089,
      "##va ": 2090,
      "##nom de ": 2091,
      "##continu": 2092,
      "##électronique ": 2093,
      "##pression": 2094,
      "##e-papi": 2095,
      "##les": 2096,
      "##ne": 2097,
      "##é de ": 2098,
      "##associ": 2099,
      "##Inter": 2100,
      "##sau": 2101,
      "##160 / ": 2102,
      "##qu'un ": 2103,
      "##presse-papi": 2104,
      "##égori": 2105,
      "##recherch": 2106,
      "##demand": 2107,
      "##00 ": 2108,
      "##chois": 2109,
      "##métho": 2110,
      "##DI": 2111,
      "##avec une ": 2112,
      "##curseur ": 2113,
      "##centr": 2114,
      "##fix": 2115,
      "%1 ": 2116,
      "##clas": 2117,
      "##possible de ": 2118,
      "##ressour": 2119,
      "##net ": 2120,
      "##Dé": 2121,
      "##d'autres ": 2122,
      "##se trouv": 2123,
      "##marqu": 2124,
      "##niveau": 2125,
      "##ui ": 2126,
      "##tre": 2127,
      "##colonn": 2128,
      "Auc": 2129,
      "##par le ": 2130,
      "##courant": 2131,
      "##stock": 2132,
      "##session ": 2133,
      "##obtenir ": 2134,
      "##ente ": 2135,
      "##encod": 2136,
      "##plupart ": 2137,
      "Afficher les ": 2138,
      "##Kon": 2139,
      "##actions ": 2140,
      "##utilisateur": 2141,
      "##remplac": 2142,
      "##situ": 2143,
      "##omm": 2144,
      "##lorsque vous ": 2145,
      "##trai": 2146,
      "##un dossier ": 2147,
      "##utilise ": 2148,
      "##èn": 2149,
      "##plé": 2150,
      "##configuration de ": 2151,
      "##ilo": 2152,
      "##signifie ": 2153,
      "En ": 2154,
      "##trois ": 2155,
      "##aucune ": 2156,
      "##ile ": 2157,
      "##gér": 2158,
      "##pren": 2159,
      "##contenu ": 2160,
      "##ici": 2161,
      "##AN": 2162,
      "##ez les ": 2163,
      "##empl": 2164,
      "##contenant ": 2165,
      "##title": 2166,
      "##mes": 2167,
      "##Ex": 2168,
      "##érieur ": 2169,
      "##barre ": 2170,
      "##CUP": 2171,
      "##tâche ": 2172,
      "##alarme ": 2173,
      "##ME ": 2174,
      "##ed": 2175,
      "##courrier ": 2176,
      "## document ": 2177,
      "Cré": 2178,
      "##tée ": 2179,
      "##_B": 2180,
      "##C ": 2181,
      "##encore ": 2182,
      "##impression ": 2183,
      "##. Cela ": 2184,
      "##dér": 2185,
      "##ML ": 2186,
      "##er ce ": 2187,
      "##fonctions ": 2188,
      "Ouvre ": 2189,
      "##dont ": 2190,
      "##let": 2191,
      "##blio": 2192,
      "##AR_": 2193,
      "##ne sont pas ": 2194,
      "##iques ": 2195,
      "##Im": 2196,
      "##titre ": 2197,
      "##ceci ": 2198,
      "##choi": 2199,
      "##distribu": 2200,
      "Voulez -vous ": 2201,
      "##12": 2202,
      "##hô": 2203,
      "##ts de ": 2204,
      "##icônes ": 2205,
      "##boresc": 2206,
      "##norm": 2207,
      "##\" ": 2208,
      "##mbo": 2209,
      "##fin ": 2210,
      "##tion de la ": 2211,
      "##cup": 2212,
      "##saisissez ": 2213,
      "##KDE ": 2214,
      "##_BAR_": 2215,
      "##yn": 2216,
      "##pages ": 2217,
      "##ochez ": 2218,
      "Cop": 2219,
      "##ust": 2220,
      "##6 ": 2221,
      "##prendre ": 2222,
      "##cons": 2223,
      "##catégori": 2224,
      "Ajout": 2225,
      "##flu": 2226,
      "##qu'une ": 2227,
      "##) renvoie ": 2228,
      "##à droi": 2229,
      "##fer": 2230,
      "##agram": 2231,
      "##to ": 2232,
      "##travail": 2233,
      "##chron": 2234,
      "##en charge ": 2235,
      "##Ctrl ": 2236,
      "##ing ": 2237,
      "##valabl": 2238,
      "##160 ».": 2239,
      "##osi": 2240,
      "##en-t": 2241,
      "##de la fenêtre ": 2242,
      "## 160 ».": 2243,
      "##modifications ": 2244,
      "##-200": 2245,
      "##mail ": 2246,
      "##cil": 2247,
      "##riez ": 2248,
      "##connu": 2249,
      "##aucun ": 2250,
      "##confi": 2251,
      "##n'avez ": 2252,
      "##e. Vous pouvez ": 2253,
      "##analy": 2254,
      "##touches ": 2255,
      "##e. Les ": 2256,
      "##e. La ": 2257,
      "##gé": 2258,
      "##10": 2259,
      "## di": 2260,
      "##tiques ": 2261,
      "##lors de l'": 2262,
      "##ts": 2263,
      "##SL": 2264,
      "##arboresc": 2265,
      "##à une ": 2266,
      "##développ": 2267,
      "##dist": 2268,
      "##droite ": 2269,
      "## dis": 2270,
      "##fond": 2271,
      "##à l'aide ": 2272,
      "##CD ": 2273,
      "##rement ": 2274,
      "##discus": 2275,
      "##biblio": 2276,
      "##n'a pas ": 2277,
      "##IN": 2278,
      "##origin": 2279,
      "##e. Le ": 2280,
      "##lors de la ": 2281,
      "##piè": 2282,
      "##filtr": 2283,
      "##Nouv": 2284,
      "##us ": 2285,
      "##Utilis": 2286,
      "##descrip": 2287,
      "##Édition ": 2288,
      "##ke": 2289,
      "##omman": 2290,
      "##doit être ": 2291,
      "##balis": 2292,
      "##a échou": 2293,
      "##web": 2294,
      "##gestionnaire de ": 2295,
      "##en mode ": 2296,
      "##comment ": 2297,
      "##ant la ": 2298,
      "##nouveaux ": 2299,
      "##signatu": 2300,
      "##quelques ": 2301,
      "##ci-dess": 2302,
      "Pro": 2303,
      "##Open": 2304,
      "##limi": 2305,
      "##systèmes ": 2306,
      "##caractère ": 2307,
      "##de.": 2308,
      "##l'option ": 2309,
      "##est une ": 2310,
      "##noms ": 2311,
      "##er le fichier ": 2312,
      "##s'il ": 2313,
      "##beaucoup": 2314,
      "##dimen": 2315,
      "##du fichier ": 2316,
      "##vit": 2317,
      "##particu": 2318,
      "##stru": 2319,
      "##dernière ": 2320,
      "##X ": 2321,
      "##chec": 2322,
      "##. R": 2323,
      "##cette case ": 2324,
      "##plupart des ": 2325,
      "##til ": 2326,
      "##vers la ": 2327,
      "##certains ": 2328,
      "##er vos ": 2329,
      "##est le ": 2330,
      "##ne peut ": 2331,
      "##profil": 2332,
      "##appliqu": 2333,
      "##toco": 2334,
      "##URL": 2335,
      "##s)": 2336,
      "##mettre ": 2337,
      "##Pro": 2338,
      "##rationn": 2339,
      "##sélection ": 2340,
      "##de de ": 2341,
      "##log": 2342,
      "Modifi": 2343,
      "##contrôle ": 2344,
      "##contextu": 2345,
      "##celle ": 2346,
      "##moy": 2347,
      "##MI": 2348,
      "##ot": 2349,
      "##ant le ": 2350,
      "##compil": 2351,
      "##agend": 2352,
      "##emar": 2353,
      "##évèn": 2354,
      "##er 160?": 2355,
      "##alla": 2356,
      "##duc": 2357,
      "##sol": 2358,
      "##référen": 2359,
      "##processus ": 2360,
      "##é dans ": 2361,
      "##. T": 2362,
      "##et des ": 2363,
      "##auteur ": 2364,
      "##. Ceci ": 2365,
      "##19": 2366,
      "##détail": 2367,
      "##par un ": 2368,
      "##si le ": 2369,
      "##logici": 2370,
      "##tat ": 2371,
      "##fourn": 2372,
      "##tor": 2373,
      "##du texte ": 2374,
      "##autoris": 2375,
      "##automatique ": 2376,
      "##celui ": 2377,
      "##plément": 2378,
      "##s) ": 2379,
      "##krusad": 2380,
      "##dans le menu ": 2381,
      "##ém": 2382,
      "##vrait ": 2383,
      "##certifica": 2384,
      "##ach": 2385,
      "##souv": 2386,
      "##pris ": 2387,
      "##HTML": 2388,
      "##ir": 2389,
      "##réc": 2390,
      "##correspond ": 2391,
      "##doivent ": 2392,
      "##leurs ": 2393,
      "##mot ": 2394,
      "##donc ": 2395,
      "##exist": 2396,
      "##emplac": 2397,
      "##tuellement ": 2398,
      "##ennem": 2399,
      "##pre": 2400,
      "##%1.": 2401,
      "##spa": 2402,
      "##hori": 2403,
      "##Maj": 2404,
      "##KP": 2405,
      "##pour affich": 2406,
      "##suivant": 2407,
      "##Sten": 2408,
      "##. mail": 2409,
      "##ts (": 2410,
      "##carn": 2411,
      "##fonctionnalités ": 2412,
      "##cils": 2413,
      "##Stencils": 2414,
      "##hor": 2415,
      "Modu": 2416,
      "##PG": 2417,
      "##tis": 2418,
      "##tro": 2419,
      "##tra ": 2420,
      "## du": 2421,
      "##séqu": 2422,
      "##façon ": 2423,
      "##Scrip": 2424,
      "##systèm": 2425,
      "##aî": 2426,
      "##destin": 2427,
      "## depuis ": 2428,
      "##cou": 2429,
      "##err": 2430,
      "##condi": 2431,
      "##procha": 2432,
      "##ll": 2433,
      "##tive ": 2434,
      "##clic": 2435,
      "##acti": 2436,
      "Cochez ": 2437,
      "##e...": 2438,
      "##sélectionnée ": 2439,
      "##accéd": 2440,
      "##seule ": 2441,
      "##opération ": 2442,
      "##DV": 2443,
      "##out ": 2444,
      "##lab": 2445,
      "##anci": 2446,
      "##problème ": 2447,
      "##ez un ": 2448,
      "##une nouvelle ": 2449,
      "##fin de ": 2450,
      "##permettant de ": 2451,
      "##sta": 2452,
      "##option": 2453,
      "La fonction ": 2454,
      "##copie ": 2455,
      "##sel": 2456,
      "##je ": 2457,
      "##compa": 2458,
      "##calcul": 2459,
      "##article ": 2460,
      "##kde. org": 2461,
      "##ris": 2462,
      "##vous avez ": 2463,
      "##changements ": 2464,
      "##si vous voulez ": 2465,
      "##ather ": 2466,
      "##uniquement ": 2467,
      "##his": 2468,
      "##.. ": 2469,
      "##sépa": 2470,
      "##vec": 2471,
      "##à votre ": 2472,
      "##lectu": 2473,
      "Impossible de trouv": 2474,
      "##ordinateur ": 2475,
      "##style ": 2476,
      "##ter le ": 2477,
      "##« 160 %1 160 ».": 2478,
      "##utile ": 2479,
      "##int ": 2480,
      "##d'informations ": 2481,
      "##symbo": 2482,
      "##fichiers": 2483,
      "##weather ": 2484,
      "Ceci ": 2485,
      "##os ": 2486,
      "##file ": 2487,
      "##ables ": 2488,
      "##. Dans ": 2489,
      "##sur ce ": 2490,
      "##fonctionne ": 2491,
      "##défaut ": 2492,
      "##articles ": 2493,
      "##commenc": 2494,
      "##off": 2495,
      "##yer ": 2496,
      "##MA": 2497,
      "##clavi": 2498,
      "##que vous voulez ": 2499,
      "##système de ": 2500,
      "##ount ": 2501,
      "##offi": 2502,
      "##apparaît ": 2503,
      "##initialis": 2504,
      "##eus": 2505,
      "##à utiliser ": 2506,
      "##URL ": 2507,
      "##propriétés ": 2508,
      "##e) ": 2509,
      "##e. D": 2510,
      "##supplément": 2511,
      "##rouill": 2512,
      "##titu": 2513,
      "##actuelle ": 2514,
      "##gauch": 2515,
      "##travail ": 2516,
      "##dessin": 2517,
      "##list": 2518,
      "##exten": 2519,
      "##affichée ": 2520,
      "##nouvelles ": 2521,
      "##zone de ": 2522,
      "##protoco": 2523,
      "##avec l'": 2524,
      "##sélectionner ": 2525,
      "Op": 2526,
      "##ck": 2527,
      "##9 ": 2528,
      "##quan": 2529,
      "##configu": 2530,
      "##volu": 2531,
      "##mas": 2532,
      "##tat": 2533,
      "##proba": 2534,
      "##ep": 2535,
      "##outil ": 2536,
      "##pare": 2537,
      "##site ": 2538,
      "##d'ab": 2539,
      "##qui est ": 2540,
      "##s'ag": 2541,
      "##oo": 2542,
      "##1.": 2543,
      "##ensuite ": 2544,
      "##installa": 2545,
      "##tec": 2546,
      "##ve ": 2547,
      "##pour une ": 2548,
      "##rées ": 2549,
      "##avec des ": 2550,
      "##suivant ": 2551,
      "##suivante ": 2552,
      "##\\t\\t": 2553,
      "##otez ": 2554,
      "##le texte ": 2555,
      "##sais": 2556,
      "##préf": 2557,
      "##rapport ": 2558,
      "##ew": 2559,
      "##ficat": 2560,
      "##mini": 2561,
      "##pix": 2562,
      "##der ": 2563,
      "##. M": 2564,
      "##160 / 160 ": 2565,
      "##différents ": 2566,
      "##écrire ": 2567,
      "##polices ": 2568,
      "##0.": 2569,
      "##chronis": 2570,
      "##ed ": 2571,
      "##dans votre ": 2572,
      "##op ": 2573,
      "##bul": 2574,
      "Affiche ": 2575,
      "##opérations ": 2576,
      "##particuli": 2577,
      "##at ": 2578,
      "##et en ": 2579,
      "##é à ": 2580,
      "##tax": 2581,
      "##activée ": 2582,
      "##joueur ": 2583,
      "##projet": 2584,
      "##certificat ": 2585,
      "##gère ": 2586,
      "##Su": 2587,
      "##s/ ": 2588,
      "##via ": 2589,
      "##ppp ": 2590,
      "##client ": 2591,
      "Impossible d'ouvrir ": 2592,
      "##quot ": 2593,
      "##rom": 2594,
      "##Ajout": 2595,
      "##. com": 2596,
      "##inf": 2597,
      "##valable ": 2598,
      "##ennent ": 2599,
      "##réglages ": 2600,
      "##tm": 2601,
      "##OR": 2602,
      "##KM": 2603,
      "##au-": 2604,
      "##de l' ": 2605,
      "##nouveau": 2606,
      "##permet d'": 2607,
      "Fichier ": 2608,
      "##trac": 2609,
      "##que de ": 2610,
      "##que vous pouvez ": 2611,
      "##fenêtr": 2612,
      "##ligne de commande ": 2613,
      "##title: ": 2614,
      "##horizon": 2615,
      "##7 ": 2616,
      "##Serv": 2617,
      "##ara": 2618,
      "##-ci ": 2619,
      "##I ": 2620,
      "##n'y a ": 2621,
      "##bibliothè": 2622,
      "##larg": 2623,
      "##sécu": 2624,
      "##Au": 2625,
      "##cule ": 2626,
      "##barres ": 2627,
      "##disponibl": 2628,
      "##istori": 2629,
      "##vitess": 2630,
      "##ty": 2631,
      "##sû": 2632,
      "##IP": 2633,
      "##un des ": 2634,
      "##organ": 2635,
      "Supprim": 2636,
      "##une boîte de dialogue ": 2637,
      "##fonctionnalité ": 2638,
      "##c) 200": 2639,
      "##ande ": 2640,
      "##clés ": 2641,
      "##ordre ": 2642,
      "##www": 2643,
      "##la boîte de dialogue ": 2644,
      "##détermin": 2645,
      "##tem": 2646,
      "##ensemble ": 2647,
      "##emment ": 2648,
      "##qui sont ": 2649,
      "##pec": 2650,
      "##aires": 2651,
      "##conf": 2652,
      "##e. Si ": 2653,
      "##be": 2654,
      "##utilisation": 2655,
      "##color": 2656,
      "##champs ": 2657,
      "##album": 2658,
      "##rent ": 2659,
      "##auth": 2660,
      "##ant de ": 2661,
      "##choisi": 2662,
      "##rappor": 2663,
      "##EX": 2664,
      "##er pour ": 2665,
      "##em ": 2666,
      "##points ": 2667,
      "##différentes ": 2668,
      "##ignor": 2669,
      "##ide ": 2670,
      "##concer": 2671,
      "##er un nouveau ": 2672,
      "##mu": 2673,
      "##join": 2674,
      "##erez ": 2675,
      "##argu": 2676,
      "##star": 2677,
      "##er une nouvelle ": 2678,
      "##meill": 2679,
      "##ces": 2680,
      "##Linu": 2681,
      "##représen": 2682,
      "##cache ": 2683,
      "##import": 2684,
      "##. Une ": 2685,
      "##syntax": 2686,
      "##ig": 2687,
      "##conserv": 2688,
      "##cale ": 2689,
      "##ont été ": 2690,
      "##cliquer ": 2691,
      "##veg": 2692,
      "##certificat": 2693,
      "##. Par exemple ": 2694,
      "##piste ": 2695,
      "##sc": 2696,
      "##é en ": 2697,
      "##rép": 2698,
      "##version": 2699,
      "##modules ": 2700,
      "##pourrez ": 2701,
      "##e. Pour ": 2702,
      "##lettres ": 2703,
      "##vide ": 2704,
      "##disque ": 2705,
      "##utilisé pour ": 2706,
      "##utilisée pour ": 2707,
      "##annul": 2708,
      "##non": 2709,
      "##inon ": 2710,
      "##orma": 2711,
      "##tâch": 2712,
      "Nomb": 2713,
      "##glo": 2714,
      "##coor": 2715,
      "##teur": 2716,
      "##ke ": 2717,
      "##E ": 2718,
      "##is.": 2719,
      "##issent ": 2720,
      "##cliquez sur ": 2721,
      "##« 160": 2722,
      "##} ": 2723,
      "##le dé": 2724,
      "##ettes ": 2725,
      "##partition ": 2726,
      "##déjà": 2727,
      "Ré": 2728,
      "## u": 2729,
      "##ances ": 2730,
      "##mots ": 2731,
      "##entre les ": 2732,
      "##ets": 2733,
      "##comment": 2734,
      "##ouvre ": 2735,
      "##cherch": 2736,
      "##Enregistr": 2737,
      "##habi": 2738,
      "##par l'": 2739,
      "##t. ": 2740,
      "##tal": 2741,
      "##er k": 2742,
      "##la valeur ": 2743,
      "##plat": 2744,
      "##oici ": 2745,
      "##utiliser le ": 2746,
      "##besoin de ": 2747,
      "##prend ": 2748,
      "##iers ": 2749,
      "##er cette ": 2750,
      "##des informations ": 2751,
      "##réalis": 2752,
      "##vers": 2753,
      "Le fichier ": 2754,
      "##imprimante ": 2755,
      "Ouvrir ": 2756,
      "##insér": 2757,
      "##environnement ": 2758,
      "##dimensionn": 2759,
      "##aff": 2760,
      "##AS": 2761,
      "##prise ": 2762,
      "##utilisées ": 2763,
      "##fournit ": 2764,
      "##TR": 2765,
      "##sélectionnés ": 2766,
      "##carnet d'": 2767,
      "##pex ": 2768,
      "##que": 2769,
      "##extr": 2770,
      "##ne pouvez ": 2771,
      "##utilisés ": 2772,
      "##iz": 2773,
      "##sch": 2774,
      "##el de ": 2775,
      "##décri": 2776,
      "##ant les ": 2777,
      "##/ sh": 2778,
      "Si cette option est ": 2779,
      "##what": 2780,
      "##en cours ": 2781,
      "##enne ": 2782,
      "##l'élément ": 2783,
      "##amar": 2784,
      "##évén": 2785,
      "##ré ": 2786,
      "##te la ": 2787,
      "##d'accès ": 2788,
      "##point": 2789,
      "##information ": 2790,
      "##suivantes ": 2791,
      "##collection ": 2792,
      "Voulez -vous vraiment ": 2793,
      "##ow": 2794,
      "##pis": 2795,
      "##combin": 2796,
      "##appar": 2797,
      "##nouvel ": 2798,
      "##avant de ": 2799,
      "##sauveg": 2800,
      "##miniatu": 2801,
      "##Window": 2802,
      "##dépend": 2803,
      "##er les fichiers ": 2804,
      "##été": 2805,
      "##programmes ": 2806,
      "##adresses ": 2807,
      "##erg": 2808,
      "##in uni": 2809,
      "##e. Si vous ": 2810,
      "##. En ": 2811,
      "##service ": 2812,
      "##ount in uni": 2813,
      "##ount in units (": 2814,
      "##roup": 2815,
      "##tation de ": 2816,
      "##) et ": 2817,
      "##nombr": 2818,
      "##intég": 2819,
      "##nécessaire ": 2820,
      "##bal": 2821,
      "##CO": 2822,
      "##pour chaque ": 2823,
      "##étoi": 2824,
      "##MP": 2825,
      "##Pr": 2826,
      "##omme ": 2827,
      "##al)": 2828,
      "##afficher ": 2829,
      "##blement ": 2830,
      "##formul": 2831,
      "##principal": 2832,
      "##panneau ": 2833,
      "##éma": 2834,
      "##IS": 2835,
      "##expression ": 2836,
      "##n'avez pas ": 2837,
      "##veuillez ": 2838,
      "##mon ": 2839,
      "##tera ": 2840,
      "##application": 2841,
      "##ppp": 2842,
      "##montre ": 2843,
      "##prime ": 2844,
      "##web ": 2845,
      "##aire.": 2846,
      "##module externe ": 2847,
      "##navigateur ": 2848,
      "##captu": 2849,
      "##d'abord ": 2850,
      "##amarok": 2851,
      "##autr": 2852,
      "## 160!": 2853,
      "##mach": 2854,
      "##place ": 2855,
      "##appuyez ": 2856,
      "%1": 2857,
      "##A ": 2858,
      "##pas être ": 2859,
      "##tions de ": 2860,
      "##amount in units (": 2861,
      "##hôte ": 2862,
      "##ax": 2863,
      "##plus de ": 2864,
      "##ajust": 2865,
      "##connecter ": 2866,
      "##documentation ": 2867,
      "## doit être ": 2868,
      "##whatst": 2869,
      "##dou": 2870,
      "##] ": 2871,
      "##ou d": 2872,
      "##ras": 2873,
      "##dési": 2874,
      "## 160: %1": 2875,
      "##programm": 2876,
      "##assistant ": 2877,
      "##certaines ": 2878,
      "##standard ": 2879,
      "##à droite ": 2880,
      "##gliss": 2881,
      "##bsp": 2882,
      "##histori": 2883,
      "##au moins ": 2884,
      "##. C'est ": 2885,
      "##contrôl": 2886,
      "##problèmes ": 2887,
      "##ter les ": 2888,
      "##à gauche ": 2889,
      "##tils ": 2890,
      "##tif ": 2891,
      "##cliquez sur le bouton ": 2892,
      "##principale ": 2893,
      "##souvent ": 2894,
      "##invi": 2895,
      "##un autre ": 2896,
      "##moment ": 2897,
      "##« 160 %2": 2898,
      "##vient ": 2899,
      "##eurs de ": 2900,
      "##de l'image ": 2901,
      "##ajouter ": 2902,
      "##dernier ": 2903,
      "##rela": 2904,
      "##son": 2905,
      "##nomm": 2906,
      "##érieure ": 2907,
      "##160 » pour ": 2908,
      "##était ": 2909,
      "##configuration": 2910,
      "##intér": 2911,
      "##variable ": 2912,
      "##audio": 2913,
      "##boîte à ": 2914,
      "Définir ": 2915,
      "##déroul": 2916,
      "##rest": 2917,
      "##directement ": 2918,
      "##résultat ": 2919,
      "##signature ": 2920,
      "##eu ": 2921,
      "##ai ": 2922,
      "##ple": 2923,
      "##appare": 2924,
      "##dans le dossier ": 2925,
      "##actuell": 2926,
      "##seul ": 2927,
      "##droits ": 2928,
      "##rapide ": 2929,
      "##er en ": 2930,
      "##erta": 2931,
      "##courant ": 2932,
      "##for ": 2933,
      "##graphiqu": 2934,
      "##généra": 2935,
      "##mémoire ": 2936,
      "##éli": 2937,
      "##2.": 2938,
      "##facil": 2939,
      "##suivants ": 2940,
      "##connexion": 2941,
      "##arrière": 2942,
      "##pilo": 2943,
      "##À ": 2944,
      "##e d'": 2945,
      "##de ce ": 2946,
      "##priv": 2947,
      "##l'affichage ": 2948,
      "##vous dev": 2949,
      "##converti": 2950,
      "##réseau": 2951,
      "##mat": 2952,
      "##h ": 2953,
      "##En ": 2954,
      "##qua": 2955,
      "##ack": 2956,
      "##nom d'": 2957,
      "##si la ": 2958,
      "An": 2959,
      "##ure ": 2960,
      "##+ ": 2961,
      "##lien ": 2962,
      "##é et ": 2963,
      "##minu": 2964,
      "##kde.": 2965,
      "##CUPS": 2966,
      "##faut ": 2967,
      "##PD": 2968,
      "##Jav": 2969,
      "##e pas ": 2970,
      "##inconnu": 2971,
      "##exp": 2972,
      "##avanc": 2973,
      "##capa": 2974,
      "##s'agit ": 2975,
      "##0x": 2976,
      "##M ": 2977,
      "##enc": 2978,
      "##le plus ": 2979,
      "##. org": 2980,
      "##accep": 2981,
      "##eurs": 2982,
      "##permet ": 2983,
      "##otre ": 2984,
      "##ter la ": 2985,
      "##erti": 2986,
      "##si vous avez ": 2987,
      "##effac": 2988,
      "Enregistr": 2989,
      "##résultat": 2990,
      "##longu": 2991,
      "##langue ": 2992,
      "Nom": 2993,
      "##ne sera ": 2994,
      "##il y a ": 2995,
      "## du fichier ": 2996,
      "##ministr": 2997,
      "##faites ": 2998,
      "##probablement ": 2999,
      "##ou le ": 3000,
      "##puis": 3001,
      "##qu'elle ": 3002,
      "##emarque ": 3003,
      "##/ shar": 3004,
      "##véri": 3005,
      "##rer ": 3006,
      "##Ma": 3007,
      "##ez l'": 3008,
      "##que des ": 3009,
      "##é le ": 3010,
      "##tempor": 3011,
      "##whatsthis": 3012,
      "##ies ": 3013,
      "##tar": 3014,
      "##T ": 3015,
      "##ises ": 3016,
      "##d'impression ": 3017,
      "##dans ce ": 3018,
      "##active ": 3019,
      "##authenti": 3020,
      "##la fenêtre ": 3021,
      "##expor": 3022,
      "##regis": 3023,
      "##calend": 3024,
      "##da": 3025,
      "##gm": 3026,
      "##heur": 3027,
      "##kt": 3028,
      "##UN": 3029,
      "##ôt ": 3030,
      "##appropri": 3031,
      "##ou une ": 3032,
      "##accessi": 3033,
      "##bureau": 3034,
      "##audio ": 3035,
      "##réponse ": 3036,
      "##pour un ": 3037,
      "##défin": 3038,
      "##n'existe ": 3039,
      "##text": 3040,
      "##échelle ": 3041,
      "##quoi ": 3042,
      "##name": 3043,
      "##Une ": 3044,
      "##déc": 3045,
      "##ée de ": 3046,
      "##sélectionnant ": 3047,
      "## défini": 3048,
      "##enregistrement ": 3049,
      "##actuel ": 3050,
      "##vidéo": 3051,
      "Al": 3052,
      "##tan": 3053,
      "##Te": 3054,
      "##affichera ": 3055,
      "##périphériques ": 3056,
      "##Script ": 3057,
      "##nbsp": 3058,
      "##ki": 3059,
      "##B ": 3060,
      "##() ": 3061,
      "##au format ": 3062,
      "##montr": 3063,
      "##alarmes ": 3064,
      "##Modifi": 3065,
      "##deux": 3066,
      "##Des": 3067,
      "##quit": 3068,
      "##ez une ": 3069,
      "##s'est ": 3070,
      "##paquetage ": 3071,
      "##ase ": 3072,
      "##éles": 3073,
      "##/ L": 3074,
      "##types ": 3075,
      "Il y a ": 3076,
      "##référ": 3077,
      "##synchronis": 3078,
      "##comportement ": 3079,
      "##concern": 3080,
      "##ée. ": 3081,
      "##jet": 3082,
      "##Ar": 3083,
      "##diffi": 3084,
      "##publi": 3085,
      "##types de ": 3086,
      "##t-être ": 3087,
      "##feuil": 3088,
      "##au lieu": 3089,
      "##phra": 3090,
      "##160? ": 3091,
      "##clic ": 3092,
      "##correspondant ": 3093,
      "##colonnes ": 3094,
      "##affec": 3095,
      "##soi": 3096,
      "##eb": 3097,
      "##Cop": 3098,
      "##elli": 3099,
      "##digi": 3100,
      "##ble.": 3101,
      "##cartes ": 3102,
      "Démar": 3103,
      "##canal ": 3104,
      "##registre ": 3105,
      "##itre ": 3106,
      "##x de ": 3107,
      "##Le ": 3108,
      "##s et ": 3109,
      "##chap": 3110,
      "##bouton d": 3111,
      "##session": 3112,
      "##cellule ": 3113,
      "##cc": 3114,
      "##équi": 3115,
      "##au dé": 3116,
      "##rapp": 3117,
      "##utilisation ": 3118,
      "##appname ": 3119,
      "##item": 3120,
      "##quels ": 3121,
      "##numéri": 3122,
      "##documentation": 3123,
      "##Maj ": 3124,
      "##ier": 3125,
      "##idé": 3126,
      "##er tous les ": 3127,
      "##liens ": 3128,
      "##diagram": 3129,
      "##des données ": 3130,
      "##recomman": 3131,
      "##graphiques ": 3132,
      "##système de fichiers ": 3133,
      "##fichier.": 3134,
      "##partag": 3135,
      "##n'importe quel ": 3136,
      "##selon ": 3137,
      "##ili": 3138,
      "##Alt ": 3139,
      "##el.": 3140,
      "##ichiers ": 3141,
      "##démarrage ": 3142,
      "##onglets ": 3143,
      "##écrit ": 3144,
      "##visu": 3145,
      "##a échoué": 3146,
      "##pe ": 3147,
      "##Op": 3148,
      "##Post": 3149,
      "##re les ": 3150,
      "##en haut ": 3151,
      "##ou la ": 3152,
      "##affichées ": 3153,
      "## d'autres ": 3154,
      "##endroit ": 3155,
      "##administr": 3156,
      "##transla": 3157,
      "##espaces ": 3158,
      "##doivent être ": 3159,
      "##si les ": 3160,
      "##petite ": 3161,
      "##agenda ": 3162,
      "Module ": 3163,
      "##ien ": 3164,
      "##set": 3165,
      "##100": 3166,
      "##aurez ": 3167,
      "Afficher la ": 3168,
      "##aperçu ": 3169,
      "##encodage ": 3170,
      "Eff": 3171,
      "Échec": 3172,
      "##-plan": 3173,
      "##Supprim": 3174,
      "##mi ": 3175,
      "##ents ": 3176,
      "##rais": 3177,
      "##pla": 3178,
      "##ant.": 3179,
      "##venir ": 3180,
      "##depuis le ": 3181,
      "##méthode ": 3182,
      "##protocole ": 3183,
      "##e: ": 3184,
      "##N ": 3185,
      "##ou des ": 3186,
      "##pour vous ": 3187,
      "##versions ": 3188,
      "##poss": 3189,
      "Indi": 3190,
      "##arborescence ": 3191,
      "##boîte à miniatu": 3192,
      "##i-": 3193,
      "##possible d'": 3194,
      "##dossier": 3195,
      "##documents ": 3196,
      "##correctement ": 3197,
      "##configurer ": 3198,
      "##raccourci ": 3199,
      "##bouton droit ": 3200,
      "##radi": 3201,
      "##tion de l'": 3202,
      "##en tant ": 3203,
      "##données": 3204,
      "##minim": 3205,
      "##ordinat": 3206,
      "Quand ": 3207,
      "##/ share/ ": 3208,
      "##ront ": 3209,
      "##la couleur ": 3210,
      "##e. Il ": 3211,
      "##bloc": 3212,
      "##possibili": 3213,
      "##menu contextu": 3214,
      "##barre d'outil": 3215,
      "##quelque ": 3216,
      "##chiffrement ": 3217,
      "##coordonnées ": 3218,
      "##3.": 3219,
      "##. Cliquez ": 3220,
      "##signets ": 3221,
      "##calendri": 3222,
      "##ément ": 3223,
      "##redimensionn": 3224,
      "##atte": 3225,
      "##état": 3226,
      "##filtres ": 3227,
      "##chose ": 3228,
      "##choix ": 3229,
      "##www. ": 3230,
      "Nouv": 3231,
      "##er (": 3232,
      "##coû": 3233,
      "##apparaître ": 3234,
      "##possè": 3235,
      "##Th": 3236,
      "##fil ": 3237,
      "##pour ce ": 3238,
      "##décl": 3239,
      "Impor": 3240,
      "##dans la liste ": 3241,
      "##lev": 3242,
      "##ainten": 3243,
      "##Affichage ": 3244,
      "##maximum": 3245,
      "##ie": 3246,
      "##chem": 3247,
      "##devrait ": 3248,
      "##présent": 3249,
      "Vous avez ": 3250,
      "##envoi": 3251,
      "##age.": 3252,
      "##modifier les ": 3253,
      "##pério": 3254,
      "##Ouv": 3255,
      "##Konquer": 3256,
      "Coul": 3257,
      "##oom": 3258,
      "##mit": 3259,
      "##reç": 3260,
      "##du serveur ": 3261,
      "##. Un ": 3262,
      "##média ": 3263,
      "##saisie ": 3264,
      "##vec ": 3265,
      "##ula": 3266,
      "##sér": 3267,
      "##ez -": 3268,
      "##pouvoir ": 3269,
      "##impression": 3270,
      "##ou les ": 3271,
      "Impossible de cré": 3272,
      "Configur": 3273,
      "##écran de ": 3274,
      "##liste de lecture ": 3275,
      "##index": 3276,
      "##flè": 3277,
      "##barres d'": 3278,
      "##tage ": 3279,
      "##mouv": 3280,
      "##OS": 3281,
      "##KS": 3282,
      "##les plus ": 3283,
      "##un nouveau ": 3284,
      "##tations ": 3285,
      "##parties ": 3286,
      "(c) 200": 3287,
      "##mor": 3288,
      "##11": 3289,
      "##heu": 3290,
      "##window": 3291,
      "##Un ": 3292,
      "##consul": 3293,
      "##laiss": 3294,
      "##avec le B": 3295,
      "##propre ": 3296,
      "##info: whatsthis": 3297,
      "##soient ": 3298,
      "##tomb": 3299,
      "##Str": 3300,
      "##yst": 3301,
      "##er au ": 3302,
      "##super": 3303,
      "##hel": 3304,
      "##« ": 3305,
      "##ID": 3306,
      "##tru": 3307,
      "##l'emplacement ": 3308,
      "##blanc": 3309,
      "##propres ": 3310,
      "##identifiant ": 3311,
      "##struire ": 3312,
      "##a.": 3313,
      "##éti": 3314,
      "##htm": 3315,
      "##Ad": 3316,
      "##PN": 3317,
      "##K3": 3318,
      "##er automatiquement ": 3319,
      "##erci": 3320,
      "##détec": 3321,
      "##ne pas ": 3322,
      "##noms de ": 3323,
      "##affichés ": 3324,
      "##courante ": 3325,
      "##sole ": 3326,
      "##nécessi": 3327,
      "##multip": 3328,
      "##choisissant ": 3329,
      "##gri": 3330,
      "##tori": 3331,
      "##ependant ": 3332,
      "##( ": 3333,
      "## des": 3334,
      "##consi": 3335,
      "##mani": 3336,
      "## dans l'": 3337,
      "##tool": 3338,
      "##pressions ": 3339,
      "##point de ": 3340,
      "##exécuter ": 3341,
      "Cette option ": 3342,
      "##menus ": 3343,
      "##lex": 3344,
      "##ER": 3345,
      "##erni": 3346,
      "##ez pas ": 3347,
      "##succ": 3348,
      "## 160 / ": 3349,
      "##rédu": 3350,
      "##ement du ": 3351,
      "##par la ": 3352,
      "##phon": 3353,
      "Déplac": 3354,
      "## dev": 3355,
      "##existe déjà": 3356,
      "##presse-papiers ": 3357,
      "##courrier électronique ": 3358,
      "##pistes ": 3359,
      "##vaut ": 3360,
      "##rendre ": 3361,
      "##ju": 3362,
      "##er. ": 3363,
      "##pay": 3364,
      "##donnée ": 3365,
      "##se trouve ": 3366,
      "##Uri": 3367,
      "##exUri": 3368,
      "##ou de ": 3369,
      "##modifier ": 3370,
      "##éditeur de ": 3371,
      "##contact ": 3372,
      "##199": 3373,
      "##/ LexUri": 3374,
      "##/ LexUriServ": 3375,
      "Fil": 3376,
      "##las": 3377,
      "##oy": 3378,
      "##kmail ": 3379,
      "##au démar": 3380,
      "##sique ": 3381,
      "##peut-être ": 3382,
      "##base de ": 3383,
      "##compati": 3384,
      "##TP": 3385,
      "##éris": 3386,
      "##touch": 3387,
      "##dans la fenêtre ": 3388,
      "##comme un ": 3389,
      "##virtu": 3390,
      "##ls ": 3391,
      "##Bo": 3392,
      "##voca": 3393,
      "##160: %1 ": 3394,
      "##toute ": 3395,
      "##simil": 3396,
      "##où vous ": 3397,
      "##en-tête ": 3398,
      "##matéri": 3399,
      "##og": 3400,
      "##Mon": 3401,
      "##pai": 3402,
      "##les informations ": 3403,
      "##et vous ": 3404,
      "##lit": 3405,
      "##est la ": 3406,
      "##ouvri": 3407,
      "## 160: %2": 3408,
      "Configura": 3409,
      "##cette option pour ": 3410,
      "##niveau de ": 3411,
      "##règles ": 3412,
      "Définit ": 3413,
      "##ressource ": 3414,
      "##flux ": 3415,
      "Voici ": 3416,
      "##é pour ": 3417,
      "Aucun ": 3418,
      "##facilement ": 3419,
      "##ib": 3420,
      "##tôt ": 3421,
      "##OF ": 3422,
      "##de configuration ": 3423,
      "##le dossier ": 3424,
      "##ray": 3425,
      "##d'affichage ": 3426,
      "##: in": 3427,
      "##té.": 3428,
      "##> lt ": 3429,
      "##journal": 3430,
      "##Internet ": 3431,
      "##discussion ": 3432,
      "##afin de ": 3433,
      "##SV": 3434,
      "##jam": 3435,
      "##exac": 3436,
      "##dans le fichier ": 3437,
      "##dessu": 3438,
      "##principale de ": 3439,
      "##cellules ": 3440,
      "##analyse ": 3441,
      "##App": 3442,
      "##à des ": 3443,
      "##d'édi": 3444,
      "##listes de ": 3445,
      "##ou un ": 3446,
      "##tivement ": 3447,
      "##serveur": 3448,
      "##lus ": 3449,
      "##Configuration Configur": 3450,
      "##sécuri": 3451,
      "##arrière-plan": 3452,
      "Sélec": 3453,
      "##aug": 3454,
      "##oct": 3455,
      "##info/ ": 3456,
      "##inden": 3457,
      "##- - - - ": 3458,
      "##key": 3459,
      "Ar": 3460,
      "##Les ": 3461,
      "##kno": 3462,
      "##IF": 3463,
      "##< ": 3464,
      "##le mode ": 3465,
      "##que.": 3466,
      "##real)": 3467,
      "##en bas ": 3468,
      "##qu'ils ": 3469,
      "##petit ": 3470,
      "##traduc": 3471,
      "##é dans la ": 3472,
      "##é dans le ": 3473,
      "##dire ": 3474,
      "Chang": 3475,
      "##rempli": 3476,
      "##oli": 3477,
      "##tées ": 3478,
      "##erie ": 3479,
      "##ter l'": 3480,
      "##contacts ": 3481,
      "##sauvegar": 3482,
      "##ps ": 3483,
      "##bes ": 3484,
      "##séri": 3485,
      "##No": 3486,
      "##25": 3487,
      "##Mi": 3488,
      "##prê": 3489,
      "##averti": 3490,
      "##l '": 3491,
      "##modifier la ": 3492,
      "##vous pouvez choisir ": 3493,
      "##installé ": 3494,
      "##virgu": 3495,
      "##curren": 3496,
      "##rapid": 3497,
      "##forums ": 3498,
      "##complètement ": 3499,
      "##combinais": 3500,
      "##lang": 3501,
      "##tel ": 3502,
      "##le nom ": 3503,
      "##tions.": 3504,
      "##lumin": 3505,
      "Afficher le ": 3506,
      "##vertical": 3507,
      "##veill": 3508,
      "##photo ": 3509,
      "##clavier": 3510,
      "##amount in units (real)": 3511,
      "##ées. ": 3512,
      "##%3 ": 3513,
      "##O ": 3514,
      "## diff": 3515,
      "##si l'": 3516,
      "##e. L'": 3517,
      "##krusader ": 3518,
      "##sûr ": 3519,
      "##vou": 3520,
      "##mp": 3521,
      "##et un ": 3522,
      "##ditionn": 3523,
      "##ourne ": 3524,
      "##. Ces ": 3525,
      "##indivi": 3526,
      "##tifs ": 3527,
      "##en utilisant le ": 3528,
      "##attribut ": 3529,
      "##label": 3530,
      "##sur ce bouton ": 3531,
      "##TRAN": 3532,
      "##appareil ": 3533,
      "##ad ": 3534,
      "##Co": 3535,
      "##EN": 3536,
      "##utiliser les ": 3537,
      "##ation du ": 3538,
      "##modèles ": 3539,
      "##permettent ": 3540,
      "##quatre ": 3541,
      "##emarque 160: ": 3542,
      "##ot ": 3543,
      "##opa": 3544,
      "##met": 3545,
      "##aid": 3546,
      "##cas": 3547,
      "##. Lors": 3548,
      "##écriture ": 3549,
      "##Quand ": 3550,
      "##HTML ": 3551,
      "##archive ": 3552,
      "##volume ": 3553,
      "##ne pouvez pas ": 3554,
      "##lettre ": 3555,
      "##unn": 3556,
      "##ent les ": 3557,
      "##améli": 3558,
      "##sélectionné.": 3559,
      "##élément": 3560,
      "##. Utilis": 3561,
      "##èrement ": 3562,
      "##appuy": 3563,
      "##par défaut.": 3564,
      "##paquetages ": 3565,
      "##ATOR": 3566,
      "##SLATOR": 3567,
      "##TRANSLATOR": 3568,
      "##amélior": 3569,
      "##TRANSLATORS": 3570,
      "Sup": 3571,
      "##Ré": 3572,
      "##Ter": 3573,
      "##EL": 3574,
      "##isco": 3575,
      "##la plus ": 3576,
      "##un document ": 3577,
      "##utiliser la ": 3578,
      "##écras": 3579,
      "##méta": 3580,
      "Vous devez ": 3581,
      "Sélectionnez ": 3582,
      "##côté ": 3583,
      "##aperçu": 3584,
      "##UNI": 3585,
      "##OF TRANSLATORS": 3586,
      "##bord": 3587,
      "##10 ": 3588,
      "##mandat": 3589,
      "##contenir ": 3590,
      "##attente ": 3591,
      "##attributs ": 3592,
      "##creus": 3593,
      "##yright 200": 3594,
      "##ci-dessou": 3595,
      "##individu": 3596,
      "Perm": 3597,
      "##ales ": 3598,
      "##glis": 3599,
      "##pu ": 3600,
      "## droit ": 3601,
      "##tach": 3602,
      "##« 160 P": 3603,
      "##qui vous ": 3604,
      "##classe ": 3605,
      "##Linux ": 3606,
      "##restau": 3607,
      "##pg": 3608,
      "##SQ": 3609,
      "##ma ": 3610,
      "##centre ": 3611,
      "##quelles ": 3612,
      "##agn": 3613,
      "##résolu": 3614,
      "##e. A": 3615,
      "##par les ": 3616,
      "##ation des ": 3617,
      "##etc.": 3618,
      "##beaucoup de ": 3619,
      "##telle ": 3620,
      "##haut": 3621,
      "##eur d'": 3622,
      "##emand": 3623,
      "##loc": 3624,
      "##adap": 3625,
      "##sources ": 3626,
      "##page de ": 3627,
      "##feuille ": 3628,
      "##bru": 3629,
      "##de menu ": 3630,
      "##ne peut être ": 3631,
      "##ou non ": 3632,
      "##que vous souhaitez ": 3633,
      "##er un fichier ": 3634,
      "##mètres ": 3635,
      "##serveur de ": 3636,
      "##articl": 3637,
      "##assez ": 3638,
      "##vant ": 3639,
      "##hoisissez ": 3640,
      "##AME ": 3641,
      "##mentation ": 3642,
      "##eci": 3643,
      "##sui": 3644,
      "##on de ": 3645,
      "##ce que ": 3646,
      "##permis": 3647,
      "##nombre d'": 3648,
      "##retourn": 3649,
      "##ci-dessous ": 3650,
      "##quanti": 3651,
      "Su": 3652,
      "##est de ": 3653,
      "##valid": 3654,
      "##format de ": 3655,
      "##ante": 3656,
      "##allez ": 3657,
      "## est un ": 3658,
      "Charg": 3659,
      "##icôn": 3660,
      "##imprimantes ": 3661,
      "##sous la ": 3662,
      "##externes ": 3663,
      "##Annu": 3664,
      "##savoir ": 3665,
      "##ceux ": 3666,
      "##éten": 3667,
      "##est cochée ": 3668,
      "##récep": 3669,
      "##tur": 3670,
      "##e. Cette ": 3671,
      "##mise à jour ": 3672,
      "##pièce ": 3673,
      "##au-dessus ": 3674,
      "##pseu": 3675,
      "##éat": 3676,
      "##de kde ": 3677,
      "##er à la ": 3678,
      "##pra": 3679,
      "##illes ": 3680,
      "##angle ": 3681,
      "##à l'int": 3682,
      "Affichage ": 3683,
      "##scripts ": 3684,
      "##juste ": 3685,
      "##électroniqu": 3686,
      "##160! ": 3687,
      "##référenti": 3688,
      "##péci": 3689,
      "##(%1": 3690,
      "##e des ": 3691,
      "##er toutes les ": 3692,
      "##qualité ": 3693,
      "##euses ": 3694,
      "##par une ": 3695,
      "##not ": 3696,
      "##prochaine ": 3697,
      "## de la ": 3698,
      "##! ": 3699,
      "##cad": 3700,
      "##appr": 3701,
      "##propos": 3702,
      "##jusqu'à ce ": 3703,
      "##condition": 3704,
      "##gen": 3705,
      "##ères": 3706,
      "##CI": 3707,
      "##un d": 3708,
      "##é la ": 3709,
      "##image": 3710,
      "##porte": 3711,
      "##disposi": 3712,
      "##outil de ": 3713,
      "##visible ": 3714,
      "##quand vous ": 3715,
      "##balise ": 3716,
      "##AME OF TRANSLATORS": 3717,
      "##cen": 3718,
      "##cent": 3719,
      "##ble": 3720,
      "##interval": 3721,
      "##renomm": 3722,
      "##ouvert ": 3723,
      "##réglage ": 3724,
      "##requête ": 3725,
      "##bordu": 3726,
      "##fermet": 3727,
      "##sen": 3728,
      "##mis ": 3729,
      "##12 ": 3730,
      "##%4": 3731,
      "##profil ": 3732,
      "##usr": 3733,
      "##interfac": 3734,
      "##e. Vous ": 3735,
      "##règle ": 3736,
      "##ui": 3737,
      "##cle ": 3738,
      "##de cette ": 3739,
      "##anim": 3740,
      "##rait ": 3741,
      "##une fois ": 3742,
      "##plutôt ": 3743,
      "##grande ": 3744,
      "##grand ": 3745,
      "##choisi ": 3746,
      "##confli": 3747,
      "##jamais ": 3748,
      "##ber": 3749,
      "##SS": 3750,
      "##zi": 3751,
      "##celles ": 3752,
      "##plain": 3753,
      "##des éléments ": 3754,
      "##par des ": 3755,
      "##elle est ": 3756,
      "##verrouill": 3757,
      "##ick": 3758,
      "##- > ": 3759,
      "##document": 3760,
      "##e. Veuillez ": 3761,
      "##vérifier ": 3762,
      "##. Il est ": 3763,
      "##numéro de ": 3764,
      "##gal": 3765,
      "##évi": 3766,
      "##L'": 3767,
      "##l'image ": 3768,
      "##concep": 3769,
      "##dépos": 3770,
      "##fonction": 3771,
      "La commande ": 3772,
      "##%2.": 3773,
      "Aucune ": 3774,
      "##analys": 3775,
      "##possède ": 3776,
      "##lég": 3777,
      "##nn": 3778,
      "##bon ": 3779,
      "##ft": 3780,
      "##aléat": 3781,
      "##immédi": 3782,
      "##n'a été ": 3783,
      "##de l'élément ": 3784,
      "##serveurs ": 3785,
      "##champ de ": 3786,
      "##lè": 3787,
      "##R ": 3788,
      "##ks": 3789,
      "##CV": 3790,
      "##59": 3791,
      "##const": 3792,
      "##er le dossier ": 3793,
      "##comme une ": 3794,
      "Cho": 3795,
      "##jeu de ": 3796,
      "##différences ": 3797,
      "##téléphon": 3798,
      "##fournir ": 3799,
      "##ennemis ": 3800,
      "##capture d'": 3801,
      "C'est ": 3802,
      "##doma": 3803,
      "##aiss": 3804,
      "##tous ": 3805,
      "##tourn": 3806,
      "##IMA": 3807,
      "##XML": 3808,
      "##enfonc": 3809,
      "##les données ": 3810,
      "##que votre ": 3811,
      "##dans lequel ": 3812,
      "##parais": 3813,
      "##trouver ": 3814,
      "##Configura": 3815,
      "##té du ": 3816,
      "##par défaut est ": 3817,
      "##pointeur ": 3818,
      "##présent ": 3819,
      "##configurer les ": 3820,
      "##ssement ": 3821,
      "Choisissez le ": 3822,
      "##détails ": 3823,
      "##organis": 3824,
      "##ros": 3825,
      "##DT": 3826,
      "##? ": 3827,
      "##Col": 3828,
      "##ez.": 3829,
      "##ce: ": 3830,
      "##facile ": 3831,
      "##tableau de ": 3832,
      "##konqueror": 3833,
      "##e. Par ": 3834,
      "##processu": 3835,
      "##habituellement ": 3836,
      "##bou": 3837,
      "##r.": 3838,
      "##onc": 3839,
      "##exte ": 3840,
      "##ant un ": 3841,
      "##ou en ": 3842,
      "##lecteur ": 3843,
      "##2001": 3844,
      "##ation.": 3845,
      "##priét": 3846,
      "Utilisez ": 3847,
      "##déplacer ": 3848,
      "##of the ": 3849,
      "##référence ": 3850,
      "##le.": 3851,
      "##US": 3852,
      "##impossible de ": 3853,
      "##par rapport ": 3854,
      "##er l'image ": 3855,
      "##noti": 3856,
      "##déroulante ": 3857,
      "Docu": 3858,
      "##uk": 3859,
      "##AP": 3860,
      "##Mar": 3861,
      "##la taille ": 3862,
      "##te le ": 3863,
      "##li ": 3864,
      "##limit": 3865,
      "##user ": 3866,
      "##travers ": 3867,
      "##choses ": 3868,
      "##activez ": 3869,
      "##bibliothèque ": 3870,
      "Au": 3871,
      "##So": 3872,
      "##zoom": 3873,
      "##fau": 3874,
      "##% ": 3875,
      "##oire": 3876,
      "##ée en ": 3877,
      "## 160 » et ": 3878,
      "##gnor": 3879,
      "##complet ": 3880,
      "##à partir de ": 3881,
      "##variables ": 3882,
      "##Outils ": 3883,
      "Aller ": 3884,
      "##t/ ": 3885,
      "##voul": 3886,
      "##rend": 3887,
      "##jec": 3888,
      "##HO": 3889,
      "##=\"": 3890,
      "##la liste des ": 3891,
      "##ez de ": 3892,
      "##ent pas ": 3893,
      "##du dossier ": 3894,
      "##affiché ": 3895,
      "##aille ": 3896,
      "##créer un ": 3897,
      "##couleur": 3898,
      "##transpar": 3899,
      "##alarm": 3900,
      "##ting": 3901,
      "##rationnelle ": 3902,
      "##lecture": 3903,
      "##vitesse ": 3904,
      "##rapidement ": 3905,
      "##ortho": 3906,
      "##de la liste ": 3907,
      "##avec succ": 3908,
      "##tives ": 3909,
      "##autour ": 3910,
      "##connexions ": 3911,
      "Une erreur ": 3912,
      "##ouverture ": 3913,
      "##apparaîtra ": 3914,
      "Lorsque ": 3915,
      "##distribution ": 3916,
      "##catégorie ": 3917,
      "##title: window": 3918,
      "##machine ": 3919,
      "Cisco": 3920,
      "##-je ": 3921,
      "##sinon ": 3922,
      "##Di": 3923,
      "##(en ": 3924,
      "##ecast": 3925,
      "##et une ": 3926,
      "##à prop": 3927,
      "##conséqu": 3928,
      "##forecast": 3929,
      "##indique ": 3930,
      "##bilité ": 3931,
      "##confir": 3932,
      "##weather forecast": 3933,
      "##trop ": 3934,
      "##la commande ": 3935,
      "##sub": 3936,
      "##pour plus ": 3937,
      "##du menu ": 3938,
      "##ture de ": 3939,
      "##durée ": 3940,
      "##reconn": 3941,
      "##souris": 3942,
      "##process": 3943,
      "##évènement ": 3944,
      "##vocabul": 3945,
      "##ds ": 3946,
      "##lin": 3947,
      "##gam": 3948,
      "##bran": 3949,
      "##scor": 3950,
      "##ey": 3951,
      "##équ": 3952,
      "## donn": 3953,
      "##nom du ": 3954,
      "##diffu": 3955,
      "##personnes ": 3956,
      "##depuis la ": 3957,
      "##seconde ": 3958,
      "##valable.": 3959,
      "##pièces ": 3960,
      "##ne peut pas ": 3961,
      "##supplémentaires ": 3962,
      "##droit ": 3963,
      "##ssa": 3964,
      "##ce.": 3965,
      "##DO": 3966,
      "##wrap": 3967,
      "##e plus ": 3968,
      "##d'entrée ": 3969,
      "##dit ": 3970,
      "##gramme ": 3971,
      "##personne ": 3972,
      "##nom de fichier ": 3973,
      "##CUPS ": 3974,
      "Cochez cette case ": 3975,
      "##DVD": 3976,
      "Cisco - ": 3977,
      "... ": 3978,
      "##ième ": 3979,
      "##ame ": 3980,
      "##te. ": 3981,
      "##cro": 3982,
      "##EG": 3983,
      "##XML ": 3984,
      "##Qt ": 3985,
      "##ration ": 3986,
      "##ant une ": 3987,
      "##appl": 3988,
      "##fichiers.": 3989,
      "##lorsque ": 3990,
      "##exécution ": 3991,
      "##sépara": 3992,
      "##interface graphique ": 3993,
      "##en tant que ": 3994,
      "##toutes ": 3995,
      "##RO": 3996,
      "##Mess": 3997,
      "##/ d": 3998,
      "##chac": 3999,
      "##sont les ": 4000,
      "##thèmes ": 4001,
      "##élécharg": 4002,
      "##configuration du ": 4003,
      "##nombres ": 4004,
      "##terminal ": 4005,
      "Il est ": 4006,
      "##gt lt ": 4007,
      "##largeur ": 4008,
      "##km": 4009,
      "##Uni": 4010,
      "##à-": 4011,
      "##$KDE": 4012,
      "##œ u": 4013,
      "##éché": 4014,
      "##structure ": 4015,
      "##services ": 4016,
      "##mise en ": 4017,
      "##normal": 4018,
      "##MIME": 4019,
      "##immédiat": 4020,
      "Cet ": 4021,
      "##tes.": 4022,
      "##20 ": 4023,
      "##e une ": 4024,
      "##estionnaire ": 4025,
      "##dic": 4026,
      "##pour votre ": 4027,
      "##exempl": 4028,
      "##manqu": 4029,
      "##modifier le ": 4030,
      "##composant ": 4031,
      "##offre ": 4032,
      "##certificats ": 4033,
      "##chapitre ": 4034,
      "##info/ plain": 4035,
      "Liste ": 4036,
      "##math": 4037,
      "##1/ ": 4038,
      "##) 160:": 4039,
      "##. I": 4040,
      "##incorrec": 4041,
      "##instruc": 4042,
      "##l'utilisateur ": 4043,
      "##age des ": 4044,
      "##vide.": 4045,
      "##qui sera ": 4046,
      "##message": 4047,
      "##er des fichiers ": 4048,
      "##gestion de ": 4049,
      "##modèle de ": 4050,
      "##extern": 4051,
      "##le nom du ": 4052,
      "##long": 4053,
      "##haque ": 4054,
      "##vidéo ": 4055,
      "##moyen ": 4056,
      "##weather condition": 4057,
      "##hom": 4058,
      "##word": 4059,
      "##er ici ": 4060,
      "##d'impor": 4061,
      "##à chaque ": 4062,
      "##une liste de ": 4063,
      "##expi": 4064,
      "##tale ": 4065,
      "##th ": 4066,
      "##verrez ": 4067,
      "## déplac": 4068,
      "##enregistrer ": 4069,
      "##ressources ": 4070,
      "##ynam": 4071,
      "##toolti": 4072,
      "##méta-": 4073,
      "Votre ": 4074,
      "##dress": 4075,
      "##donne ": 4076,
      "##Typ": 4077,
      "##te un ": 4078,
      "##liste.": 4079,
      "##é (": 4080,
      "##ou l'": 4081,
      "##peu ": 4082,
      "##ons de ": 4083,
      "##bouton": 4084,
      "##érifiez ": 4085,
      "##arrière ": 4086,
      "##. Par défaut ": 4087,
      "##système.": 4088,
      "##mm": 4089,
      "##fra": 4090,
      "##flo": 4091,
      "##PP": 4092,
      "##çant ": 4093,
      "##tir": 4094,
      "##eront ": 4095,
      "##pre-": 4096,
      "##lien": 4097,
      "##réqu": 4098,
      "##mation ": 4099,
      "##culer ": 4100,
      "##sélectionnées ": 4101,
      "##corrig": 4102,
      "##disqu": 4103,
      "##effet ": 4104,
      "##copier ": 4105,
      "##manuellement ": 4106,
      "##Windows ": 4107,
      "##authentification ": 4108,
      "Filtre ": 4109,
      "##luminosi": 4110,
      "##kam": 4111,
      "##liv": 4112,
      "##comparais": 4113,
      "##éro ": 4114,
      "##locale ": 4115,
      "##tot": 4116,
      "##tous les fichiers ": 4117,
      "##aussi": 4118,
      "##local ": 4119,
      "##navigation ": 4120,
      "##whit": 4121,
      "##de détail": 4122,
      "##. Notez ": 4123,
      "##PostScript ": 4124,
      "Couleur ": 4125,
      "##morc": 4126,
      "Ret": 4127,
      "##s...": 4128,
      "##cy": 4129,
      "##Fil": 4130,
      "##es et ": 4131,
      "##aura ": 4132,
      "##al de ": 4133,
      "##que ce ": 4134,
      "##n'ont ": 4135,
      "##bug": 4136,
      "##fond ": 4137,
      "##liquer ": 4138,
      "##à la ligne ": 4139,
      "##tech": 4140,
      "##énér": 4141,
      "##occurren": 4142,
      "##supprimer ": 4143,
      "##démarrag": 4144,
      "##objet": 4145,
      "Configuration Configur": 4146,
      "##étoiles ": 4147,
      "##denti": 4148,
      "##adi": 4149,
      "##od": 4150,
      "##pn": 4151,
      "##. x": 4152,
      "##une valeur ": 4153,
      "##ble-": 4154,
      "##dispos": 4155,
      "##Entr": 4156,
      "##alité": 4157,
      "##apparence ": 4158,
      "Ajou": 4159,
      "##lée ": 4160,
      "##16": 4161,
      "##Nom": 4162,
      "##wor": 4163,
      "##word ": 4164,
      "##BS": 4165,
      "##{}": 4166,
      "##{whit": 4167,
      "##er)": 4168,
      "##intro": 4169,
      "##surez ": 4170,
      "##ate": 4171,
      "##ement des ": 4172,
      "##dans k": 4173,
      "##de la boîte de dialogue ": 4174,
      "##parmi ": 4175,
      "##cible ": 4176,
      "##afficher les ": 4177,
      "##sole": 4178,
      "##e-spa": 4179,
      "##positionn": 4180,
      "##actif ": 4181,
      "##chaîne de ": 4182,
      "##raccourcis clavier ": 4183,
      "##résultats ": 4184,
      "##ce: pre-": 4185,
      "##li {whit": 4186,
      "##e-space: pre-": 4187,
      "##li {white-space: pre-": 4188,
      "##li {white-space: pre-wrap": 4189,
      "##use ": 4190,
      "##mplacement ": 4191,
      "##Dans ": 4192,
      "##titres ": 4193,
      "##le nombre de ": 4194,
      "##ant l'": 4195,
      "##prog": 4196,
      "##entraî": 4197,
      "## pour les ": 4198,
      "##lors du ": 4199,
      "##permettre ": 4200,
      "##certain ": 4201,
      "##sur l'icône ": 4202,
      "##etc/ ": 4203,
      "##bogue ": 4204,
      "##complète ": 4205,
      "## disponi": 4206,
      "##activi": 4207,
      "##offici": 4208,
      "##dr": 4209,
      "##Syst": 4210,
      "##ru": 4211,
      "##:3": 4212,
      "##âce ": 4213,
      "##lique ": 4214,
      "##avant": 4215,
      "##utilisation de ": 4216,
      "##cad ": 4217,
      "##du ci": 4218,
      "##du système ": 4219,
      "##poch": 4220,
      "##trouverez ": 4221,
      "##cherche ": 4222,
      "##album ": 4223,
      "##discussion": 4224,
      "For": 4225,
      "##score ": 4226,
      "##fréqu": 4227,
      "##IP ": 4228,
      "##). ": 4229,
      "##alend": 4230,
      "##diap": 4231,
      "##une fenêtre ": 4232,
      "##optionn": 4233,
      "##aire de ": 4234,
      "##class": 4235,
      "##observ": 4236,
      "##transfer": 4237,
      "##pourcent": 4238,
      "##vision ": 4239,
      "##deman": 4240,
      "##retour ": 4241,
      "##multiples ": 4242,
      "##à l'intérieur ": 4243,
      "Édi": 4244,
      "##rg": 4245,
      "##De": 4246,
      "##Jeu ": 4247,
      "##la première ": 4248,
      "##org ": 4249,
      "##rai": 4250,
      "##ré.": 4251,
      "##majus": 4252,
      "##due ": 4253,
      "##sont des ": 4254,
      "##sont disponibles ": 4255,
      "##bula": 4256,
      "##lui ": 4257,
      "##focu": 4258,
      "Insér": 4259,
      "##nombreuses ": 4260,
      "##nbsp ": 4261,
      "##visualis": 4262,
      "##bit": 4263,
      "##hi": 4264,
      "##hauteur ": 4265,
      "##La ": 4266,
      "##e l'": 4267,
      "##pour des ": 4268,
      "##expressions ": 4269,
      "##qui ne ": 4270,
      "##texte": 4271,
      "##160 » et ": 4272,
      "##activé ": 4273,
      "##cochez ": 4274,
      "##préfix": 4275,
      "Inter": 4276,
      "##navigu": 4277,
      "##bord ": 4278,
      "##utilit": 4279,
      "Activer ": 4280,
      "##images": 4281,
      "##traitement ": 4282,
      "##extension ": 4283,
      "##intéress": 4284,
      "##date de ": 4285,
      "##élescop": 4286,
      "Par ": 4287,
      "##rien ": 4288,
      "##en fonc": 4289,
      "##. Cependant ": 4290,
      "##enregistrés ": 4291,
      "##spécifique ": 4292,
      "Erreur 160: ": 4293,
      "##étiquette ": 4294,
      "##évènements ": 4295,
      "##saisi ": 4296,
      "##feuille de ": 4297,
      "Bo": 4298,
      "##uis ": 4299,
      "##NAME OF TRANSLATORS": 4300,
      "##Ok": 4301,
      "##UT": 4302,
      "##cher ": 4303,
      "##moteur ": 4304,
      "##érent ": 4305,
      "##texte.": 4306,
      "##reste ": 4307,
      "##terminal": 4308,
      "##connecté ": 4309,
      "##fusion ": 4310,
      "##brill": 4311,
      "##capable ": 4312,
      "##Konqueror ": 4313,
      "##télescop": 4314,
      "##x.": 4315,
      "##st ": 4316,
      "##map": 4317,
      "##her": 4318,
      "##host": 4319,
      "##TP ": 4320,
      "##(s) ": 4321,
      "##KO": 4322,
      "##une autre ": 4323,
      "##appel ": 4324,
      "##té d'": 4325,
      "##modem": 4326,
      "##mode de ": 4327,
      "##Quit": 4328,
      "##précédemment ": 4329,
      "##n'importe quelle ": 4330,
      "##Activ": 4331,
      "##commun": 4332,
      "##défini ": 4333,
      "##mandataire ": 4334,
      "##li {white-space: pre-wrap} ": 4335,
      "p ": 4336,
      "##ule ": 4337,
      "##ete ": 4338,
      "##15": 4339,
      "##La": 4340,
      "##. J": 4341,
      "##ez -vous ": 4342,
      "##résu": 4343,
      "##étail": 4344,
      "##suivre ": 4345,
      "##fois que vous ": 4346,
      "##couleur de ": 4347,
      "##\\\\\\\\": 4348,
      "##fais": 4349,
      "##espace de ": 4350,
      "##e. Dans ": 4351,
      "##au début ": 4352,
      "Typ": 4353,
      "##20": 4354,
      "##DCO": 4355,
      "##QStr": 4356,
      "##le même ": 4357,
      "##réus": 4358,
      "##récup": 4359,
      "##voi ": 4360,
      "##ter.": 4361,
      "##er les paramètres ": 4362,
      "##160 » est ": 4363,
      "##à la fois ": 4364,
      "##ressem": 4365,
      "##précis": 4366,
      "##affiche les ": 4367,
      "##tableau ": 4368,
      "##Afficher la ": 4369,
      "##manuel ": 4370,
      "##démarrer ": 4371,
      "##formats ": 4372,
      "##recommand": 4373,
      "p li {white-space: pre-wrap} ": 4374,
      "##C) 200": 4375,
      "##GN": 4376,
      "##début ": 4377,
      "##dans cette ": 4378,
      "##modes ": 4379,
      "##tabula": 4380,
      "##e. M": 4381,
      "##du message ": 4382,
      "##contiennent ": 4383,
      "##options de ": 4384,
      "##semain": 4385,
      "##précédent ": 4386,
      "##tion d'un ": 4387,
      "##d'expl": 4388,
      "##erreurs ": 4389,
      "##nommé ": 4390,
      "##aintenant ": 4391,
      "Ne pas ": 4392,
      "##p. ": 4393,
      "##c'": 4394,
      "##CT": 4395,
      "##esti": 4396,
      "##chans": 4397,
      "##utiliser un ": 4398,
      "##essai": 4399,
      "##plus t": 4400,
      "##crit ": 4401,
      "##métr": 4402,
      "##note ": 4403,
      "##cocher ": 4404,
      "##sessions ": 4405,
      "##précédente ": 4406,
      "Comment ": 4407,
      "##statis": 4408,
      "##aramètres ": 4409,
      "##répéti": 4410,
      "##-ci": 4411,
      "##tten": 4412,
      "##mois ": 4413,
      "##Bar": 4414,
      "##ench": 4415,
      "##anti": 4416,
      "##unique ": 4417,
      "##ause ": 4418,
      "##une des ": 4419,
      "##dur": 4420,
      "##book": 4421,
      "##internet ": 4422,
      "Affiche la ": 4423,
      "##mêm": 4424,
      "##fichiers. ": 4425,
      "##source": 4426,
      "##groupes ": 4427,
      "##barre d'état ": 4428,
      "##forme de ": 4429,
      "##généralement ": 4430,
      "##info: st": 4431,
      "##produit ": 4432,
      "##centre": 4433,
      "##ici.": 4434,
      "##normalement ": 4435,
      "##quanta": 4436,
      "##coût ": 4437,
      "Spéci": 4438,
      "##z ": 4439,
      "##enêtre ": 4440,
      "##. W": 4441,
      "##les éléments ": 4442,
      "##à cette ": 4443,
      "##e. E": 4444,
      "##étant ": 4445,
      "##type": 4446,
      "##coll": 4447,
      "##deskt": 4448,
      "##kdm ": 4449,
      "##align": 4450,
      "##venue ": 4451,
      "##devriez ": 4452,
      "##veille ": 4453,
      "##papier ": 4454,
      "##secondes ": 4455,
      "##panneau": 4456,
      "##messages": 4457,
      "##étiquet": 4458,
      "Si cette option est cochée ": 4459,
      "##historique ": 4460,
      "##ban": 4461,
      "##é. ": 4462,
      "##DB": 4463,
      "##FA": 4464,
      "##enlev": 4465,
      "##à laquelle ": 4466,
      "## 160 / 160 ": 4467,
      "##cation ": 4468,
      "##tude ": 4469,
      "##) vaut ": 4470,
      "##assign": 4471,
      "##additionn": 4472,
      "##tement": 4473,
      "##change ": 4474,
      "## devrait ": 4475,
      "##complex": 4476,
      "##identité ": 4477,
      "##messagerie ": 4478,
      "##vous devrez ": 4479,
      "Effac": 4480,
      "##html": 4481,
      "##ts.": 4482,
      "##mil": 4483,
      "##18": 4484,
      "##dans un fichier ": 4485,
      "##utiliser": 4486,
      "##« 160 C": 4487,
      "##butt": 4488,
      "##boîte de ": 4489,
      "##activer ": 4490,
      "##créer des ": 4491,
      "##changement ": 4492,
      "##spécifiques ": 4493,
      "##lorsque le ": 4494,
      "##précédent": 4495,
      "##mesu": 4496,
      "##original": 4497,
      "##fourniss": 4498,
      "##ASCI": 4499,
      "##carnet d'adresses ": 4500,
      "##administrateur ": 4501,
      "##usr/ ": 4502,
      "##surez -vous ": 4503,
      "##bonne ": 4504,
      "##SM": 4505,
      "##Q ": 4506,
      "##le cas ": 4507,
      "##actionn": 4508,
      "##d'aide ": 4509,
      "##/ etc/ ": 4510,
      "##suppos": 4511,
      "##ult": 4512,
      "##e. Ce ": 4513,
      "Si vous avez ": 4514,
      "##plani": 4515,
      "##appelé ": 4516,
      "Veuillez saisir ": 4517,
      "##Propriét": 4518,
      "Bas": 4519,
      "##ige ": 4520,
      "##aque ": 4521,
      "##g/ ": 4522,
      "##Syn": 4523,
      "##fera ": 4524,
      "##îte de dialogu": 4525,
      "##Gen": 4526,
      "##expl": 4527,
      "##ce cas ": 4528,
      "##essous ": 4529,
      "##corps ": 4530,
      "Importer ": 4531,
      "##simul": 4532,
      "##spécifiée ": 4533,
      "##gestion des ": 4534,
      "##adresse électronique ": 4535,
      "##. kgm": 4536,
      "##photos ": 4537,
      "##clic droit ": 4538,
      "##ormat ": 4539,
      "##ertains ": 4540,
      "##difficul": 4541,
      "##digikam": 4542,
      "##au démarrag": 4543,
      "Supprime ": 4544,
      "##mathéma": 4545,
      "##mis": 4546,
      "##fus": 4547,
      "##hy": 4548,
      "##PC": 4549,
      "##. F": 4550,
      "##eut ": 4551,
      "##me de ": 4552,
      "##amb": 4553,
      "##du document ": 4554,
      "##pol": 4555,
      "##plus d'informations ": 4556,
      "##. Con": 4557,
      "##. Choisissez ": 4558,
      "## dans un ": 4559,
      "##qu'elles ": 4560,
      "##dans la liste des ": 4561,
      "##configuration des ": 4562,
      "##amp ": 4563,
      "##sélection": 4564,
      "##aux de ": 4565,
      "##requêtes ": 4566,
      "##rouge ": 4567,
      "##ersonn": 4568,
      "Copyright ": 4569,
      "##saisissant ": 4570,
      "Impossible d'ouvrir le fichier ": 4571,
      "##ne sera pas ": 4572,
      "##Descrip": 4573,
      "##drap": 4574,
      "##iles ": 4575,
      "##test ": 4576,
      "##étr": 4577,
      "##hau": 4578,
      "##(ou ": 4579,
      "##X-": 4580,
      "##. B": 4581,
      "##60 ": 4582,
      "##suffi": 4583,
      "##gravu": 4584,
      "##ligne": 4585,
      "##définie ": 4586,
      "##utilisateur.": 4587,
      "Utiliser le ": 4588,
      "##propriété ": 4589,
      "##requis ": 4590,
      "##. Elle ": 4591,
      "##MIME ": 4592,
      "##horizontal": 4593,
      "##à propos ": 4594,
      "##ppu": 4595,
      "##back": 4596,
      "##mag": 4597,
      "##Nep": 4598,
      "##23": 4599,
      "##yth": 4600,
      "##4.": 4601,
      "##plant": 4602,
      "##des images ": 4603,
      "##compris ": 4604,
      "##utilisé": 4605,
      "##emb": 4606,
      "##de la liste de ": 4607,
      "##cube ": 4608,
      "##si votre ": 4609,
      "##aspec": 4610,
      "##grav": 4611,
      "##placer ": 4612,
      "##respec": 4613,
      "##rect": 4614,
      "##spécifié ": 4615,
      "##en utilisant les ": 4616,
      "##qu'il est ": 4617,
      "##rusader ": 4618,
      "##pays ": 4619,
      "##sauvegarde ": 4620,
      "##noir ": 4621,
      "##d'être ": 4622,
      "##construc": 4623,
      "##régi": 4624,
      "##versa": 4625,
      "La boîte de dialogue ": 4626,
      "##racine ": 4627,
      "##command": 4628,
      "## développ": 4629,
      "##ation syntax": 4630,
      "##fin d'": 4631,
      "##monde ": 4632,
      "##avec le bouton ": 4633,
      "##établi": 4634,
      "##nécessaires ": 4635,
      "##http: / /www. ": 4636,
      "Option ": 4637,
      "##plein ": 4638,
      "##nom d'utilisateur ": 4639,
      "##calendrier ": 4640,
      "##K3b ": 4641,
      "##entraîn": 4642,
      "App": 4643,
      "Crée ": 4644,
      "##db": 4645,
      "##gard": 4646,
      "##user": 4647,
      "##quez ": 4648,
      "##trl": 4649,
      "##tres": 4650,
      "##unit": 4651,
      "##art ": 4652,
      "##sug": 4653,
      "##divis": 4654,
      "##en sélectionnant ": 4655,
      "##utilisent ": 4656,
      "##pas les ": 4657,
      "##ffis": 4658,
      "##160: %2": 4659,
      "##rans": 4660,
      "##ajou": 4661,
      "##mêmes ": 4662,
      "##élément graphique ": 4663,
      "##importer ": 4664,
      "##occup": 4665,
      "##module de ": 4666,
      "##type d'": 4667,
      "Envoy": 4668,
      "##planè": 4669,
      "##libre ": 4670,
      "##vues ": 4671,
      "##ouvrira ": 4672,
      "##appuyant ": 4673,
      "http: / /": 4674,
      "##fam": 4675,
      "##IR": 4676,
      "##ch ": 4677,
      "##et choisissez ": 4678,
      "##suffis": 4679,
      "##aient ": 4680,
      "##pour KDE": 4681,
      "##avons ": 4682,
      "##mol": 4683,
      "##ture": 4684,
      "##er les données ": 4685,
      "##box": 4686,
      "##és)": 4687,
      "## dans les ": 4688,
      "La fenêtre ": 4689,
      "##rendu ": 4690,
      "Impossible de charg": 4691,
      "##caractéris": 4692,
      "##ez le bouton ": 4693,
      "##canal": 4694,
      "##option: ": 4695,
      "##argument ": 4696,
      "##quelque chose ": 4697,
      "Emplacement ": 4698,
      "##ni ": 4699,
      "##tag": 4700,
      "##bat": 4701,
      "##eName": 4702,
      "##kstar": 4703,
      "##() renvoi": 4704,
      "##KW": 4705,
      "##vous permet d'": 4706,
      "##réper": 4707,
      "##résou": 4708,
      "##nom de l'": 4709,
      "##bien": 4710,
      "##interne ": 4711,
      "##chiffres ": 4712,
      "##sembl": 4713,
      "##contenu du ": 4714,
      "Lorsque vous ": 4715,
      "##étiquettes ": 4716,
      "Nombre de ": 4717,
      "##commentaires ": 4718,
      "##ergie ": 4719,
      "##droits d'accès ": 4720,
      "##deuxième ": 4721,
      "##fre": 4722,
      "##RA": 4723,
      "##en ligne ": 4724,
      "##attach": 4725,
      "##opete ": 4726,
      "##er le texte ": 4727,
      "##affiche la ": 4728,
      "##puiss": 4729,
      "##ants": 4730,
      "## pour le ": 4731,
      "##si vous souhaitez ": 4732,
      "##. Vous pouvez également ": 4733,
      "##avec le bouton droit ": 4734,
      "##e. Cela ": 4735,
      "Cette commande ": 4736,
      "##utoris": 4737,
      "##Nouveau": 4738,
      "##logiciel ": 4739,
      "##focus ": 4740,
      "##Nepom": 4741,
      "##bon": 4742,
      "##24": 4743,
      "##(0": 4744,
      "##tric": 4745,
      "##. H": 4746,
      "##la même ": 4747,
      "##pas.": 4748,
      "##sites ": 4749,
      "##tion 160: ": 4750,
      "##d'environnement ": 4751,
      "##plas": 4752,
      "##ant des ": 4753,
      "##cadre ": 4754,
      "##age du ": 4755,
      "##view": 4756,
      "##elles": 4757,
      "Le dossier ": 4758,
      "##fusionn": 4759,
      "##plici": 4760,
      "##en cliquant sur le bouton ": 4761,
      "##ennemi ": 4762,
      "##pread ": 4763,
      "##destination ": 4764,
      "##prise en charge ": 4765,
      "##événements ": 4766,
      "##knode ": 4767,
      "##xy": 4768,
      "##ST": 4769,
      "##PO": 4770,
      "##est-": 4771,
      "##à nouveau ": 4772,
      "##ext": 4773,
      "##démon": 4774,
      "##proven": 4775,
      "##portation ": 4776,
      "##donné ": 4777,
      "##. Chaque ": 4778,
      "##sections ": 4779,
      "##grâce ": 4780,
      "##find ": 4781,
      "##généri": 4782,
      "##sultez ": 4783,
      "##demande ": 4784,
      "##indre ": 4785,
      "##arrêt ": 4786,
      "##limite ": 4787,
      "##vérification ": 4788,
      "Indique ": 4789,
      "Documentation ": 4790,
      "Taille ": 4791,
      "##are ": 4792,
      "##of": 4793,
      "##ce. ": 4794,
      "##DS ": 4795,
      "##Fichiers ": 4796,
      "##Cré": 4797,
      "##My": 4798,
      "##envoi ": 4799,
      "##auri": 4800,
      "##ell ": 4801,
      "##d'erreur ": 4802,
      "##vous demand": 4803,
      "## de votre ": 4804,
      "##érieu": 4805,
      "##er la fenêtre ": 4806,
      "##comme les ": 4807,
      "##étec": 4808,
      "##trouvé ": 4809,
      "##graphe ": 4810,
      "##finissez ": 4811,
      "##apparaissent ": 4812,
      "##bases de ": 4813,
      "##description ": 4814,
      "##menu contextuel ": 4815,
      "Choisir ": 4816,
      "##progres": 4817,
      "##d'exploi": 4818,
      "À ": 4819,
      "##oh": 4820,
      "##gt": 4821,
      "##parfois ": 4822,
      "##corbe": 4823,
      "##laissez ": 4824,
      "##joueurs ": 4825,
      "Enregistre ": 4826,
      "##tableau": 4827,
      "##passer ": 4828,
      "##journal ": 4829,
      "##accéder ": 4830,
      "##formulaire ": 4831,
      "##pilote ": 4832,
      "##barres d'outils ": 4833,
      "Cor": 4834,
      "Dess": 4835,
      "##ler": 4836,
      "##ts. ": 4837,
      "##ces.": 4838,
      "##AL": 4839,
      "##50": 4840,
      "##anno": 4841,
      "##la plupart des ": 4842,
      "##auv": 4843,
      "##alph": 4844,
      "##l'application ": 4845,
      "##sujet ": 4846,
      "##d'in": 4847,
      "##d'informa": 4848,
      "##pour cette ": 4849,
      "##play": 4850,
      "##ne seront ": 4851,
      "##cip": 4852,
      "##lui-": 4853,
      "##fichier. ": 4854,
      "##voir les ": 4855,
      "##imprimant": 4856,
      "##. Si vous avez ": 4857,
      "##chiffr": 4858,
      "##. kde": 4859,
      "##références ": 4860,
      "##pixels ": 4861,
      "Voulez -vous vraiment supprim": 4862,
      "##nombreux ": 4863,
      "##octets ": 4864,
      "##est-à-": 4865,
      "##ak": 4866,
      "##OK": 4867,
      "##(par exemple ": 4868,
      "##W ": 4869,
      "##de ces ": 4870,
      "##tran": 4871,
      "##. do": 4872,
      "##te une ": 4873,
      "##els": 4874,
      "##dés ": 4875,
      "##du programme ": 4876,
      "##eur-": 4877,
      "##ou plusieurs ": 4878,
      "##données.": 4879,
      "##comme des ": 4880,
      "Afficher l'": 4881,
      "##aller ": 4882,
      "##énergie ": 4883,
      "##déplacements ": 4884,
      "##arriv": 4885,
      "##mesure ": 4886,
      "##éma ": 4887,
      "##décim": 4888,
      "##dynam": 4889,
      "##ix": 4890,
      "##nég": 4891,
      "##sens ": 4892,
      "##AD": 4893,
      "##Group": 4894,
      "##a été": 4895,
      "##. documentation": 4896,
      "##orit": 4897,
      "##auquel ": 4898,
      "## derni": 4899,
      "##print": 4900,
      "##l'entrée ": 4901,
      "##suit ": 4902,
      "##conse": 4903,
      "##et.": 4904,
      "##excep": 4905,
      "##de la page ": 4906,
      "##regard": 4907,
      "##dans la vue ": 4908,
      "##créé ": 4909,
      "##ance de ": 4910,
      "##contient des ": 4911,
      "##panneau de ": 4912,
      "##. Vous devez ": 4913,
      "##expression rationnelle ": 4914,
      "##intérê": 4915,
      "##Java ": 4916,
      "##TeX": 4917,
      "Sélectionne ": 4918,
      "##avec succè": 4919,
      "Désactiv": 4920,
      "##rè": 4921,
      "##rang": 4922,
      "##mises ": 4923,
      "##Vi": 4924,
      "##cateur ": 4925,
      "##U ": 4926,
      "##t le ": 4927,
      "##est": 4928,
      "##la touche ": 4929,
      "##d'attente ": 4930,
      "##vous voulez ": 4931,
      "##dans des ": 4932,
      "##sur des ": 4933,
      "##connu ": 4934,
      "##mix": 4935,
      "##. Vous pouvez aussi ": 4936,
      "##année ": 4937,
      "##tion d'une ": 4938,
      "## 160? ": 4939,
      "##Internet": 4940,
      "Impossible de trouver le ": 4941,
      "##symbole ": 4942,
      "##installation ": 4943,
      "##désirez ": 4944,
      "##Ouvrir ": 4945,
      "Ces ": 4946,
      "« 160 ": 4947,
      "##kg": 4948,
      "##trô": 4949,
      "##inte ": 4950,
      "##lisi": 4951,
      "##est disponible ": 4952,
      "##impossible ": 4953,
      "##cases ": 4954,
      "##ent de ": 4955,
      "##endra ": 4956,
      "##pub": 4957,
      "##. Comme ": 4958,
      "##rece": 4959,
      "##créer une ": 4960,
      "Chaque ": 4961,
      "##sur la touche ": 4962,
      "##écran.": 4963,
      "##ici le ": 4964,
      "## deg": 4965,
      "##second": 4966,
      "##projets ": 4967,
      "##image.": 4968,
      "##catégories ": 4969,
      "##en-têtes ": 4970,
      "##balises ": 4971,
      "##space ": 4972,
      "##préféren": 4973,
      "##meilleurs ": 4974,
      "##privil": 4975,
      "Th": 4976,
      "##dè": 4977,
      "##bet": 4978,
      "##rc": 4979,
      "##Man": 4980,
      "##représent": 4981,
      "##en choisissant ": 4982,
      "##utilisera ": 4983,
      "##motif": 4984,
      "##ouvrez ": 4985,
      "##de la vue ": 4986,
      "##vign": 4987,
      "##er les messages ": 4988,
      "##apps/ ": 4989,
      "##. S'": 4990,
      "##supérieur ": 4991,
      "##liste d'": 4992,
      "##chaîn": 4993,
      "##cet élément ": 4994,
      "Exécu": 4995,
      "##continuer 160?": 4996,
      "##00 0x": 4997,
      "Options ": 4998,
      "##heures ": 4999,
      "##c'est-à-": 5000,
      "Des ": 5001,
      "##fal": 5002,
      "##LD": 5003,
      "##Akon": 5004,
      "##Aide ": 5005,
      "##Gra": 5006,
      "##You ": 5007,
      "##Web": 5008,
      "##e un ": 5009,
      "##enf": 5010,
      "##er par ": 5011,
      "##é au ": 5012,
      "##atom": 5013,
      "##proche ": 5014,
      "##sélectionnée.": 5015,
      "##il vous ": 5016,
      "##distant ": 5017,
      "##do ": 5018,
      "##à la fin": 5019,
      "##cependant ": 5020,
      "##dialogue ": 5021,
      "##outils": 5022,
      "##coché ": 5023,
      "##lt /": 5024,
      "##groupe de ": 5025,
      "##barre d' ": 5026,
      "##sélection de ": 5027,
      "Comme ": 5028,
      "##vous devriez ": 5029,
      "##immédiatement ": 5030,
      "Cach": 5031,
      "Fichiers ": 5032,
      "Mar": 5033,
      "Vérifi": 5034,
      "##tour ": 5035,
      "##eil": 5036,
      "##VPN": 5037,
      "##RE": 5038,
      "##GP": 5039,
      "##Ple": 5040,
      "##=C": 5041,
      "##l'onglet ": 5042,
      "##à travers ": 5043,
      "##est en ": 5044,
      "##existant ": 5045,
      "##dée ": 5046,
      "##cook": 5047,
      "##auto": 5048,
      "##ent.": 5049,
      "##tout le ": 5050,
      "##surveill": 5051,
      "##objec": 5052,
      "##commence ": 5053,
      "##gauche": 5054,
      "##amarok ": 5055,
      "##Java": 5056,
      "##boîte à miniatures ": 5057,
      "##sur ce bouton pour ": 5058,
      "##Sole": 5059,
      "##Akonadi": 5060,
      "##cin": 5061,
      "##indépend": 5062,
      "##bit ": 5063,
      "##noy": 5064,
      "##ajouter des ": 5065,
      "##signal": 5066,
      "##choisir un ": 5067,
      "##que l'on ": 5068,
      "##besoin d'": 5069,
      "##ci-dessus ": 5070,
      "##actuel.": 5071,
      "##standard de ": 5072,
      "##méthodes ": 5073,
      "##fourni ": 5074,
      "##emplacements ": 5075,
      "Nombre ": 5076,
      "##sécurité ": 5077,
      "##Gener": 5078,
      "##nd": 5079,
      "##t)": 5080,
      "##Ce ": 5081,
      "##wi": 5082,
      "##GS": 5083,
      "##entes ": 5084,
      "##le bouton ": 5085,
      "##eri": 5086,
      "##pati": 5087,
      "##omè": 5088,
      "##riv": 5089,
      "##é comme ": 5090,
      "##utiliser l'": 5091,
      "##tenir ": 5092,
      "##qui a ": 5093,
      "##possibles ": 5094,
      "##trouvée ": 5095,
      "##important ": 5096,
      "##exécutable ": 5097,
      "##différence ": 5098,
      "##canaux ": 5099,
      "##questions ": 5100,
      "##solution ": 5101,
      "##OpenPG": 5102,
      "##Suiv": 5103,
      "##coloration syntax": 5104,
      "##similaire ": 5105,
      "##suivi": 5106,
      "Avec ": 5107,
      "##norma": 5108,
      "##var": 5109,
      "##14": 5110,
      "##é des ": 5111,
      "##just": 5112,
      "##ON": 5113,
      "##on.": 5114,
      "##ouble-": 5115,
      "##quement ": 5116,
      "## déc": 5117,
      "##vous ne ": 5118,
      "##pas d'": 5119,
      "##ation de la ": 5120,
      "##enregistrer les ": 5121,
      "##non valabl": 5122,
      "##éditeur": 5123,
      "##copyright 200": 5124,
      "##mière ": 5125,
      "##kdm": 5126,
      "##surlign": 5127,
      "##après le ": 5128,
      "##inclut ": 5129,
      "##composants ": 5130,
      "##employ": 5131,
      "##Nouveau ": 5132,
      "##rapport de ": 5133,
      "##ertaines ": 5134,
      "##vocabulaire ": 5135,
      "##ssayez ": 5136,
      "(C) 200": 5137,
      "##ey ": 5138,
      "##=quot ": 5139,
      "##Ko": 5140,
      "##KT": 5141,
      "##le menu ": 5142,
      "##isse ": 5143,
      "##ossier ": 5144,
      "##vid": 5145,
      "##és de ": 5146,
      "##....": 5147,
      "##isième ": 5148,
      "##. Sélectionn": 5149,
      "##trouvé": 5150,
      "##sépar": 5151,
      "##tempéra": 5152,
      "Informa": 5153,
      "##partie du ": 5154,
      "##ainsi que ": 5155,
      "##« 160 %2 160 »": 5156,
      "##convertir ": 5157,
      "##grille ": 5158,
      "##manipu": 5159,
      "La commande « 160 ": 5160,
      "##tooltip": 5161,
      "##fraî": 5162,
      "Télécharg": 5163,
      "##gon": 5164,
      "##IT": 5165,
      "##Ob": 5166,
      "##) 160: ": 5167,
      "##Écrit ": 5168,
      "##s (": 5169,
      "##vous êtes ": 5170,
      "##contribu": 5171,
      "##possibl": 5172,
      "##empê": 5173,
      "##supérieure ": 5174,
      "##changer ": 5175,
      "##ajouter un ": 5176,
      "Outil": 5177,
      "##appuyer ": 5178,
      "##Actions ": 5179,
      "##choix": 5180,
      "##existant": 5181,
      "Module de ": 5182,
      "##organiz": 5183,
      "##arguments ": 5184,
      "##ke the ": 5185,
      "##pu être ": 5186,
      "##fraîch": 5187,
      "## '": 5188,
      "##1) ": 5189,
      "##Mat": 5190,
      "##de KDE": 5191,
      "##quad": 5192,
      "##. int": 5193,
      "##accu": 5194,
      "##pour ouvrir ": 5195,
      "##pour obtenir ": 5196,
      "##est in": 5197,
      "##contexte ": 5198,
      "##élang": 5199,
      "##élev": 5200,
      "##tation.": 5201,
      "##de la piste ": 5202,
      "##ou « 160 ": 5203,
      "##és par ": 5204,
      "## d' ": 5205,
      "##minus": 5206,
      "##modifié": 5207,
      "##fil de ": 5208,
      "##non valable ": 5209,
      "##ouverts ": 5210,
      "##correspondre ": 5211,
      "##. Si vous voulez ": 5212,
      "##Mode ": 5213,
      "##mémoris": 5214,
      "##lesquels ": 5215,
      "##_BAR_ ": 5216,
      "##inférieure ": 5217,
      "##événement ": 5218,
      "##accessible ": 5219,
      "##au lieu de ": 5220,
      "##diagrammes ": 5221,
      "##barre d'outils.": 5222,
      "##e. Par exemple ": 5223,
      "##notifica": 5224,
      "Name": 5225,
      "##nœ u": 5226,
      "##frac": 5227,
      "##he": 5228,
      "##G ": 5229,
      "##er...": 5230,
      "##te les ": 5231,
      "##d'entr": 5232,
      "##ne correspond ": 5233,
      "##dans laquelle ": 5234,
      "##de la même ": 5235,
      "##e. N": 5236,
      "##au serveur ": 5237,
      "##se termin": 5238,
      "##termes ": 5239,
      "##cité ": 5240,
      "##er les raccourcis ": 5241,
      "##them ": 5242,
      "##configuration.": 5243,
      "##comptes ": 5244,
      "##interpr": 5245,
      "##changer le ": 5246,
      "##si vous ne ": 5247,
      "##géné": 5248,
      "##pourrait ": 5249,
      "##ordinateur de ": 5250,
      "##à partir du ": 5251,
      "##manuel de ": 5252,
      "##fichier de configuration ": 5253,
      "##briques ": 5254,
      "##presse-papiers": 5255,
      "##systèmes de fichiers ": 5256,
      "##lecture.": 5257,
      "##rompu": 5258,
      "##sécuris": 5259,
      "##translations": 5260,
      "##/ share/ apps/ ": 5261,
      "##UNIX": 5262,
      "##pratique ": 5263,
      "##c'est-à-dire ": 5264,
      "##Écrit par ": 5265,
      "Col": 5266,
      "##-dépos": 5267,
      "##Ste": 5268,
      "##L00": 5269,
      "##? u": 5270,
      "##e (": 5271,
      "##er K": 5272,
      "##er dans la ": 5273,
      "##. eu": 5274,
      "## désactiv": 5275,
      "##alter": 5276,
      "##vous pourrez ": 5277,
      "##ri=C": 5278,
      "##régu": 5279,
      "##compress": 5280,
      "##: HTML": 5281,
      "##: EN": 5282,
      "##moteur de ": 5283,
      "##take the ": 5284,
      "##voqu": 5285,
      "##europa": 5286,
      "##/ lex": 5287,
      "##/ eur-": 5288,
      "##se connecter ": 5289,
      "##cir": 5290,
      "##és et ": 5291,
      "##paramétr": 5292,
      "##sur le serveur ": 5293,
      "##orig": 5294,
      "##lecteurs ": 5295,
      "##al translations": 5296,
      "##montage ": 5297,
      "##ici la ": 5298,
      "##Envoy": 5299,
      "##HTTP": 5300,
      "##ils sont ": 5301,
      "##http: / /europa": 5302,
      "##check": 5303,
      "##EX:3": 5304,
      "##en cours d'": 5305,
      "##ou désactiv": 5306,
      "Annu": 5307,
      "##s'est produ": 5308,
      "##ase take the ": 5309,
      "##e: http: / /europa": 5310,
      "##superutilisateur ": 5311,
      "##lex/ lex": 5312,
      "##/ LexUriServ/ LexUriServ": 5313,
      "##prêt ": 5314,
      "##ELEX:3": 5315,
      "##référentiel ": 5316,
      "##! You ": 5317,
      "##59: EN": 5318,
      "##capture d'écran ": 5319,
      "##2001L00": 5320,
      "##official translations": 5321,
      "##here: http: / /europa": 5322,
      "##find them ": 5323,
      "##. do? u": 5324,
      "##. int/ eur-": 5325,
      "##. eu. int/ eur-": 5326,
      "##ri=CELEX:3": 5327,
      "##ase take the official translations": 5328,
      "##lex/ lex/ LexUriServ/ LexUriServ": 5329,
      "##! You find them ": 5330,
      "##59: EN: HTML": 5331,
      "##2001L0059: EN: HTML": 5332,
      "##here: http: / /europa. eu. int/ eur-": 5333,
      "##. do? uri=CELEX:3": 5334,
      "##ase take the official translations! You find them ": 5335,
      "##lex/ lex/ LexUriServ/ LexUriServ. do? uri=CELEX:3": 5336,
      "##here: http: / /europa. eu. int/ eur-lex/ lex/ LexUriServ/ LexUriServ. do? uri=CELEX:3": 5337,
      "##ase take the official translations! You find them here: http: / /europa. eu. int/ eur-lex/ lex/ LexUriServ/ LexUriServ. do? uri=CELEX:3": 5338,
      "##ase take the official translations! You find them here: http: / /europa. eu. int/ eur-lex/ lex/ LexUriServ/ LexUriServ. do? uri=CELEX:32001L0059: EN: HTML": 5339,
      "##afin d'": 5340,
      "##lles ": 5341,
      "##ef": 5342,
      "##feuill": 5343,
      "##hoto": 5344,
      "##ène ": 5345,
      "##ème": 5346,
      "##'ai ": 5347,
      "##DE": 5348,
      "##IC": 5349,
      "##Génér": 5350,
      "##Kam": 5351,
      "##oujours ": 5352,
      "##erci ": 5353,
      "##er... ": 5354,
      "##d'impression": 5355,
      "##expéri": 5356,
      "##revenir ": 5357,
      "##utiliser.": 5358,
      "##pas le ": 5359,
      "##blo": 5360,
      "##assur": 5361,
      "##sélectionnés": 5362,
      "##sélectionner un ": 5363,
      "##verses ": 5364,
      "##dossiers": 5365,
      "##lecteur de ": 5366,
      "##changer la ": 5367,
      "##. La valeur ": 5368,
      "##politique ": 5369,
      "##e. Voulez -vous ": 5370,
      "##principal ": 5371,
      "##inclus ": 5372,
      "##comportant ": 5373,
      "##point d'": 5374,
      "##carte du ci": 5375,
      "##noms des ": 5376,
      "##ancien ": 5377,
      "##schéma ": 5378,
      "Nouveau ": 5379,
      "##augment": 5380,
      "##lèche ": 5381,
      "Mettre ": 5382,
      "##nam": 5383,
      "##ml": 5384,
      "##H ": 5385,
      "##Gnu": 5386,
      "##et à ": 5387,
      "##à cocher ": 5388,
      "##é à la ": 5389,
      "##déci": 5390,
      "##sur lequel ": 5391,
      "##ours ": 5392,
      "##de la ligne ": 5393,
      "##e. Une ": 5394,
      "##onnexi": 5395,
      "##affiche le ": 5396,
      "##il n'y a ": 5397,
      "##fichiers de ": 5398,
      "##sorte ": 5399,
      "##fenêtre": 5400,
      "##chaînes ": 5401,
      "##. Cette option ": 5402,
      "##copie de ": 5403,
      "##new": 5404,
      "##barre des ": 5405,
      "##emarquez ": 5406,
      "##accéder à ": 5407,
      "##albums ": 5408,
      "##chemin": 5409,
      "##exactement ": 5410,
      "##processeur ": 5411,
      "##résoudre ": 5412,
      "##bases de données ": 5413,
      "Ferm": 5414,
      "##get": 5415,
      "##Val": 5416,
      "##cv": 5417,
      "##cause ": 5418,
      "##la boîte de dialogue de ": 5419,
      "##l'icône ": 5420,
      "##que k": 5421,
      "##lig": 5422,
      "##d'image ": 5423,
      "##sur cette ": 5424,
      "##appor": 5425,
      "##perdu": 5426,
      "##qu'on ": 5427,
      "##dans la section ": 5428,
      "##suppression ": 5429,
      "##notre ": 5430,
      "##rend ": 5431,
      "##un fichier de ": 5432,
      "##install. ": 5433,
      "##e. Ceci ": 5434,
      "##correspondant": 5435,
      "##annuler ": 5436,
      "##courrier électroniqu": 5437,
      "## diagram": 5438,
      "##n'a pas été ": 5439,
      "##destinat": 5440,
      "##phrases ": 5441,
      "##processus de ": 5442,
      "##luminosité ": 5443,
      ". ": 5444,
      "##ues ": 5445,
      "##bande ": 5446,
      "##somme ": 5447,
      "##é du ": 5448,
      "##Lo": 5449,
      "##CS": 5450,
      "##Mic": 5451,
      "##(« 160 ": 5452,
      "##onc ": 5453,
      "##ouble ": 5454,
      "##. Name": 5455,
      "##la partie ": 5456,
      "##oram": 5457,
      "##arm": 5458,
      "##lic": 5459,
      "##ce que vous ": 5460,
      "##: butt": 5461,
      "##man ": 5462,
      "##y compris ": 5463,
      "##total": 5464,
      "##système": 5465,
      "##facili": 5466,
      "##notes ": 5467,
      "##lignes de ": 5468,
      "##jouer ": 5469,
      "##présentation ": 5470,
      "##Afficher les ": 5471,
      "##roug": 5472,
      "##Cher": 5473,
      "##utiles ": 5474,
      "##Server": 5475,
      "##cryp": 5476,
      "##) renvoie « 160 ": 5477,
      "##filtrage ": 5478,
      "##cette case est cochée ": 5479,
      "##séparé": 5480,
      "##\\t\\t\\t": 5481,
      "##phrase ": 5482,
      "##Options ": 5483,
      "##alendar ": 5484,
      "##Please take the official translations! You find them here: http: / /europa. eu. int/ eur-lex/ lex/ LexUriServ/ LexUriServ. do? uri=CELEX:32001L0059: EN: HTML": 5485,
      "Donn": 5486,
      "Sa": 5487,
      "##pd": 5488,
      "##e).": 5489,
      "##zz": 5490,
      "##é d'": 5491,
      "##GS ": 5492,
      "##angu": 5493,
      "##le faire ": 5494,
      "##a une ": 5495,
      "##la page ": 5496,
      "##ez des ": 5497,
      "##vous aurez ": 5498,
      "##exclu": 5499,
      "##ateur": 5500,
      "##atus": 5501,
      "##réinitialis": 5502,
      "##forc": 5503,
      "##érieur": 5504,
      "##bog": 5505,
      "##look": 5506,
      "##marok": 5507,
      "##cervisi": 5508,
      "##fois": 5509,
      "##liste déroulante ": 5510,
      "##fini ": 5511,
      "Cher": 5512,
      "##o not ": 5513,
      "##souris.": 5514,
      "##où vous pouvez ": 5515,
      "##version de ": 5516,
      "##vérifier votre ": 5517,
      "##second ": 5518,
      "##action: in": 5519,
      "##OpenVPN": 5520,
      "##séquence ": 5521,
      "##modules externes ": 5522,
      "##ci-dessous.": 5523,
      "##etc.)": 5524,
      "##portefeuille ": 5525,
      "Option permettant de ": 5526,
      " install. ": 5527,
      "##as de ": 5528,
      "##edu": 5529,
      "##cre": 5530,
      "##font ": 5531,
      "##Auc": 5532,
      "##Po": 5533,
      "##çu ": 5534,
      "##Z ": 5535,
      "##es/ ": 5536,
      "## 160%": 5537,
      "##pour être ": 5538,
      "##ne fonctionne ": 5539,
      "##option de ": 5540,
      "##si un ": 5541,
      "##de l'utilisateur ": 5542,
      "##sélectionner une ": 5543,
      "##spec": 5544,
      "##rog": 5545,
      "##vers l'": 5546,
      "##tez -vous ": 5547,
      "Impossible de lire ": 5548,
      "##effets ": 5549,
      "##niveaux ": 5550,
      "Ctrl Maj ": 5551,
      "##----": 5552,
      "##modification ": 5553,
      "##inclure ": 5554,
      "##Albu": 5555,
      "##action: butt": 5556,
      "##communi": 5557,
      "##presse-papier": 5558,
      "##distance ": 5559,
      "##troisième ": 5560,
      "##non-": 5561,
      "##ISO": 5562,
      "##ordinateur": 5563,
      "##mouvement ": 5564,
      "## différen": 5565,
      "##SQL": 5566,
      "##naviguer ": 5567,
      "##haute ": 5568,
      "##réguli": 5569,
      "(D": 5570,
      "##af": 5571,
      "##-B": 5572,
      "##-- ": 5573,
      "##x. ": 5574,
      "##eg": 5575,
      "##mauv": 5576,
      "##Cor": 5577,
      "##e et ": 5578,
      "##ente": 5579,
      "##file": 5580,
      "##inver": 5581,
      "##les messages ": 5582,
      "##à moins ": 5583,
      "##di ": 5584,
      "##est affichée ": 5585,
      "##contre ": 5586,
      "##ne contient ": 5587,
      "##ne gère ": 5588,
      "##duire ": 5589,
      "##avec cette ": 5590,
      "##blème ": 5591,
      "##créer ": 5592,
      "##enregistré ": 5593,
      "##vers un ": 5594,
      "##différent ": 5595,
      "##caractères": 5596,
      "##définies ": 5597,
      "##menu.": 5598,
      "##courriers ": 5599,
      "##en cours de ": 5600,
      "##bogues ": 5601,
      "Copie ": 5602,
      "##géo": 5603,
      "##rationnelles ": 5604,
      "##krusader": 5605,
      "##courir ": 5606,
      "##office ": 5607,
      "##appuyez sur ": 5608,
      "##heure de ": 5609,
      "##laisser ": 5610,
      "##noms de fichiers ": 5611,
      "##permissions ": 5612,
      "##$KDEDI": 5613,
      "##Propriétés ": 5614,
      "##privilèg": 5615,
      "##dez ": 5616,
      "##hu": 5617,
      "##Lauri": 5618,
      "##Av": 5619,
      "##Tous les ": 5620,
      "##(\"": 5621,
      "##K ": 5622,
      "##~/": 5623,
      "##e pour ": 5624,
      "##de type ": 5625,
      "##iste de ": 5626,
      "##pause ": 5627,
      "##est sur": 5628,
      "##est déjà ": 5629,
      "##vide": 5630,
      "##modifié ": 5631,
      "L'élément ": 5632,
      "##n'est pas un ": 5633,
      "##s. Il ": 5634,
      "##jeu.": 5635,
      "##konsole ": 5636,
      "Si vous voulez ": 5637,
      "##vertir ": 5638,
      "##problèm": 5639,
      "##le nom de l'": 5640,
      "##gestionnaire de fichiers ": 5641,
      "##Aller ": 5642,
      "##maximale ": 5643,
      "##lieu ": 5644,
      "##vérifica": 5645,
      "##boîte à miniatures": 5646,
      "##déclench": 5647,
      "##flèche ": 5648,
      "##considé": 5649,
      "##(%1)": 5650,
      "##brillance ": 5651,
      "##quantaplus ": 5652,
      "##ersonnalis": 5653,
      "Co": 5654,
      "Cela ": 5655,
      "##ur ": 5656,
      "##sm": 5657,
      "##Name ": 5658,
      "##c) ": 5659,
      "##céles": 5660,
      "##Dat": 5661,
      "##Centre ": 5662,
      "##EP": 5663,
      "##=\\\\\\\\": 5664,
      "##le 160: ": 5665,
      "##le premier ": 5666,
      "##la fonction ": 5667,
      "##un dé": 5668,
      "##ort ": 5669,
      "##les paramètres ": 5670,
      "##siv": 5671,
      "##signe ": 5672,
      "##construire ": 5673,
      "##des messages ": 5674,
      "##ée et ": 5675,
      "##« 160 F": 5676,
      "##qui ont ": 5677,
      "##qui vous permet de ": 5678,
      "##appels ": 5679,
      "##particip": 5680,
      "##s'affich": 5681,
      "##puis -je ": 5682,
      "##ros ": 5683,
      "## pour la ": 5684,
      "##pourra ": 5685,
      "##ouverte ": 5686,
      "Impossible d'enregistr": 5687,
      "##téléchargement ": 5688,
      "##démarrer le ": 5689,
      "##réponses ": 5690,
      "##distant": 5691,
      "##récemment ": 5692,
      "##préfér": 5693,
      "##globa": 5694,
      "Si cette option est activée ": 5695,
      "##translate ": 5696,
      "##IMAP": 5697,
      "##simultan": 5698,
      "Après ": 5699,
      "##lac": 5700,
      "##lu ": 5701,
      "##gagn": 5702,
      "##teur.": 5703,
      "##sl": 5704,
      "##zéro": 5705,
      "##mac": 5706,
      "##éven": 5707,
      "##âch": 5708,
      "##oubli": 5709,
      "##de recherche ": 5710,
      "##le document ": 5711,
      "##orise ": 5712,
      "##d'images ": 5713,
      "##constru": 5714,
      "##une image ": 5715,
      "##rési": 5716,
      "##e. com": 5717,
      "##tuiles ": 5718,
      "##ou bien ": 5719,
      "##pas la ": 5720,
      "##%1 160: %2": 5721,
      "##er la taille ": 5722,
      "##this ": 5723,
      "##dans la boîte de dialogue ": 5724,
      "##à l'utilisateur ": 5725,
      "##root ": 5726,
      "##ements": 5727,
      "##lorsque la ": 5728,
      "##thèm": 5729,
      "##dates ": 5730,
      "##environnement de ": 5731,
      "##en dessous ": 5732,
      "##travailler ": 5733,
      "##temporaire ": 5734,
      "##considér": 5735,
      "## dev/ ": 5736,
      "##rayon ": 5737,
      "##indentation ": 5738,
      "##sous la forme ": 5739,
      "##turt": 5740,
      "##fermeture ": 5741,
      "##CVS": 5742,
      "Boîte de dialogu": 5743,
      "Val": 5744,
      "##pop": 5745,
      "##vu ": 5746,
      "##mélang": 5747,
      "##èrent ": 5748,
      "##Ru": 5749,
      "##» ": 5750,
      "##Cach": 5751,
      "##Pal": 5752,
      "##PEG": 5753,
      "##We": 5754,
      "##ez à ": 5755,
      "##l'éditeur ": 5756,
      "##impossible d'": 5757,
      "##tables ": 5758,
      "##tation du ": 5759,
      "##e... ": 5760,
      "##/ usr/ ": 5761,
      "##bleu": 5762,
      "##thé": 5763,
      "##que vous ne ": 5764,
      "##endroi": 5765,
      "##text ": 5766,
      "##. Vérifiez ": 5767,
      "La valeur ": 5768,
      "##serveur.": 5769,
      "##entier ": 5770,
      "##intern": 5771,
      "Afficher ": 5772,
      "Affiche les ": 5773,
      "##enregistrées ": 5774,
      "Impossible de supprim": 5775,
      "##spécifier ": 5776,
      "##pourriez ": 5777,
      "##requier": 5778,
      "##code source ": 5779,
      "##astu": 5780,
      "##DVD ": 5781,
      "##capable de ": 5782,
      "##. Wat": 5783,
      "##planifi": 5784,
      "##néga": 5785,
      "##origine ": 5786,
      "##GnuPG": 5787,
      "##Lauri. Wat": 5788,
      "Ser": 5789,
      "##cm": 5790,
      "##émul": 5791,
      "##Docu": 5792,
      "##(A": 5793,
      "##e du ": 5794,
      "##enter ": 5795,
      "##. K": 5796,
      "##ez votre ": 5797,
      "## doivent ": 5798,
      "##à « 160 ": 5799,
      "##ne peuvent ": 5800,
      "##ement de la ": 5801,
      "##cas de ": 5802,
      "##coin ": 5803,
      "##formes ": 5804,
      "##partitions ": 5805,
      "##us.": 5806,
      "##layer ": 5807,
      "##regroup": 5808,
      "##boîtes de ": 5809,
      "##tement.": 5810,
      "##row": 5811,
      "##rencontr": 5812,
      "##instant": 5813,
      "##serveur mandataire ": 5814,
      "##fonctionner ": 5815,
      "##opération": 5816,
      "##configuré ": 5817,
      "##pendant la ": 5818,
      "##après avoir ": 5819,
      "Erreur lors de l'": 5820,
      "##collection": 5821,
      "##forum ": 5822,
      "Cliquez sur ce bouton pour ": 5823,
      "##archives ": 5824,
      "##question ": 5825,
      "##d'exportation ": 5826,
      "##classes ": 5827,
      "##travaill": 5828,
      "##ommander ": 5829,
      "##duction ": 5830,
      "##détaill": 5831,
      "##aires.": 5832,
      "##digiKam": 5833,
      "##équip": 5834,
      "Importation ": 5835,
      "##estionnaire de ": 5836,
      "##d'importation ": 5837,
      "##Quitter": 5838,
      "Pr": 5839,
      "##afin ": 5840,
      "##gre": 5841,
      "##tés": 5842,
      "##brouill": 5843,
      "##edi": 5844,
      "##marg": 5845,
      "##F-": 5846,
      "##5.": 5847,
      "##. f": 5848,
      "##pour tous les ": 5849,
      "##est l'": 5850,
      "##conom": 5851,
      "##débu": 5852,
      "##défil": 5853,
      "##moï": 5854,
      "##mots de ": 5855,
      "##du projet ": 5856,
      "##apprendre ": 5857,
      "##appelle ": 5858,
      "##cours ": 5859,
      "##dans la zone de ": 5860,
      "##calcule ": 5861,
      "##application.": 5862,
      "##enregistrée ": 5863,
      "Construire ": 5864,
      "##correspondance ": 5865,
      "##visibles ": 5866,
      "##après la ": 5867,
      "##mot de pass": 5868,
      "##barre lat": 5869,
      "##développeurs ": 5870,
      "##pris en charge ": 5871,
      "##masqu": 5872,
      "##KMail ": 5873,
      "##schéma": 5874,
      "##The ": 5875,
      "##périodi": 5876,
      "##rgan": 5877,
      "##ppuyez ": 5878,
      "##vous demandera ": 5879,
      "Autoris": 5880,
      "Tous les ": 5881,
      "##17": 5882,
      "##économ": 5883,
      "##kmail": 5884,
      "##TC": 5885,
      "##Flèche ": 5886,
      "##MS": 5887,
      "##PAT": 5888,
      "##le message ": 5889,
      "##le mot de passe ": 5890,
      "##est affich": 5891,
      "##compression ": 5892,
      "##élai": 5893,
      "##apparti": 5894,
      "##« 160 S": 5895,
      "##er le message ": 5896,
      "## 160 » (": 5897,
      "Imprim": 5898,
      "##160 » (": 5899,
      "##er l'affichage ": 5900,
      "##%2)": 5901,
      "##lication ": 5902,
      "##spéciaux ": 5903,
      "##mieux ": 5904,
      "##étap": 5905,
      "##configurer le ": 5906,
      "##dans l'onglet ": 5907,
      "##nom de la ": 5908,
      "##beso": 5909,
      "##façon d": 5910,
      "##INDI": 5911,
      "##Nouvelle ": 5912,
      "##pour afficher les ": 5913,
      "##pixel": 5914,
      "##bibliothèques ": 5915,
      "##syntaxe ": 5916,
      "##suivantes 160:": 5917,
      "##ellico": 5918,
      "##nécessite ": 5919,
      "##ASCII": 5920,
      "##meilleurs scor": 5921,
      "##quadri": 5922,
      "##alterna": 5923,
      "##là ": 5924,
      "##ps": 5925,
      "##hors ": 5926,
      "##Amarok": 5927,
      "##ID ": 5928,
      "##On ": 5929,
      "##est d'": 5930,
      "##en saisissant ": 5931,
      "##utilise le ": 5932,
      "##tures ": 5933,
      "##terme ": 5934,
      "##tenta": 5935,
      "##afficheur ": 5936,
      "##suppor": 5937,
      "##pour les fichiers ": 5938,
      "##modem ": 5939,
      "##onglet": 5940,
      "##avant d'": 5941,
      "##lancer ": 5942,
      "##manuell": 5943,
      "## document": 5944,
      "##Annuler ": 5945,
      "##explor": 5946,
      "(Dés)": 5947,
      "##Si ": 5948,
      "##Vous pouvez ": 5949,
      "##édu": 5950,
      "##fran": 5951,
      "##Bri": 5952,
      "##Par": 5953,
      "##ony": 5954,
      "##es) ": 5955,
      "##. (": 5956,
      "##insé": 5957,
      "##les deux ": 5958,
      "##te à ": 5959,
      "## droi": 5960,
      "##econ": 5961,
      "##suit": 5962,
      "##utilisez la ": 5963,
      "##tation des ": 5964,
      "##ée à ": 5965,
      "##ée par ": 5966,
      "##sert ": 5967,
      "##serait ": 5968,
      "##ser-dépos": 5969,
      "##orité ": 5970,
      "##ifféren": 5971,
      "##info ": 5972,
      "##démarrez ": 5973,
      "##vrai ": 5974,
      "##adresse de ": 5975,
      "##gestion ": 5976,
      "##identique ": 5977,
      "##courriel ": 5978,
      "##courriels ": 5979,
      "##sous-dossiers ": 5980,
      "##sélectionnée": 5981,
      "##Chang": 5982,
      "##kde-": 5983,
      "##KMy": 5984,
      "##numérique ": 5985,
      "##minimum": 5986,
      "##normale ": 5987,
      "##s'est produite ": 5988,
      "Ignor": 5989,
      "Je ": 5990,
      "##ol ": 5991,
      "##gment": 5992,
      "##tels ": 5993,
      "##som": 5994,
      "##Ge": 5995,
      "##User": 5996,
      "##(pex ": 5997,
      "##ences ": 5998,
      "##ez-vous ": 5999,
      "##vous souhaitez ": 6000,
      "##un message ": 6001,
      "##console ": 6002,
      "##oss": 6003,
      "##de la barre d'outils ": 6004,
      "##ent la ": 6005,
      "##age de la ": 6006,
      "##érer ": 6007,
      "##partie de ": 6008,
      "##. Sinon ": 6009,
      "##suppression": 6010,
      "## 160 » est ": 6011,
      "##définit ": 6012,
      "##ici pour ": 6013,
      "##print ": 6014,
      "##kontac": 6015,
      "##ting ": 6016,
      "##surbrillance ": 6017,
      "##search": 6018,
      "##indiquer ": 6019,
      "##sous-menu ": 6020,
      "##électroniques ": 6021,
      "##le nom de ": 6022,
      "##permettant d'": 6023,
      "##celui -ci ": 6024,
      "##glob": 6025,
      "##commentaire ": 6026,
      "##synchronisation ": 6027,
      "##pointeur de la souris ": 6028,
      "##n'ont pas ": 6029,
      "##télescope ": 6030,
      "##KMyMon": 6031,
      "Lanc": 6032,
      "Texte ": 6033,
      "##lais ": 6034,
      "##-il ": 6035,
      "##n. ": 6036,
      "##veut ": 6037,
      "##V ": 6038,
      "##q ": 6039,
      "##Fre": 6040,
      "##Coul": 6041,
      "##Mac": 6042,
      "##(comme ": 6043,
      "##s 160: ": 6044,
      "##inten": 6045,
      "##intitu": 6046,
      "##ez simplement ": 6047,
      "##ture d'": 6048,
      "##ée pour ": 6049,
      "##) pour ": 6050,
      "##phy": 6051,
      "##création": 6052,
      "##vers une ": 6053,
      "##no ": 6054,
      "##graphie ": 6055,
      "L'onglet ": 6056,
      "## est une ": 6057,
      "Définissez ": 6058,
      "##es. Il ": 6059,
      "Inst": 6060,
      "##transf": 6061,
      "Outils ": 6062,
      "Une fois ": 6063,
      "##shell": 6064,
      "##dessous ": 6065,
      "##barre de titre ": 6066,
      "##. Voulez -vous vraiment ": 6067,
      "##extension": 6068,
      "##masse ": 6069,
      "## 160! ": 6070,
      "##longueur ": 6071,
      "##compatible ": 6072,
      "##matériel ": 6073,
      "##diffusion ": 6074,
      "##utilitaire ": 6075,
      "##info: status": 6076,
      "##ne seront pas ": 6077,
      "##betwe": 6078,
      "##requiert ": 6079,
      "##façon dont ": 6080,
      "##-ce que ": 6081,
      "##héro": 6082,
      "##kate ": 6083,
      "##AC": 6084,
      "##Tr": 6085,
      "##/ dev/ ": 6086,
      "##la date ": 6087,
      "##la dernière ": 6088,
      "##pris": 6089,
      "##une erreur ": 6090,
      "##ator ": 6091,
      "##e. En ": 6092,
      "##serez ": 6093,
      "##ou non": 6094,
      "##pluie ": 6095,
      "##sur le bureau ": 6096,
      "## 160 » pour ": 6097,
      "##avig": 6098,
      "Mode ": 6099,
      "##atus ": 6100,
      "##étape ": 6101,
      "##numéro ": 6102,
      "##attendu": 6103,
      "##mémoi": 6104,
      "##appelée ": 6105,
      "##cette option est cochée ": 6106,
      "##sauf ": 6107,
      "##_BAR_Fichiers ": 6108,
      "##moyenne ": 6109,
      "## du dossier ": 6110,
      "##séparés ": 6111,
      "##configuré": 6112,
      "##fenêtre.": 6113,
      "##jointes ": 6114,
      "##Linux": 6115,
      "##Enregistrer ": 6116,
      "##habitu": 6117,
      "##carnet d'adress": 6118,
      "Liste des ": 6119,
      "##amba ": 6120,
      "##assurer ": 6121,
      "##o not translate ": 6122,
      "##igne ": 6123,
      "##lar": 6124,
      "##effi": 6125,
      "##v ": 6126,
      "##13": 6127,
      "##Vous ": 6128,
      "##kr": 6129,
      "##C+": 6130,
      "##(s)": 6131,
      "##en dé": 6132,
      "##de vos ": 6133,
      "##euse ": 6134,
      "##insi ": 6135,
      "##inte": 6136,
      "##et du ": 6137,
      "##que cette ": 6138,
      "##une liste des ": 6139,
      "##é sur ": 6140,
      "##en ligne de commande ": 6141,
      "##réserv": 6142,
      "##du temps ": 6143,
      "##ées en ": 6144,
      "##) ou ": 6145,
      "##qui contient ": 6146,
      "##rack": 6147,
      "##obti": 6148,
      "##commande": 6149,
      "##ted ": 6150,
      "##connaî": 6151,
      "##couleurs": 6152,
      "##changement de ": 6153,
      "##ligne.": 6154,
      "##installer ": 6155,
      "##airement ": 6156,
      "##permettra ": 6157,
      "##page": 6158,
      "Il n'y a ": 6159,
      "##faible ": 6160,
      "##bilité": 6161,
      "Recherche ": 6162,
      "##flux": 6163,
      "## direc": 6164,
      "##logiciels ": 6165,
      "##PDF": 6166,
      "##n'existe pas ": 6167,
      "Module externe ": 6168,
      "##heure": 6169,
      "##réduire ": 6170,
      "##aider à ": 6171,
      "Sur ": 6172,
      "Retourne ": 6173,
      "##work": 6174,
      "##statistiques ": 6175,
      "Spécifi": 6176,
      "##d'exploitation ": 6177,
      "Gra": 6178,
      "Paramètres ": 6179,
      "Se ": 6180,
      "##oyez ": 6181,
      "##gar": 6182,
      "##py": 6183,
      "##ton": 6184,
      "##Tab": 6185,
      "##Ferm": 6186,
      "##Ca": 6187,
      "##les options ": 6188,
      "##l'action ": 6189,
      "##réellement ": 6190,
      "##ce n'est pas ": 6191,
      "##e. g": 6192,
      "##min ": 6193,
      "##lum": 6194,
      "##ror ": 6195,
      "##rotation ": 6196,
      "##cript ": 6197,
      "##ainsi": 6198,
      "##définis ": 6199,
      "##automatiquement": 6200,
      "##istance ": 6201,
      "Utiliser la ": 6202,
      "Vous n'avez pas ": 6203,
      "##envoyer ": 6204,
      "Ctrl Q ": 6205,
      "##essayer ": 6206,
      "##info: tooltip": 6207,
      "Copi": 6208,
      "##emplacement": 6209,
      "##joindre ": 6210,
      "##minutes ": 6211,
      "##consultez ": 6212,
      "Configuration du ": 6213,
      "##arrière-plan ": 6214,
      "##glisser-dépos": 6215,
      "##between ": 6216,
      "Ne ": 6217,
      "Plu": 6218,
      "##telles ": 6219,
      "##1 160 ": 6220,
      "##émo": 6221,
      "##é 160: ": 6222,
      "##Du": 6223,
      "##Ap": 6224,
      "##trop": 6225,
      "##un dossi": 6226,
      "##pal": 6227,
      "##orti": 6228,
      "##ecture ": 6229,
      "##et de la ": 6230,
      "##que nous ": 6231,
      "##aites ": 6232,
      "##list ": 6233,
      "##listes ": 6234,
      "##divers ": 6235,
      "##est plus ": 6236,
      "##est utilisé ": 6237,
      "##des dossiers ": 6238,
      "##utilisez le ": 6239,
      "##proch": 6240,
      "##tutori": 6241,
      "##pas à ": 6242,
      "##mati": 6243,
      "##forman": 6244,
      "##ées par ": 6245,
      "##er les informations ": 6246,
      "##valu": 6247,
      "## dans une ": 6248,
      "##modifier l'": 6249,
      "##crit": 6250,
      "## et les ": 6251,
      "##calcu": 6252,
      "##iden": 6253,
      "##abri": 6254,
      "##KDEPr": 6255,
      "##utiliser pour ": 6256,
      "##en utilisant la ": 6257,
      "##présente ": 6258,
      "##documentation de ": 6259,
      "##propriétaire ": 6260,
      "##vers le bas ": 6261,
      "##dony": 6262,
      "##constitu": 6263,
      "##client de ": 6264,
      "##utilisation du ": 6265,
      "##- - - - - - - - ": 6266,
      "##galax": 6267,
      "##pour plus de détail": 6268,
      "##comparaison ": 6269,
      "##occurrence ": 6270,
      "##interprét": 6271,
      "##instantan": 6272,
      "Adress": 6273,
      "Bi": 6274,
      "Seu": 6275,
      "##aw": 6276,
      "##aissez ": 6277,
      "##ton ": 6278,
      "##tég": 6279,
      "##Sélectionn": 6280,
      "##somm": 6281,
      "##c. ": 6282,
      "##(C": 6283,
      "##JPEG": 6284,
      "##ou d'": 6285,
      "##de base ": 6286,
      "##tre.": 6287,
      "##l'heure ": 6288,
      "##que si vous ": 6289,
      "##d'information ": 6290,
      "##un accès ": 6291,
      "##oign": 6292,
      "##sur « 160 ": 6293,
      "##de la vidéo": 6294,
      "##proxy": 6295,
      "##vides ": 6296,
      "##n'êtes ": 6297,
      "##de l'écran": 6298,
      "##il peut ": 6299,
      "##comme le ": 6300,
      "##commande.": 6301,
      "##orien": 6302,
      "##outils de ": 6303,
      "##sous le ": 6304,
      "##comporte ": 6305,
      "##CD-": 6306,
      "##fin de la ": 6307,
      "##pread": 6308,
      "##horizont": 6309,
      "##actuelle.": 6310,
      "Démarr": 6311,
      "Quand vous ": 6312,
      "##blanc ": 6313,
      "##traduction ": 6314,
      "##tableau de bord ": 6315,
      "Cochez cette case pour ": 6316,
      "##instructions ": 6317,
      "Par défaut ": 6318,
      "##coloration syntaxique ": 6319,
      "##Micros": 6320,
      "##ga": 6321,
      "##Sh": 6322,
      "##satu": 6323,
      "##ssurez -vous ": 6324,
      "##Nomb": 6325,
      "##22": 6326,
      "##Res": 6327,
      "##DS": 6328,
      "##le contenu ": 6329,
      "##. Quand ": 6330,
      "##ine": 6331,
      "##les dossiers ": 6332,
      "##d'écran ": 6333,
      "##vous verrez ": 6334,
      "##un nom": 6335,
      "##une seule ": 6336,
      "##décor": 6337,
      "##repor": 6338,
      "##du jeu ": 6339,
      "##vol": 6340,
      "##/ k": 6341,
      "##« 160 L": 6342,
      "##%1 (": 6343,
      "##ériphéri": 6344,
      "##avec ce ": 6345,
      "##avec votre ": 6346,
      "##160: la ": 6347,
      "##lay": 6348,
      "##facette ": 6349,
      "##accè": 6350,
      "##olé": 6351,
      "##catalogu": 6352,
      "##envoyés ": 6353,
      "##index ": 6354,
      "##mail. com": 6355,
      "Sélectionnez le ": 6356,
      "##simples ": 6357,
      "##pens": 6358,
      "##formatage ": 6359,
      "##ce qui est ": 6360,
      "##règles de ": 6361,
      "##se trouvent ": 6362,
      "##const ": 6363,
      "##extensions ": 6364,
      "##global": 6365,
      "##diffici": 6366,
      "##remplir ": 6367,
      "##fermetu": 6368,
      "##flott": 6369,
      "##techni": 6370,
      "##trl+": 6371,
      "##Nepomuk": 6372,
      "##00 0x00 0x": 6373,
      "##onnexion ": 6374,
      "##den": 6375,
      "##ah": 6376,
      "##gla": 6377,
      "##Se": 6378,
      "##jo": 6379,
      "##DN": 6380,
      "##Page ": 6381,
      "##==": 6382,
      "##de configuration de ": 6383,
      "##ani": 6384,
      "##qualité": 6385,
      "##es. Les ": 6386,
      "##la section ": 6387,
      "##ect": 6388,
      "##l'état ": 6389,
      "##ne soit ": 6390,
      "##utiliser une ": 6391,
      "##ce fichier ": 6392,
      "##amment ": 6393,
      "##ées et ": 6394,
      "##figure ": 6395,
      "##qui se ": 6396,
      "##sock": 6397,
      "Conserv": 6398,
      "Contrô": 6399,
      "##éditer ": 6400,
      "##priorité ": 6401,
      "##ajouter une ": 6402,
      "##choisir une ": 6403,
      "##quelcon": 6404,
      "##envoyé ": 6405,
      "##ouvert": 6406,
      "##. Si le ": 6407,
      "##cellul": 6408,
      "##numéros de ": 6409,
      "##. Nous ": 6410,
      "##brell": 6411,
      "##-2009 ": 6412,
      "##logiciel": 6413,
      "##horaire ": 6414,
      "##KMail": 6415,
      "##décrit ": 6416,
      "##puisse ": 6417,
      "##atteint ": 6418,
      "##K3b": 6419,
      "##virgule ": 6420,
      "##permettent de ": 6421,
      "##UNIX ": 6422,
      "##échéance ": 6423,
      "##méta-données ": 6424,
      "##diaposi": 6425,
      "##DCOP": 6426,
      "##c) 199": 6427,
      "Toutes les ": 6428,
      "##noi": 6429,
      "##S/ ": 6430,
      "##vont ": 6431,
      "##Car": 6432,
      "##Ki": 6433,
      "##. À ": 6434,
      "##la possibili": 6435,
      "## deux ": 6436,
      "##l' ": 6437,
      "##vous permettant de ": 6438,
      "##dir ": 6439,
      "##exam": 6440,
      "##courb": 6441,
      "## dans votre ": 6442,
      "##loca": 6443,
      "##érale ": 6444,
      "##position du ": 6445,
      "##correcte ": 6446,
      "##e. C'est ": 6447,
      "##remp": 6448,
      "##secondes": 6449,
      "##petites ": 6450,
      "##en cours": 6451,
      "Activer la ": 6452,
      "##partage ": 6453,
      "##actif.": 6454,
      "##vers le haut ": 6455,
      "##courant.": 6456,
      "##située ": 6457,
      "##torrent ": 6458,
      "##file d'attente ": 6459,
      "##projet.": 6460,
      "##« 160 %2 160 » ": 6461,
      "##avec le BDS ": 6462,
      "##légen": 6463,
      "##pièces jointes ": 6464,
      "##desktop": 6465,
      "##() renvoie la ": 6466,
      "De ": 6467,
      "Par": 6468,
      "##rch": 6469,
      "##ygon": 6470,
      "##IB": 6471,
      "##Bu": 6472,
      "##Y ": 6473,
      "##. En": 6474,
      "## dem": 6475,
      "##est activ": 6476,
      "##combien ": 6477,
      "##cass": 6478,
      "##de la liste des ": 6479,
      "##« 160 D": 6480,
      "## de K": 6481,
      "##performan": 6482,
      "##sont 160:": 6483,
      "##sont affichés ": 6484,
      "##il sera ": 6485,
      "##000": 6486,
      "##elles.": 6487,
      "##égal": 6488,
      "##signet ": 6489,
      "##installés ": 6490,
      "##sous forme de ": 6491,
      "##tinat": 6492,
      "##vision": 6493,
      "##contrôle de ": 6494,
      "##. Il y a ": 6495,
      "Erreur lors de la ": 6496,
      "##petits ": 6497,
      "##premier plan": 6498,
      "##demandé ": 6499,
      "## disque ": 6500,
      "##mettre à jour ": 6501,
      "##. Ceci est ": 6502,
      "##utilisation des ": 6503,
      "##meilleure ": 6504,
      "## définit ": 6505,
      "##pièce join": 6506,
      "##tableau de bord": 6507,
      "##récupér": 6508,
      "##hyper": 6509,
      "##héros ": 6510,
      "##neu": 6511,
      "##util": 6512,
      "##tx": 6513,
      "##tout": 6514,
      "##mal ": 6515,
      "##100 ": 6516,
      "##égra": 6517,
      "##fav": 6518,
      "##enregistre ": 6519,
      "##sif": 6520,
      "##l'écras": 6521,
      "##pour voir ": 6522,
      "##ave ": 6523,
      "##récur": 6524,
      "##ne fonctionn": 6525,
      "##tar ": 6526,
      "##ource ": 6527,
      "##de la base de données ": 6528,
      "##ou cache ": 6529,
      "##de l'écran ": 6530,
      "##qui peuvent être ": 6531,
      "##vergla": 6532,
      "##donné": 6533,
      "##disposition ": 6534,
      "##puzz": 6535,
      "##loge ": 6536,
      "##alisation ": 6537,
      "##KDE.": 6538,
      "Détermin": 6539,
      "##entre deux ": 6540,
      "##terminé ": 6541,
      "##contrain": 6542,
      "##position": 6543,
      "Vous pouvez choisir ": 6544,
      "##barre d'état": 6545,
      "Impossible d'écrire ": 6546,
      "##certain": 6547,
      "##droite": 6548,
      "##manière dont ": 6549,
      "##styles ": 6550,
      "##propor": 6551,
      "##sur votre système ": 6552,
      "##consiste ": 6553,
      "##symboles ": 6554,
      "##supplémentaire ": 6555,
      "##particulier ": 6556,
      "##sauvegard": 6557,
      "##variable d'environnement ": 6558,
      "##item: in": 6559,
      "##ular ": 6560,
      "##base de données": 6561,
      "##appareil photo ": 6562,
      "##creusez ": 6563,
      "##interfaces ": 6564,
      "##Message ": 6565,
      "##plus tard": 6566,
      "##émulateur de ": 6567,
      "##verglaç": 6568,
      "Dés": 6569,
      "Mon": 6570,
      "##lance ": 6571,
      "##pô": 6572,
      "##SSL": 6573,
      "##Samba ": 6574,
      "##Texte ": 6575,
      "##de chaque ": 6576,
      "##a un ": 6577,
      "##trou": 6578,
      "##les commandes ": 6579,
      "##rafraîch": 6580,
      "##est activée ": 6581,
      "##en même ": 6582,
      "##en lecture ": 6583,
      "##de la commande ": 6584,
      "##er les éléments ": 6585,
      "##) est ": 6586,
      "##dur ": 6587,
      "##ould ": 6588,
      "##bles": 6589,
      "##clai": 6590,
      "##tion de votre ": 6591,
      "##illem": 6592,
      "##à la place ": 6593,
      "## et le ": 6594,
      "##oblig": 6595,
      "##boîte de dialogue.": 6596,
      "##%1 est ": 6597,
      "##érarch": 6598,
      "##démarre ": 6599,
      "##gauche de la ": 6600,
      "##correspondante ": 6601,
      "##show": 6602,
      "##projet de ": 6603,
      "##é par le ": 6604,
      "##Utilisez ": 6605,
      "Modifier la ": 6606,
      "##celle -ci ": 6607,
      "##torren": 6608,
      "##vitesse de ": 6609,
      "##musique ": 6610,
      "##Konqueror": 6611,
      "##KStar": 6612,
      "##au démarrage ": 6613,
      "##keyword ": 6614,
      "##locaux": 6615,
      "##pseudony": 6616,
      "##konqueror.": 6617,
      "##HOME ": 6618,
      "##conséquent ": 6619,
      "##milli": 6620,
      "##Graph": 6621,
      "Marqu": 6622,
      "##er les raccourcis clavier": 6623,
      "##action: button": 6624,
      "##=\\\\\\\\{}": 6625,
      "Prise ": 6626,
      "##integ": 6627,
      " lt ": 6628,
      "/ ": 6629,
      "N'": 6630,
      "##amen": 6631,
      "##:00": 6632,
      "##2) ": 6633,
      "##IL": 6634,
      "##FTP ": 6635,
      "##Goo": 6636,
      "##enter": 6637,
      "##encor": 6638,
      "##. G": 6639,
      "##fir": 6640,
      "##l'adresse ": 6641,
      "##un élément ": 6642,
      "##un certain ": 6643,
      "##dis ": 6644,
      "##pour faire ": 6645,
      "##est désactiv": 6646,
      "##une ligne ": 6647,
      "##d '": 6648,
      "##duit ": 6649,
      "## 160 »)": 6650,
      "##box ": 6651,
      "##aste ": 6652,
      "##poche ": 6653,
      "##tive de ": 6654,
      "##valeur": 6655,
      "##icName": 6656,
      "##res.": 6657,
      "##er l'élément ": 6658,
      "##supprime ": 6659,
      "##s'affiche ": 6660,
      "##interrog": 6661,
      "##chera ": 6662,
      "##200 ": 6663,
      "##era le ": 6664,
      "##n'est pas cochée ": 6665,
      "##taille de ": 6666,
      "##sur la droite ": 6667,
      "##signet": 6668,
      "##lorsque l'": 6669,
      "##temps de ": 6670,
      "##konsole": 6671,
      "##personnel ": 6672,
      "##aussi être ": 6673,
      "##correspondent ": 6674,
      "##case à cocher ": 6675,
      "##localis": 6676,
      "Erreur de ": 6677,
      "##niveau d'": 6678,
      "##. Cela signifie ": 6679,
      "Ouvre une boîte de dialogue ": 6680,
      "Problème ": 6681,
      "##beaucoup ": 6682,
      "##histo": 6683,
      "##tâches": 6684,
      "Nouvelle ": 6685,
      "##hiérarch": 6686,
      "##réussi": 6687,
      "##ressembl": 6688,
      "##gravure ": 6689,
      "##oft ": 6690,
      "##ne correspond pas ": 6691,
      "##erci de ": 6692,
      "##rempliss": 6693,
      "Syn": 6694,
      "##len": 6695,
      "##ool": 6696,
      "##rs ": 6697,
      "##ml ": 6698,
      "##04": 6699,
      "##cBri": 6700,
      "##jok": 6701,
      "##wid": 6702,
      "##ale": 6703,
      "##que cela ": 6704,
      "##accour": 6705,
      "##est utilisée pour ": 6706,
      "##exporter ": 6707,
      "##compar": 6708,
      "##ce bouton ": 6709,
      "##se déplac": 6710,
      "##vice ": 6711,
      "##és à ": 6712,
      "##sélectionner le ": 6713,
      "##elle": 6714,
      "##paraî": 6715,
      "##dans la fenêtre de ": 6716,
      "##tiques": 6717,
      "##copy ": 6718,
      "##d'un fichier ": 6719,
      "##voyez ": 6720,
      "##précisi": 6721,
      "##. De ": 6722,
      "##sous-dossier ": 6723,
      "##er de nouveaux ": 6724,
      "##commençant ": 6725,
      "##périphérique de ": 6726,
      "Expor": 6727,
      "##produi": 6728,
      "##latex": 6729,
      "##neige ": 6730,
      "##Exécu": 6731,
      "##utile pour ": 6732,
      "##inférieur ": 6733,
      "##meilleur ": 6734,
      "##Mah": 6735,
      "##rappel ": 6736,
      "##branch": 6737,
      "##integer)": 6738,
      "##del": 6739,
      "##dent ": 6740,
      "##gori": 6741,
      "##-le ": 6742,
      "##xe ": 6743,
      "##Sign": 6744,
      "##rup": 6745,
      "##Net": 6746,
      "##faire": 6747,
      "##Cette ": 6748,
      "##Pyth": 6749,
      "##3b ": 6750,
      "##KG": 6751,
      "##tinu": 6752,
      "##er 160 » ": 6753,
      "##all ": 6754,
      "##vous donne ": 6755,
      "##et/ ": 6756,
      "##une connexion ": 6757,
      "##explici": 6758,
      "##recharg": 6759,
      "##: :": 6760,
      "##mot": 6761,
      "##option.": 6762,
      "##de la police ": 6763,
      "##de la documentation ": 6764,
      "##du type ": 6765,
      "##de l'application ": 6766,
      "##qui ont été ": 6767,
      "##sont affichées ": 6768,
      "##er la vue ": 6769,
      "##dans la zone ": 6770,
      "Affiche le ": 6771,
      "##intégra": 6772,
      "##oldr": 6773,
      "##ich ": 6774,
      "##échapp": 6775,
      "##tout en ": 6776,
      "##envoyer un ": 6777,
      "##shell ": 6778,
      "##lancé ": 6779,
      "##effectuer une ": 6780,
      "##verticale ": 6781,
      "Ce module ": 6782,
      "##variabl": 6783,
      "##ci-dessu": 6784,
      "##Démar": 6785,
      "##Imprim": 6786,
      "##en-tê": 6787,
      "##-2008 ": 6788,
      "Cochez cette option ": 6789,
      "##eusement ": 6790,
      "##prise en charg": 6791,
      "##balle ": 6792,
      "##possibilités ": 6793,
      "##maximum de ": 6794,
      "##Book": 6795,
      "Arrê": 6796,
      "##Terre ": 6797,
      "Permet de ": 6798,
      "##faisant ": 6799,
      "Type de ": 6800,
      "Saisir ": 6801,
      "##oldrunn": 6802,
      "Maintenant ": 6803,
      "##ta ": 6804,
      "##memb": 6805,
      "##16 ": 6806,
      "##Ver": 6807,
      "##faus": 6808,
      "##%{": 6809,
      "##Remarque 160: ": 6810,
      "##Dis": 6811,
      "##kppp ": 6812,
      "##(e. g": 6813,
      "##)Name": 6814,
      "##enir ": 6815,
      "##enomm": 6816,
      "##ticô": 6817,
      "##de caractères ": 6818,
      "##er 160 »": 6819,
      "##er/ ": 6820,
      "##trou ": 6821,
      "##la ligne ": 6822,
      "##lit ": 6823,
      "##ateurs ": 6824,
      "##rée de ": 6825,
      "##ne se ": 6826,
      "##de la colonne ": 6827,
      "##main ": 6828,
      "##ciel ": 6829,
      "##si elle ": 6830,
      "##de l'interface ": 6831,
      "##qui peut être ": 6832,
      "##thi": 6833,
      "##possible.": 6834,
      "##ter un ": 6835,
      "##lumière ": 6836,
      "##%1 %2": 6837,
      "##té des ": 6838,
      "##priorit": 6839,
      "##voulez pas ": 6840,
      "##différente ": 6841,
      "##avoir un ": 6842,
      "Utiliser ": 6843,
      "##état de ": 6844,
      "##Insér": 6845,
      "## dans le menu ": 6846,
      "##indiqué ": 6847,
      "##indiquée ": 6848,
      "##. Ex": 6849,
      "##er ou non ": 6850,
      "##mémoire": 6851,
      "##vers le bas": 6852,
      "##Ann": 6853,
      "##central ": 6854,
      "Ajouter un ": 6855,
      "##s'il faut ": 6856,
      "##beaucoup d'": 6857,
      "##gauche.": 6858,
      "##ances de ": 6859,
      "##chercher ": 6860,
      "##extraire ": 6861,
      "##TeX ": 6862,
      "##raison ": 6863,
      "##menu contextuel": 6864,
      "##devrait être ": 6865,
      "##d'édition ": 6866,
      "##SQL ": 6867,
      "##locaux ": 6868,
      "##réception ": 6869,
      "##intervalle de ": 6870,
      "##sensi": 6871,
      "##conflit ": 6872,
      "##Configuration": 6873,
      "##aspect ": 6874,
      "##false ": 6875,
      "##équipe de ": 6876,
      "Voir ": 6877,
      "##olu": 6878,
      "##gle ": 6879,
      "##savez ": 6880,
      "##s. Vous pouvez ": 6881,
      "##ht": 6882,
      "##D-B": 6883,
      "##AA": 6884,
      "##MM": 6885,
      "##99": 6886,
      "##enten": 6887,
      "##ind ": 6888,
      "##à jour": 6889,
      "##exerci": 6890,
      "##agran": 6891,
      "##compr": 6892,
      "##ne le ": 6893,
      "##utiliser des ": 6894,
      "##motif ": 6895,
      "##écout": 6896,
      "##e. net": 6897,
      "##« 160 g": 6898,
      "##si une ": 6899,
      "##du d": 6900,
      "##du dé": 6901,
      "##perman": 6902,
      "##160: le ": 6903,
      "##cette commande ": 6904,
      "##données. ": 6905,
      "##ter ce ": 6906,
      "##bits ": 6907,
      "##création de ": 6908,
      "##elles sont ": 6909,
      "##unité ": 6910,
      "##Comman": 6911,
      "Ins": 6912,
      "##ature ": 6913,
      "##envoyer des ": 6914,
      "##script": 6915,
      "##automatiquement les ": 6916,
      "Si cette case est cochée ": 6917,
      "##lancement ": 6918,
      "##Qu'est ": 6919,
      "##binaire ": 6920,
      "##ormalement ": 6921,
      "##libell": 6922,
      "##nécessaire": 6923,
      "##Out": 6924,
      "##général ": 6925,
      "##jusqu'à ": 6926,
      "##lesquelles ": 6927,
      "##gérer les ": 6928,
      "##profilage ": 6929,
      "##correspond au ": 6930,
      "##horloge ": 6931,
      "##clavier.": 6932,
      "##. Mais ": 6933,
      "##suivants 160:": 6934,
      "##diagramme ": 6935,
      "##Appliqu": 6936,
      "##Mik": 6937,
      "##CVS ": 6938,
      "##domaine ": 6939,
      "##IMAP ": 6940,
      "##parmi les ": 6941,
      "##plasmoï": 6942,
      "##température ": 6943,
      "##Web ": 6944,
      "##rganiz": 6945,
      "##Microsoft ": 6946,
      "Ges": 6947,
      "Nous ": 6948,
      "##bil": 6949,
      "##Sch": 6950,
      "##s. Les ": 6951,
      "##Vue ": 6952,
      "##NF": 6953,
      "##Navig": 6954,
      "##Bé": 6955,
      "##Ph": 6956,
      "##oun ": 6957,
      "##end ": 6958,
      "##ques.": 6959,
      "##la nouvelle ": 6960,
      "##à être ": 6961,
      "##une icône ": 6962,
      "##ext ": 6963,
      "##retrouv": 6964,
      "##de la fonction ": 6965,
      "##e. Un ": 6966,
      "##parent ": 6967,
      "##té à ": 6968,
      "##er la liste des ": 6969,
      "##il n'est pas ": 6970,
      "##verbes ": 6971,
      "##elle-": 6972,
      "##lation ": 6973,
      "##tor ": 6974,
      "##ajout ": 6975,
      "##spéciales ": 6976,
      "##noter ": 6977,
      "##carré ": 6978,
      "##document.": 6979,
      "##spécifié": 6980,
      "##ements.": 6981,
      "##ajoutés ": 6982,
      "##cop ": 6983,
      "##indicat": 6984,
      "##champ est ": 6985,
      "##bureaux ": 6986,
      "##should ": 6987,
      "##courriel": 6988,
      "##requê": 6989,
      "##à partir de la ": 6990,
      "Exporter ": 6991,
      "##ainsi que les ": 6992,
      "##recherche": 6993,
      "##géré": 6994,
      "##bulles ": 6995,
      "##disponibles": 6996,
      "##amount in units (integer)": 6997,
      "##raccourci clavier ": 6998,
      "##glissi": 6999,
      "##aléatoi": 7000,
      "##Entrée ": 7001,
      "##UTF-": 7002,
      "##QString": 7003,
      "##sourcefor": 7004,
      "##versation ": 7005,
      "## dernier ": 7006,
      "##View": 7007,
      "##licence ": 7008,
      "##émoticô": 7009,
      "##KDEPrint ": 7010,
      "Lim": 7011,
      "Ob": 7012,
      "Tr": 7013,
      "##iez ": 7014,
      "##os de ": 7015,
      "##-o ": 7016,
      "##Sim": 7017,
      "##mal": 7018,
      "##Vidé": 7019,
      "##cateur de ": 7020,
      "##Tout ": 7021,
      "##(et ": 7022,
      "##(proxy": 7023,
      "##ance": 7024,
      "##le type de ": 7025,
      "##le dernier ": 7026,
      "##erme ": 7027,
      "##. html": 7028,
      "##incl": 7029,
      "##ordonn": 7030,
      "##les images ": 7031,
      "##mentionn": 7032,
      "##liste": 7033,
      "##rir": 7034,
      "##diverses ": 7035,
      "##conversion ": 7036,
      "##é ou ": 7037,
      "##exis": 7038,
      "##en compte ": 7039,
      "##gui": 7040,
      "##ent le ": 7041,
      "##qui ne sont pas ": 7042,
      "## d'utilisateur ": 7043,
      "##160 /": 7044,
      "##courbe ": 7045,
      "##à la plac": 7046,
      "##ages de ": 7047,
      "##%1 n'est pas ": 7048,
      "##monit": 7049,
      "##canev": 7050,
      "##ez la case ": 7051,
      "##navigateur de ": 7052,
      "##bin/ ": 7053,
      "##rusader": 7054,
      "##gestionnaire de fenêtres ": 7055,
      "##erreur": 7056,
      "##prochain ": 7057,
      "##selec": 7058,
      "##fenêtres": 7059,
      "##prend pas ": 7060,
      "##autre.": 7061,
      "##Deskt": 7062,
      "##publique ": 7063,
      "##ez -le ": 7064,
      "##téléphone ": 7065,
      "##confirmation ": 7066,
      "##séparateur ": 7067,
      "##résum": 7068,
      "##provenant ": 7069,
      "##recevoir ": 7070,
      "##GenericName": 7071,
      "##ordinateur de poche ": 7072,
      "##hotoAlbu": 7073,
      "##action: inmenu": 7074,
      "##presse-papiers.": 7075,
      "## doivent être ": 7076,
      "##mots de passe ": 7077,
      "##n'êtes pas ": 7078,
      "Mess": 7079,
      "Pré": 7080,
      "Ver": 7081,
      "##pé": 7082,
      "##pil": 7083,
      "##by ": 7084,
      "##cd": 7085,
      "##étri": 7086,
      "##fabri": 7087,
      "##DC": 7088,
      "##Cl": 7089,
      "##Eff": 7090,
      "##GL": 7091,
      "##Joh": 7092,
      "##de contrôle ": 7093,
      "##antil": 7094,
      "##erver": 7095,
      "##les autres ": 7096,
      "## donne ": 7097,
      "##que tous les ": 7098,
      "##dirig": 7099,
      "##des applications ": 7100,
      "##dériv": 7101,
      "##utilisé.": 7102,
      "##opet": 7103,
      "##éroul": 7104,
      "##boolé": 7105,
      "##ash ": 7106,
      "##clé": 7107,
      "## des fichiers ": 7108,
      "##courte ": 7109,
      "##anglais ": 7110,
      "##égl": 7111,
      "##vous pouvez le ": 7112,
      "##créer un nouveau ": 7113,
      "##t de passe ": 7114,
      "##à l'adresse ": 7115,
      "##secteur ": 7116,
      "##rendu": 7117,
      "##renvoy": 7118,
      "##pour les utilisateurs ": 7119,
      "##absolu": 7120,
      "##copyright ": 7121,
      "##zones ": 7122,
      "##ayant ": 7123,
      "##temps.": 7124,
      "##clients ": 7125,
      "##remplacement ": 7126,
      "Il s'agit ": 7127,
      "##projec": 7128,
      "Saisissez ici ": 7129,
      "##barre de menus ": 7130,
      "Créer un ": 7131,
      "Créer un nouveau ": 7132,
      "##à l'aide de ": 7133,
      "##profils ": 7134,
      "##agenda": 7135,
      "##solu ": 7136,
      "##label ": 7137,
      "##ensemble de ": 7138,
      "##musi": 7139,
      "##actuelle": 7140,
      "##radio": 7141,
      "##flèches ": 7142,
      "##principale de k": 7143,
      "##augmen": 7144,
      "##enfoncée ": 7145,
      "##home/ ": 7146,
      "##disquette ": 7147,
      "##expressions rationnelles ": 7148,
      "##e. McBri": 7149,
      "##chanson ": 7150,
      "##transi": 7151,
      "##Avanc": 7152,
      "##l'écraser 160?": 7153,
      "##Mike. McBri": 7154,
      " kde ": 7155,
      "Fenêtre ": 7156,
      "Sign": 7157,
      "Toujours ": 7158,
      "##get ": 7159,
      "##Star": 7160,
      "##moi": 7161,
      "##'s ": 7162,
      "##ong": 7163,
      "##es des ": 7164,
      "##le résultat ": 7165,
      "##paus": 7166,
      "##menc": 7167,
      "##et sélectionnez ": 7168,
      "##et cliquez sur ": 7169,
      "##lip": 7170,
      "##d'affich": 7171,
      "##rien": 7172,
      "##à faire ": 7173,
      "##pour kde ": 7174,
      "##en fonction ": 7175,
      "##sertion ": 7176,
      "##de l'éditeur ": 7177,
      "##applique ": 7178,
      "##sélectionner les ": 7179,
      "##labor": 7180,
      "##modifiés ": 7181,
      "##satis": 7182,
      "## détermin": 7183,
      "##era les ": 7184,
      "##ordre de ": 7185,
      "##milieu": 7186,
      "##points de ": 7187,
      "##ayez ": 7188,
      "Modè": 7189,
      "##translat": 7190,
      "##e. Cliquez ": 7191,
      "##imprimer ": 7192,
      "##sélectionne ": 7193,
      "##espac": 7194,
      "##devra ": 7195,
      "Sélectionner le ": 7196,
      "##quand le ": 7197,
      "##thèse ": 7198,
      "##message.": 7199,
      "##classi": 7200,
      "##confiance ": 7201,
      "##développeurs de ": 7202,
      "##KPilo": 7203,
      "##title: group": 7204,
      "##représentant ": 7205,
      "##utilisées pour ": 7206,
      "##programme.": 7207,
      "##ordinateur.": 7208,
      "##( « ": 7209,
      "## destinat": 7210,
      "Configuration des ": 7211,
      "##langage ": 7212,
      "##fréquence ": 7213,
      "##KOrganiz": 7214,
      "##QString ": 7215,
      "##semaine ": 7216,
      "##magni": 7217,
      "Outil de ": 7218,
      "##cervisia ": 7219,
      "##palette ": 7220,
      "Adresse ": 7221,
      "##d.": 7222,
      "##dès ": 7223,
      "##if ": 7224,
      "##pg ": 7225,
      "##tour": 7226,
      "##by": 7227,
      "##band": 7228,
      "##billes ": 7229,
      "##Notez ": 7230,
      "##cac": 7231,
      "##fou": 7232,
      "##RP": 7233,
      "##kdes": 7234,
      "##kgm": 7235,
      "##Mu": 7236,
      "##HP": 7237,
      "##) de ": 7238,
      "##XSL": 7239,
      "##tivez ": 7240,
      "##er 160: ": 7241,
      "##er ces ": 7242,
      "##le champ ": 7243,
      "##ink": 7244,
      "## détec": 7245,
      "##et est ": 7246,
      "##l'enregistr": 7247,
      "## 160% ": 7248,
      "##à vos ": 7249,
      "##est vide.": 7250,
      "##eter ": 7251,
      "##des caractères ": 7252,
      "##ost ": 7253,
      "##oper": 7254,
      "##« 160 R": 7255,
      "##asse ": 7256,
      "##res d'": 7257,
      "##elle.": 7258,
      "##partie.": 7259,
      "Le serveur ": 7260,
      "##ter une ": 7261,
      "##low": 7262,
      "##advers": 7263,
      "##. Saisissez ": 7264,
      "##desc": 7265,
      "##KDiff": 7266,
      "##in the ": 7267,
      "##ajoutée ": 7268,
      "##respond ": 7269,
      "##fication": 7270,
      "##uméro": 7271,
      "##échantil": 7272,
      "##artist": 7273,
      "Vous ne pouvez pas ": 7274,
      "##et d'autres ": 7275,
      "##procédu": 7276,
      "##effectué ": 7277,
      "Ctrl N ": 7278,
      "##. Après ": 7279,
      "##renvoie ": 7280,
      "##direction ": 7281,
      "##fusion": 7282,
      "##multipl": 7283,
      "##kde. org ": 7284,
      "##à l'aide du ": 7285,
      "Programme ": 7286,
      "##tortu": 7287,
      "##équival": 7288,
      "##plaç": 7289,
      "##combinaison de ": 7290,
      "##appareil photo": 7291,
      "## 160 » et « 160 ": 7292,
      "##demandé": 7293,
      "##majuscule ": 7294,
      "##corbeill": 7295,
      "Dessin": 7296,
      "##intérêt ": 7297,
      "##cookies ": 7298,
      "##Suivant ": 7299,
      "##privilèges ": 7300,
      "##Béz": 7301,
      "Cap": 7302,
      "##dre": 7303,
      "##de. ": 7304,
      "##ly ": 7305,
      "##tête ": 7306,
      "##m. ": 7307,
      "##croi": 7308,
      "##caus": 7309,
      "##hé": 7310,
      "##Fran": 7311,
      "##Cit": 7312,
      "##PA": 7313,
      "##3x": 7314,
      "##de K": 7315,
      "##de nombreuses ": 7316,
      "##sir": 7317,
      "##pouv": 7318,
      "##pouvant ": 7319,
      "##d'icônes ": 7320,
      "##vous -": 7321,
      "##à cô": 7322,
      "##pour toutes les ": 7323,
      "##conven": 7324,
      "##ne doit ": 7325,
      "##iminu": 7326,
      "##profond": 7327,
      "##server": 7328,
      "## de k": 7329,
      "##parce ": 7330,
      "##ées de ": 7331,
      "##nom.": 7332,
      "##port": 7333,
      "##devi": 7334,
      "##sys": 7335,
      "Le programme ": 7336,
      "##emple 160: ": 7337,
      "##sera affich": 7338,
      "##vous pouvez voir ": 7339,
      "##spécial": 7340,
      "##KDe": 7341,
      "##voulez -vous ": 7342,
      "##personnel": 7343,
      "##programme de ": 7344,
      "##the keyword ": 7345,
      "##Mo de ": 7346,
      "##sous-titres ": 7347,
      "##fait de ": 7348,
      "##when ": 7349,
      "##rapide": 7350,
      "##niveaux": 7351,
      "##originale ": 7352,
      "Modifier le ": 7353,
      "##ancienne ": 7354,
      "##site web": 7355,
      "##utilisés pour ": 7356,
      "##plein": 7357,
      "Démarre ": 7358,
      "##recommandé": 7359,
      "##chemin ": 7360,
      "##. Lorsque vous ": 7361,
      "##bordure ": 7362,
      "##difficulté ": 7363,
      "##préférences ": 7364,
      "Informations ": 7365,
      "##cvs ": 7366,
      "##efficac": 7367,
      "##sourceforg": 7368,
      "Au ": 7369,
      "Ferme ": 7370,
      "Poli": 7371,
      "##toire ": 7372,
      "##vesti": 7373,
      "##ral": 7374,
      "##htt": 7375,
      "##Dev": 7376,
      "##As": 7377,
      "##TS": 7378,
      "##Mari": 7379,
      "##(cad ": 7380,
      "##Plas": 7381,
      "##8.": 7382,
      "##s des ": 7383,
      "##es sont ": 7384,
      "##ennes ": 7385,
      "##la configuration ": 7386,
      "##la version ": 7387,
      "##la fenêtre de ": 7388,
      "##ez d'": 7389,
      "##l'accès ": 7390,
      "##arb": 7391,
      "##à afficher ": 7392,
      "##est toujours ": 7393,
      "##plage ": 7394,
      "##en un ": 7395,
      "##rég": 7396,
      "##ne l'": 7397,
      "##ne vous ": 7398,
      "##on peut ": 7399,
      "##open": 7400,
      "##écan": 7401,
      "##par exempl": 7402,
      "##%1. ": 7403,
      "##paren": 7404,
      "##er les images ": 7405,
      "##cette boîte de dialogue ": 7406,
      "##que vous n'": 7407,
      "Le bouton ": 7408,
      "Le nombre de ": 7409,
      "##angla": 7410,
      "##boîtes ": 7411,
      "##. Server": 7412,
      "##er l' ": 7413,
      "##finir ": 7414,
      "##film ": 7415,
      "##trice ": 7416,
      "##ajouté ": 7417,
      "##formule ": 7418,
      "Vous pouvez aussi ": 7419,
      "Inclu": 7420,
      "##gauche de la souris ": 7421,
      "##pourquoi ": 7422,
      "##contient les ": 7423,
      "##basculer ": 7424,
      "##attendre ": 7425,
      "##télécharger ": 7426,
      "##faite ": 7427,
      "##type de fichier ": 7428,
      "##maximal": 7429,
      "##capture ": 7430,
      "##essayer de ": 7431,
      "##courante.": 7432,
      "##stockés ": 7433,
      "##systèmes de ": 7434,
      "##vers la gauche ": 7435,
      "##disponible.": 7436,
      "##. Une fois ": 7437,
      "##minutes": 7438,
      "##endroit où ": 7439,
      "##dossiers.": 7440,
      "##conflits ": 7441,
      "##nnn. ": 7442,
      "Une erreur s'est produite ": 7443,
      "##. Ils ": 7444,
      "Filtre d'importation ": 7445,
      "##préfixe ": 7446,
      "##e. Elle ": 7447,
      "##polygon": 7448,
      "##. Consultez ": 7449,
      "##Description ": 7450,
      "##caractéristiques ": 7451,
      "##avec succès.": 7452,
      "##Matthi": 7453,
      "##orama ": 7454,
      "##ServerAd": 7455,
      "##environnement de bureau ": 7456,
      "##étapes ": 7457,
      "Prise en charge ": 7458,
      "##gorith": 7459,
      "Insère ": 7460,
      "Notez ": 7461,
      "Poin": 7462,
      "##ge": 7463,
      "##gmail. com": 7464,
      "##-t-": 7465,
      "##brack": 7466,
      "##mbrell": 7467,
      "##fe": 7468,
      "##Fenêtre ": 7469,
      "##Format ": 7470,
      "##Bib": 7471,
      "##ou du ": 7472,
      "##train": 7473,
      "##inc": 7474,
      "##siez ": 7475,
      "## détail": 7476,
      "##et non ": 7477,
      "##une partie ": 7478,
      "##démon ": 7479,
      "##détru": 7480,
      "##moin": 7481,
      "##du bureau ": 7482,
      "##au niveau ": 7483,
      "##au moment ": 7484,
      "##plus d'": 7485,
      "##loin": 7486,
      "##données de ": 7487,
      "##fois.": 7488,
      "##à l'échelle ": 7489,
      "##application de ": 7490,
      "##coller ": 7491,
      "##ets (e. g": 7492,
      "##mètre ": 7493,
      "##artis": 7494,
      "##années ": 7495,
      "##configurer la ": 7496,
      "##alarm ": 7497,
      "##contrôler ": 7498,
      "##« 160 %1 160 » existe déjà": 7499,
      "##de kde": 7500,
      "##pend ": 7501,
      "##manuel": 7502,
      "Comman": 7503,
      "##initial": 7504,
      "##personnalisé ": 7505,
      "Créer une nouvelle ": 7506,
      "##ceci est ": 7507,
      "##. Remarque 160: ": 7508,
      "##mettre en ": 7509,
      "##disponibles.": 7510,
      "##Prin": 7511,
      "##connexion.": 7512,
      "##expliqu": 7513,
      "##ence.": 7514,
      "##Make": 7515,
      "##html ": 7516,
      "##liné": 7517,
      "##diffusion": 7518,
      "##transfert ": 7519,
      "##pourcentage ": 7520,
      "##fournisseur ": 7521,
      "##inverse ": 7522,
      "##Name ServerAd": 7523,
      "##économis": 7524,
      "##o not translate the keyword ": 7525,
      "##min etc.)": 7526,
      "##between brack": 7527,
      "##calcul ": 7528,
      "##KDevelop": 7529,
      "##. ServerName ServerAd": 7530,
      "##ets (e. g. ServerName ServerAd": 7531,
      "##o not translate the keyword between brack": 7532,
      "##ets (e. g. ServerName ServerAdmin etc.)": 7533,
      "##o not translate the keyword between brackets (e. g. ServerName ServerAdmin etc.)": 7534,
      "Faire ": 7535,
      "Pour": 7536,
      "##abi": 7537,
      "##ale de ": 7538,
      "##-1": 7539,
      "##-R": 7540,
      "##x-": 7541,
      "##sti": 7542,
      "##veur ": 7543,
      "##md": 7544,
      "##Nets": 7545,
      "##éré": 7546,
      "##hang": 7547,
      "##Désactiv": 7548,
      "##Trans": 7549,
      "##Identi": 7550,
      "##Bien ": 7551,
      "##96": 7552,
      "##[fonction": 7553,
      "##50 ": 7554,
      "##envenue ": 7555,
      "##le jeu ": 7556,
      "##. g": 7557,
      "##inpu": 7558,
      "##pat": 7559,
      "## déroul": 7560,
      "##arc": 7561,
      "##accus": 7562,
      "##d'alarme ": 7563,
      "##un nombre ": 7564,
      "##dél": 7565,
      "##déplacement ": 7566,
      "##en appuyant ": 7567,
      "##ne semble ": 7568,
      "##utilise les ": 7569,
      "##de la souris": 7570,
      "##protég": 7571,
      "##%1 160 » ": 7572,
      "##cules ": 7573,
      "##vie ": 7574,
      "##fichier est ": 7575,
      "##devient ": 7576,
      "##qui seront ": 7577,
      "##issement ": 7578,
      "##il s'agit ": 7579,
      "##corrompu": 7580,
      "##marque ": 7581,
      "##soulign": 7582,
      "##cercle ": 7583,
      "##créée ": 7584,
      "##s'appliqu": 7585,
      "## pour l'": 7586,
      "##changer les ": 7587,
      "##2002 ": 7588,
      "##suivi ": 7589,
      "##instance ": 7590,
      "##graphi": 7591,
      "##aban": 7592,
      "##mais pas ": 7593,
      "##e. Lors": 7594,
      "##onglets": 7595,
      "##opération de ": 7596,
      "##correctement": 7597,
      "##seign": 7598,
      "##. Si la ": 7599,
      "##présents ": 7600,
      "##boutons de ": 7601,
      "##latex ": 7602,
      "##niveaux de ": 7603,
      "En cliquant ": 7604,
      "##conditions ": 7605,
      "##installation de ": 7606,
      "##EXIF": 7607,
      "##plateau de ": 7608,
      "%1 160: ": 7609,
      "##relatives ": 7610,
      "##tandis ": 7611,
      "##help": 7612,
      "##manières ": 7613,
      "##label: ": 7614,
      "##zip": 7615,
      "##constell": 7616,
      "##jeu de caractères ": 7617,
      "##subs": 7618,
      "##branche ": 7619,
      "##LaTeX": 7620,
      "##LDAP": 7621,
      "##JavaScript ": 7622,
      "##PATH": 7623,
      "##[fonction]": 7624,
      "Certains ": 7625,
      "Él": 7626,
      "##if": 7627,
      "##uk ": 7628,
      "##saut": 7629,
      "##egr": 7630,
      "##mécan": 7631,
      "##Noun ": 7632,
      "##DA": 7633,
      "##ko": 7634,
      "##Hot": 7635,
      "##40 ": 7636,
      "##t et ": 7637,
      "##ence": 7638,
      "##en de": 7639,
      "##le serveur ": 7640,
      "##le temps ": 7641,
      "##le nombre ": 7642,
      "##ern": 7643,
      "##. de": 7644,
      "##aler": 7645,
      "##une liste ": 7646,
      "##des options ": 7647,
      "##age. ": 7648,
      "##guillem": 7649,
      "##de la fenêtre de ": 7650,
      "##se peut ": 7651,
      "##er le curseur ": 7652,
      "##perte de ": 7653,
      "##qui peut ": 7654,
      "##appnam": 7655,
      "##plus d'un ": 7656,
      "##is the ": 7657,
      "Le module ": 7658,
      "##dans la liste de ": 7659,
      "##comme la ": 7660,
      "##- \\\\": 7661,
      "##. Seu": 7662,
      "## et de ": 7663,
      "##ation de l'": 7664,
      "##enregistrer le ": 7665,
      "##supprimés ": 7666,
      "##supprimer des ": 7667,
      "##couleur du ": 7668,
      "##ouvertes ": 7669,
      "##type MIME": 7670,
      "##surface ": 7671,
      "##ère.": 7672,
      "##relâch": 7673,
      "##long ": 7674,
      "##formats de ": 7675,
      "##espace disque ": 7676,
      "##distributions ": 7677,
      "##séparée ": 7678,
      "##cliquer sur le bouton ": 7679,
      "##sonor": 7680,
      "##quitter ": 7681,
      "Échec de l'": 7682,
      "##PNG": 7683,
      "##restaur": 7684,
      "##kspread ": 7685,
      "##domain": 7686,
      "##applet ": 7687,
      "##arrière plan": 7688,
      "##ressemble ": 7689,
      "##ultérieu": 7690,
      "##Soleil ": 7691,
      "##organizer ": 7692,
      "##quadrill": 7693,
      "Rés": 7694,
      "Règ": 7695,
      "la ": 7696,
      "##d-": 7697,
      "##ay ": 7698,
      "##gros ": 7699,
      "##-2": 7700,
      "##s. Le ": 7701,
      "##me.": 7702,
      "##ceci": 7703,
      "##%4 ": 7704,
      "##()": 7705,
      "##anche ": 7706,
      "##es)": 7707,
      "##les valeurs ": 7708,
      "##te et ": 7709,
      "##alzi": 7710,
      "##l'alarme ": 7711,
      "##vous assurer ": 7712,
      "##pour K": 7713,
      "##est très ": 7714,
      "##est nécessaire ": 7715,
      "##en les ": 7716,
      "##tionnel": 7717,
      "##cord": 7718,
      "##dans la page ": 7719,
      "##sous...": 7720,
      "##lui": 7721,
      "##te)": 7722,
      "##s'il est ": 7723,
      "##spécial ": 7724,
      "##section": 7725,
      "##abs": 7726,
      "##monter ": 7727,
      "##contraste ": 7728,
      "##avoir une ": 7729,
      "##atur": 7730,
      "Utiliser les ": 7731,
      "##modèles de ": 7732,
      "##aux d'": 7733,
      "##chaîne": 7734,
      "##ssistant ": 7735,
      "##arrive ": 7736,
      "##bilité de ": 7737,
      "##essayez de ": 7738,
      "##brique ": 7739,
      "##original ": 7740,
      "##pris en charg": 7741,
      "##anciens ": 7742,
      "##« 160. ": 7743,
      "##contrôler le ": 7744,
      "Démarrer ": 7745,
      "##avec le BGS ": 7746,
      "##juk ": 7747,
      "##Termin": 7748,
      "##telle manière ": 7749,
      "##DTD": 7750,
      "##fault ": 7751,
      "##HOME": 7752,
      "##région ": 7753,
      "##lui-même ": 7754,
      "##dynamiqu": 7755,
      "##règl": 7756,
      "## degrés ": 7757,
      "##accueil": 7758,
      "## diagramme ": 7759,
      "##Palm": 7760,
      "##astuces ": 7761,
      "Importation OpenVPN": 7762,
      "##Outlook": 7763,
      "##City ": 7764,
      "##alzium": 7765,
      "##aise ": 7766,
      "##laire ": 7767,
      "##-ce ": 7768,
      "##pm": 7769,
      "##Si vous ": 7770,
      "##sw": 7771,
      "##slo": 7772,
      "##eweather condition": 7773,
      "##cess": 7774,
      "##ja": 7775,
      "##Log": 7776,
      "##kopete ": 7777,
      "##y/ ": 7778,
      "##Ils ": 7779,
      "##Cal": 7780,
      "##war": 7781,
      "##Gu": 7782,
      "##80 ": 7783,
      "##30": 7784,
      "##œ ": 7785,
      "##le format ": 7786,
      "##prises ": 7787,
      "##atég": 7788,
      "##comprendre ": 7789,
      "##dans un dossier ": 7790,
      "##prof": 7791,
      "##ée (": 7792,
      "##cola": 7793,
      "##make ": 7794,
      "##fort ": 7795,
      "##peu de ": 7796,
      "##qui apparaît ": 7797,
      "##vali": 7798,
      "##valables ": 7799,
      "##. Com": 7800,
      "##res de ": 7801,
      "Image ": 7802,
      "##sion de ": 7803,
      "##item ": 7804,
      "##toy": 7805,
      "##leopa": 7806,
      "##ober": 7807,
      "##égal ": 7808,
      "##root": 7809,
      "##vers les ": 7810,
      "L'option ": 7811,
      "##édition ": 7812,
      "##ajoutées ": 7813,
      "##champs de ": 7814,
      "##stratég": 7815,
      "##peut être utilisée pour ": 7816,
      "##faire un ": 7817,
      "##lors des ": 7818,
      "##dans l'ordre ": 7819,
      "##page.": 7820,
      "##arith": 7821,
      "##basse ": 7822,
      "##« 160 %1 160 » est ": 7823,
      "##recherche de ": 7824,
      "##tests ": 7825,
      "##précédente": 7826,
      "##relev": 7827,
      "##Cho": 7828,
      "##multi-": 7829,
      "##en deux ": 7830,
      "##ceci pour ": 7831,
      "##KPhotoAlbu": 7832,
      "##kde. org/ ": 7833,
      "##ool ": 7834,
      "##begin": 7835,
      "##appuyez sur le bouton ": 7836,
      "##inconnue ": 7837,
      "##expéditeur ": 7838,
      "##mis en ": 7839,
      "##Type ": 7840,
      "Comment puis -je ": 7841,
      "##mathématiques ": 7842,
      "##publiqu": 7843,
      "##franç": 7844,
      "##sourceforge. net": 7845,
      "Ajust": 7846,
      "Connexion ": 7847,
      "##lus": 7848,
      "##eil ": 7849,
      "##mom": 7850,
      "##1)": 7851,
      "##1: ": 7852,
      "##LP": 7853,
      "##kile ": 7854,
      "##Er": 7855,
      "##wri": 7856,
      "##() renvoie ": 7857,
      "##YP": 7858,
      "##ous": 7859,
      "##. info": 7860,
      "##inform": 7861,
      "##que pour les ": 7862,
      "##une couleur ": 7863,
      "##une petite ": 7864,
      "##exi ": 7865,
      "##en maintenant ": 7866,
      "##révi": 7867,
      "##provoqu": 7868,
      "##maj": 7869,
      "##parence ": 7870,
      "##sélectionner la ": 7871,
      "##sélectionnez le ": 7872,
      "##il faut ": 7873,
      "##0000": 7874,
      "##ter des ": 7875,
      "##dans la boîte de dialogue de ": 7876,
      "##er l'onglet ": 7877,
      "##trouver": 7878,
      "##ro ": 7879,
      "##information": 7880,
      "##%1 '": 7881,
      "##enregistrer la ": 7882,
      "##simula": 7883,
      "##presque ": 7884,
      "##abc": 7885,
      "##tée.": 7886,
      "##s. D": 7887,
      "##ements de ": 7888,
      "##ance des ": 7889,
      "##permet de choisir ": 7890,
      "##transform": 7891,
      "##rapporter ": 7892,
      "Cette page ": 7893,
      "##depuis un ": 7894,
      "##. De plus ": 7895,
      "##devrez ": 7896,
      "##tronom": 7897,
      "##paramètres de ": 7898,
      "##le fichier de ": 7899,
      "##navigation": 7900,
      "##codage ": 7901,
      "##style de ": 7902,
      "##dans une nouvelle ": 7903,
      "##traditionn": 7904,
      "## démarre ": 7905,
      "Cliquez ici pour ": 7906,
      "##title ": 7907,
      "##courante": 7908,
      "##utilise un ": 7909,
      "##dans le menu contextu": 7910,
      "##séparées ": 7911,
      "##commencer ": 7912,
      "##listbox": 7913,
      "##tyle ": 7914,
      "##l'élément de menu ": 7915,
      "##doute ": 7916,
      "##pilotes ": 7917,
      "##virtuel ": 7918,
      "##. Utilisez ": 7919,
      "##(%1) ": 7920,
      "##intervalle ": 7921,
      "##aléatoire ": 7922,
      "##ject": 7923,
      "Activer cette option ": 7924,
      "##plein écran": 7925,
      "##cinq ": 7926,
      "##noyau ": 7927,
      "##fil de discussion ": 7928,
      "##combien de ": 7929,
      "##pièce jointe ": 7930,
      "##konsolek": 7931,
      "Importation OpenVPN 160: ": 7932,
      "Mise ": 7933,
      "Sim": 7934,
      "Temp": 7935,
      "##dû": 7936,
      "##mer ": 7937,
      "##kappname ": 7938,
      "##At": 7939,
      "##TL": 7940,
      "##Ignor": 7941,
      "##Fu": 7942,
      "##Un": 7943,
      "##Qt": 7944,
      "##tian ": 7945,
      "##tront ": 7946,
      "##. s": 7947,
      "##les liens ": 7948,
      "##sive ": 7949,
      "##d'h": 7950,
      "##d'analyse ": 7951,
      "##vous le ": 7952,
      "##à utiliser.": 7953,
      "##pour choisir ": 7954,
      "##pour définir ": 7955,
      "##pour pouvoir ": 7956,
      "##est utilisée ": 7957,
      "##ex 160: ": 7958,
      "##ages": 7959,
      "##réessay": 7960,
      "##dans « 160 ": 7961,
      "##modé": 7962,
      "##embl": 7963,
      "##se connec": 7964,
      "##code": 7965,
      "##nom et ": 7966,
      "##n'affec": 7967,
      "##astronom": 7968,
      "##but de ": 7969,
      "##bulle ": 7970,
      "##plus réc": 7971,
      "##tout de ": 7972,
      "##y en ": 7973,
      "##sera automatiquement ": 7974,
      "##sera remplac": 7975,
      "##chargement ": 7976,
      "##entiss": 7977,
      "##s'applique ": 7978,
      "##compte de ": 7979,
      "##allons ": 7980,
      "##2000 ": 7981,
      "##. Puis ": 7982,
      "##mais vous pouvez ": 7983,
      "##dossier de ": 7984,
      "##informations de ": 7985,
      "##indice ": 7986,
      "##lorsqu'il ": 7987,
      "##temps": 7988,
      "##correct ": 7989,
      "##identification ": 7990,
      "##contient un ": 7991,
      "##que l'utilisateur ": 7992,
      "##Quer": 7993,
      "##à deux ": 7994,
      "##curseur.": 7995,
      "##vous permet de choisir ": 7996,
      "##grandes ": 7997,
      "##car il ": 7998,
      "## démarr": 7999,
      "##situé ": 8000,
      "##gérer ": 8001,
      "##clic-": 8002,
      "Cochez cette option pour ": 8003,
      "##symboliqu": 8004,
      "##configurés ": 8005,
      "##installation.": 8006,
      "##particulièrement ": 8007,
      "##infra": 8008,
      "##étoile ": 8009,
      "##principale.": 8010,
      "##droits d'": 8011,
      "##générale ": 8012,
      "Nom du ": 8013,
      "##accessibles ": 8014,
      "##Arrê": 8015,
      "##Copier ": 8016,
      "##en tant qu'": 8017,
      "##gril": 8018,
      "Voici une ": 8019,
      "##user action": 8020,
      "##moyen de ": 8021,
      "##DCOP ": 8022,
      "##rectangle ": 8023,
      "##OpenPGP": 8024,
      "##éventuellement ": 8025,
      "##schémas ": 8026,
      "##const QString": 8027,
      "Certaines ": 8028,
      "No": 8029,
      "Rec": 8030,
      "Véri": 8031,
      "##dra ": 8032,
      "##ati": 8033,
      "##les.": 8034,
      "##gpg": 8035,
      "##noire ": 8036,
      "##taux de ": 8037,
      "##1 et ": 8038,
      "##ême ": 8039,
      "##'%1 '": 8040,
      "##Ret": 8041,
      "##DAT": 8042,
      "##kb": 8043,
      "##Men": 8044,
      "##On": 8045,
      "##OL": 8046,
      "##GU": 8047,
      "##(P": 8048,
      "##KI": 8049,
      "##Key": 8050,
      "##+0": 8051,
      "##\\ ": 8052,
      "##er du ": 8053,
      "##. net": 8054,
      "##path": 8055,
      "##les les ": 8056,
      "##l'objet ": 8057,
      "##rière ": 8058,
      "##eur (": 8059,
      "##ex. ": 8060,
      "##avance ": 8061,
      "##atta": 8062,
      "##mobil": 8063,
      "##du même ": 8064,
      "##ture.": 8065,
      "##force ": 8066,
      "##tente ": 8067,
      "##n'en ": 8068,
      "##affichent ": 8069,
      "##phère ": 8070,
      "##plus d'une ": 8071,
      "##autorise ": 8072,
      "##000 ": 8073,
      "##texte de ": 8074,
      "##partie": 8075,
      "##itess": 8076,
      "##dans le document ": 8077,
      "##marques ": 8078,
      "La couleur ": 8079,
      "##dossier.": 8080,
      "##trouver le ": 8081,
      "## 160 » « 160 ": 8082,
      "##s'exécu": 8083,
      "##era la ": 8084,
      "Les fichiers ": 8085,
      "##valeur de ": 8086,
      "##signets": 8087,
      "##peut être utilisé pour ": 8088,
      "##. Vous pouvez choisir ": 8089,
      "##formu": 8090,
      "##cliquez sur le ": 8091,
      "Cette section ": 8092,
      "##complé": 8093,
      "##principale": 8094,
      "##droite.": 8095,
      "##. Si vous ne ": 8096,
      "##chiffre": 8097,
      "##passant ": 8098,
      "##archit": 8099,
      "##vraient ": 8100,
      "##which ": 8101,
      "## document.": 8102,
      "##média": 8103,
      "## démarrage ": 8104,
      "Configuration Afficher la ": 8105,
      "##name of the ": 8106,
      "##of a ": 8107,
      "##produire ": 8108,
      "##standard.": 8109,
      "##recherche.": 8110,
      "##Déplacer ": 8111,
      "##stockage ": 8112,
      "Ajouter une ": 8113,
      "##moyen": 8114,
      "##commencer à ": 8115,
      "Affiche ou cache ": 8116,
      "##cliquer sur ": 8117,
      "##modules extern": 8118,
      "##plateau ": 8119,
      "##invitation ": 8120,
      "##PostScrip": 8121,
      "Configurer les ": 8122,
      "##listes de lecture ": 8123,
      "##série ": 8124,
      "##avertissement ": 8125,
      "##quantité ": 8126,
      "##icônes": 8127,
      "##KOffi": 8128,
      "##ttention 160: ": 8129,
      "## devrait être ": 8130,
      "##Description": 8131,
      "##plantage ": 8132,
      "##unités ": 8133,
      "##avec le bouton droit de la souris ": 8134,
      "##pdf": 8135,
      "##communication ": 8136,
      "##barre latérale ": 8137,
      "##joint": 8138,
      "##barre d'état.": 8139,
      " hel": 8140,
      "(c) 199": 8141,
      "Bien ": 8142,
      "Cl": 8143,
      "Di": 8144,
      "Dossier ": 8145,
      "Pas de ": 8146,
      "##linu": 8147,
      "##gris ": 8148,
      "##né": 8149,
      "##pist": 8150,
      "##toi": 8151,
      "##tes. ": 8152,
      "##sons ": 8153,
      "##efois ": 8154,
      "##ze ": 8155,
      "##zéro ": 8156,
      "##1 160: ": 8157,
      "##11 ": 8158,
      "##cis": 8159,
[...]
